#version: 0.2
Ġ t
h e
Ġ a
i n
Ġt he
Ġ s
Ġ o
Ġ w
r e
n d
e r
h a
Ġ b
o u
o n
i t
Ġ m
i s
Ġ c
e d
e n
Ġo f
Ġ f
Ġa nd
o r
e s
â Ģ
Ġt o
in g
Ġ p
a t
a r
Ġ d
a n
l l
Ġ in
a s
Ġ l
Ġ h
Ġ he
Ġ n
o m
Ġ I
i c
Ġ ha
. .
l e
Ġb e
Ġ g
ha t
a l
i on
o t
Ġ e
s t
v e
o w
Ġt h
Ġ 1
u t
Ġ A
en t
Ġ T
i m
i d
s e
Ġ y
l d
Ġ u
Ġt hat
l y
Ġ re
c e
g h
e t
Ġw as
a y
i r
v er
Ġ it
it h
Ġo n
Ġf or
r o
Ġ S
u r
Ġ âĢ
Ġy ou
Ġw h
Ġw ith
a d
ĠâĢ ľ
âĢ Ŀ
Ġh is
.. ..
c t
Ġa s
âĢ Ļ
Ġs t
r a
r i
Ġ M
Ġ is
gh t
Ġ C
he r
Ġw e
a m
Ġn ot
c h
0 0
ĠT he
Ġa n
Ġ H
Ġ B
t er
i ll
i l
o o
Ġha d
Ġ k
Ġhe r
Ġ (
t h
at ion
Ġs e
Ġa t
ou ld
Ġm e
a nd
a in
i f
u l
o re
Ġ 0
Ġh im
Ġ 2
Ġd e
Ġs a
es s
Ġ W
p e
Ġ P
k e
Ġ L
g e
n t
Ġs u
es t
re d
r om
Ġb y
ic h
Ġc om
u s
a ll
Ġc on
Ġs he
Ġha ve
Ġ r
Ġ G
Ġ N
a c
Ġm y
- -
Ġ F
Ġs o
Ġ E
Ġwh ich
re s
Ġa ll
Ġu p
e m
i ght
a b
at e
q u
Ġf rom
Ġthe y
Ġb ut
Ġe x
er s
an t
Ġ D
Ġ1 9
.... ....
Ġo r
Ġ v
is t
Ġn e
e l
o l
ar t
Ġth is
u m
Ġs h
ou s
Ġw he
ar d
u st
Ġsa id
Ġd o
i ve
Ġa re
Ġthe m
o p
Ġ O
u n
as t
ĠA nd
Ġwe re
o s
ou r
Ġm an
Ġa l
on g
oo d
âĢ Ķ
p p
Ġs ha
Ġp ro
o d
i g
om e
or t
i e
Ġ 3
Ġ R
. âĢĿ
am e
it y
Ġ J
ou t
on e
Ġon e
ha n
Ġa b
Ġthe re
ĠH e
or d
Ġin t
Ġn o
i v
1 9
Ġthe ir
in d
Ġk n
l f
ou nd
a k
ver y
m ent
e ll
Ġwh o
Ġth ou
Ġl e
u d
Ġo ut
p t
in e
Ġw ill
c k
Ġw ould
t her
i es
, âĢĿ
u re
l a
Ġ1 8
o st
Ġa g
r y
Ġ 4
ow n
Ġu n
Ġg o
Ġ j
v en
Ġbe en
as s
a u
0 1
re at
r an
oo k
Ġwhe n
id e
Ġl i
a ke
Ġsha ll
he d
it t
Ġyou r
e ar
Ġ "
Ġa r
f f
w ay
Ġs p
r ou
a p
e ct
a g
c c
e p
ic e
se lf
im e
Ġ _
is h
Ġw or
Ġa m
Ġo ther
Ġ U
Ġm ore
b er
ac k
Ġf a
f ore
Ġint o
c i
it e
Ġu s
Ġ if
ĠI t
0 2
Ġc h
Ġw hat
i a
o se
ab le
r u
Ġc an
Ġc ould
o nd
' s
Ġ qu
Ġa d
Ġup on
Ġan y
en ce
p l
re n
Ġu nt
Ġ ro
Ġo ver
Ġp er
Ġd is
Ġ 5
Ġ im
Ġt han
i an
ing s
b le
Ġ en
o ve
ar y
ur n
Ġb l
all y
Ġkn ow
Ġs ome
9 0
Ġag ain
ad e
ĠT h
Ġf e
Ġt w
Ġab out
a re
Ġd id
p er
ou nt
Ġp l
ĠB ut
e nd
ion s
i re
Ġli ke
ot her
Ġs ay
Ġha nd
........ ........
ĠI n
re e
Ġ 6
Ġ Y
Ġn ow
Ġ 8
h ing
) ,
res s
Ġc l
? âĢĿ
w n
e red
i ld
Ġp art
Ġp e
a ge
in k
Ġt ime
Ġse e
i le
Ġp r
Ġd ay
f ter
at ed
Ġof f
Ġl ook
Ġg r
at h
at her
Ġthe n
an ce
1 0
Ġha s
Ġ very
i ed
o ld
nd er
Ġ K
n ess
b l
Ġsh ould
Ġ .
Ġunt o
Ġf l
Ġg reat
Ġto o
k ed
Ġ 7
v ed
itt le
i z
ĠM r
ul t
Ġcom m
Ġg ood
n e
u e
ĠS he
a ch
Ġcon t
Ġl ittle
Ġbe fore
9 2
Ġo ur
l and
Ġre s
Ġd own
Ġcom p
n g
0 3
on s
9 1
w ard
a v
Ġy ear
if e
Ġon ly
Ġp re
m an
Ġc ha
Ġ ra
c l
or n
o ll
Ġm ade
Ġa fter
p s
Ġc ame
Ġcom e
Ġit s
op le
Ġ ri
o g
Ġs pe
u ch
! âĢĿ
f t
9 3
o y
i ous
9 4
ou se
Ġ V
Ġtw o
ir st
is e
-- --
00 0
w e
O R
Ġm ay
in t
r ic
ation s
Ġu nder
Ġbe c
2 0
Ġl ong
Ġp o
u ll
Ġ -
Ġd es
Ġw ay
f ul
Ġre m
Ġs m
s o
6 5
Ġs c
Ġb r
b s
e w
c es
er t
Ġbe t
Ġe ar
1 8
Ġth y
Ġm ust
Ġa cc
Ġthe se
Ġe very
ĠS t
ig n
he n
Ġh ow
Ġwhe re
ar k
er v
Ġe ven
is s
Ġm ight
p h
Ġo wn
Ġin d
Ġsu ch
1 4
Ġe y
Ġp ass
Ġf irst
1 5
ct ion
at er
ic al
Ġm en
a ve
ĠI s
ic k
Ġne ver
Ġm uch
1 2
0 4
Ġpe ople
i p
1 3
8 8
Ġim p
Ġk m
ĠF or
Ġb ack
or y
rou gh
Ġth ink
Ġcon s
i gh
Ġg l
# _
d u
t y
Ġ_ #_
ot h
Ġwe ll
i al
au se
e re
Ġl et
ĠG od
Ġthe e
m er
7 7
Ġse em
way s
Ġth rough
Ġm ost
o c
Ġw ent
6 4
Ġbe g
Ġh ouse
2 5
Ġm ake
et h
Ġ est
a le
Ġ $
o ck
Ġo ld
ĠA s
i ly
8 9
os s
t he
Ġw ord
ri ed
0 5
E R
Ġre p
ou gh
l ed
Ġthou ght
6 3
8 5
1 7
Ġch ild
Ġy e
Ġat t
ĠL OR
he s
Ġs l
an g
c ed
Ġ 9
2 3
en s
Ġc all
Ġw r
Ġt urn
ĠC h
Ġl and
Ġp res
2 4
in ce
Ġhim self
r ow
Ġr ate
Ġ ent
Ġhe ad
l es
Ġa way
Ġk e
Ġyear s
Ġbe ing
6 7
% ,
ĠThe re
Ġwor k
ĠLOR D
Ġhe re
8 7
Ġj ust
or s
Ġa pp
9 9
it ion
l ess
Ġl a
as e
Ġbe l
Ġc o
8 4
Ġt e
ter n
om an
f or
m b
t e
Ġal so
ad y
om et
Ġl ast
. "
u res
8 3
ĠThe y
Ġey es
ow er
Ġc ar
la ce
ĠM ar
c y
Ġf ound
j ect
Ġl ife
if f
Ġt r
v es
a ce
pe ct
Ġth ings
en ed
e ver
Ġf ri
x t
2 7
Ġman y
Ġm ar
Ġo p
a il
) ;
c on
Ġth ose
Ġg et
Ġri ght
ill ion
ation al
Ġha r
Ġa p
b e
Ġc ount
en er
0 7
g ed
t ed
Ġ [
Ġre t
Ġagain st
at es
Ġa c
1 6
ĠA n
m ed
Ġe nd
Ġt ake
is hed
it her
i b
9 5
Ġt ra
Ġp ut
Ġwith out
he re
Ġne w
ĠW h
ĠTh is
ver s
Ġd ist
Ġst ill
ent s
ĠThe n
Ġhe art
v ing
g et
4 3
m s
Ġpro du
. )
al k
Ġsa w
i ble
Ġg ra
Ġs w
en se
Ġe ver
Ġp lace
Ġw ant
9 7
ver n
Ġy et
pe nd
ĠS o
2 6
ĠY ou
at ive
Ġd on
se l
Ġfa ce
Ġs et
Ġse c
Ġs ame
Ġsu b
le ct
ĠA l
8 6
ou th
Ġre c
Ġs omet
4 4
ar s
Ġs erv
ĠA t
a red
i x
u nd
Ġt er
Ġf ather
ĠT o
od y
Ġk ing
ve l
a h
u p
Ġl ight
an s
Ġt ell
' t
Ġb re
it s
at ter
ra ct
op ul
re t
Ġin st
it ed
Ġf ar
ic t
u bl
p le
Ġn ight
Ġyou ng
Ġfri end
Ġth ing
Ġan other
1 1
Ġn ame
Ġwor ld
Ġnot hing
on t
l i
in ed
Ġ &
Ġn or
s w
oll ow
Ġp ers
Ġg ive
Ġwh ile
Ġsu pp
it ies
Ġl ove
5 3
ot t
Ġbec ause
ak ing
n ing
0 6
ert ain
Ġlook ed
2 2
Ġth ree
9 6
r it
Ġw ar
c ess
ent ly
Ġm in
g er
im es
Ġtoo k
Ġ1 7
Ġthou gh
ĠI f
Ġc our
s s
A R
ĠT hat
Ġs y
Ġex p
we en
ou n
Ġh o
U S
Ġr un
oo l
ĠD e
ĠW e
Ġseem ed
ĠI nd
Ġm ind
v ent
ut ion
Ġre g
th ing
m e
ĠW hen
ĠMr s
ĠW hat
Ġle ft
om m
Ġs ide
Ġm om
Ġp le
Ġf ore
d en
k s
Ġo cc
Ġbet ween
ain t
Ġc han
c hed
Ġf ollow
ment s
Ġam ong
Ġd one
ie f
au ght
ce pt
Ġha pp
Ġhand s
ĠS e
Ġ1 5
Ġs ur
re w
u b
ur al
u al
Ġhe ard
Ġchild ren
ha r
Ġde ath
Ġre f
Ġan sw
e g
u g
Ġad d
ow s
i er
Ġap pe
Ġc ur
Ġre l
Ġn at
Ġcon f
---- ----
Ġto t
Ġ1 0
Ġd iff
o f
4 5
a ir
is ter
Ġc ap
Ġre st
ut e
Ġon ce
opul ation
ud e
Ġp oss
o bs
A N
E N
Ġu se
Ġl ar
id ent
Ġf ind
Ġbe h
ul ar
ain ed
m ost
Ġs on
b t
Ġfe el
ĠB e
in s
Ġf ell
Ġdis c
rou ght
Ġear th
Ġg ener
Ġs at
o ice
Ġg iv
4 7
Ġh igh
Ġg u
ort s
Ġw oman
Ġin c
ĠL ord
Ġk ind
Ġa ct
Ġp ur
in ess
Ġal ways
ĠU n
ĠN A
Ġe v
el t
a ct
Ġe m
n er
Ġtot al
Ġg ot
Ġret urn
Ġha th
Ġs il
Ġgo ing
3 3
Ġmom ent
vern ment
ubl ic
Ġto ward
, "
Ġro om
Ġex t
8 0
at t
Ġb o
Ġsm all
5 5
Ġc he
at ing
Ġm on
er ing
Ġst and
Ġc a
ĠU S
er n
3 0
Ġfor m
n ot
Ġl o
Ġar t
Ġdo or
Ġ1 2
en e
con om
ut h
Ġin ter
Ġas s
un g
I N
Ġw ind
Ġla w
O N
Ġw ater
Ġm other
ir l
Ġb ro
Ġl iv
8 2
Ġne ar
Ġd ra
ro ss
Ġm o
ri b
Ġre ad
Ġsomet hing
Ġhe ar
Ġwh ite
Ġha lf
Ġwh om
Ġas ked
ou l
Y ou
is ed
4 0
Ġword s
Ġgr ow
as on
Ġcall ed
ot e
Ġfe w
T he
Ġb u
Ġc r
Ġhe ld
Ġex c
os ed
Ġke ep
d er
Ġb oth
ant s
E S
Ġse en
Ġt re
Ġin cl
Ġturn ed
as ter
ĠH is
Ġbet ter
Ġe ach
Ġp ri
5 7
Ġpo int
Ġst r
Ġh um
s h
ĠA r
Ġm illion
m ber
er y
Ġh our
Ġc le
ain s
Ġday s
Ġin f
in es
Ġkn ew
Ġde p
Ġde c
sel ves
Ġa ff
6 6
Ġc ertain
i red
iz ed
Ġto ld
t ing
Ġcont in
Ġt ran
r ist
+ +
Ġin s
Ġ1 3
a z
Ġhar d
Ġf am
Ġb rought
k en
ie ld
Ġst e
Ġp ower
at ch
p ed
Ġst ood
ic es
Ġh ome
an k
Ġw a
ĠO n
ĠE ng
for m
5 0
Ġ `
il ity
Ġh or
Ġ Z
3 7
Ġhe l
Ġl ess
ak en
Ġso on
al s
ĠN ew
Ġn one
Ġe l
Ġbeg an
Ġg irl
st em
h y
if ic
Ġn um
Ġen ough
Ġs er
i et
Ġa ir
Ġbel ie
Ġspe ak
Ġde l
l ing
at ic
la im
ra el
Ġs ent
ĠE x
ĠâĢ Ļ
* *
Ġbl ack
Ġb ir
A T
Ġf ull
Ġqu ite
Ġd ark
Ġde f
Ġsp o
ĠIs rael
Ġf elt
Ġv oice
ĠN ational
u nt
ci al
Ġr ound
Ġp opulation
a ut
Ġs ince
Ġc ent
Ġ1 6
Ġg ave
ri es
ĠN o
Ġop en
Ġpers on
Ġlar ge
Ġe ff
ĠM iss
Ġt ru
Ġal most
2 1
Ġind e
Ġm atter
as ed
Ġtran s
I t
Ġst ran
m in
Ġd ire
pp ed
Ġme an
ere st
Ġ1 4
em ber
Ġwho le
ag es
u ally
Ġher self
l t
Ġ1 1
Ġl ive
Ġsy stem
ĠN ow
Ġd iv
ĠCh rist
Ġre al
Ġne ed
t s
Ġs im
d e
Ġpro p
Ġmy self
Ġsu re
Ġm et
u red
Ġf all
re am
Ġo b
get her
Ġto gether
Ġs k
an e
as h
Ġb est
Ġl ay
ie w
6 0
................ ........
Ġm il
a ven
u ff
T ER
ow ed
Ġpo or
2 8
Ġm orn
Ġha ving
Ġad v
Ġha st
ĠF ran
Ġb us
ur ing
Ġsh ort
Ġcount ry
o b
Ġp ol
Ġs le
Ġus ed
Ġdo es
Ġm a
Ġv is
ĠM y
Ġs ing
Ġc are
Ġd ou
on es
Ġf our
Ġde ad
o h
Ġf ear
at s
or k
c hes
ate ly
3 5
Ġcour se
ĠH ow
Ġsay ing
Ġunt il
et er
c ha
Ġqu est
Ġmorn ing
ĠA ll
Ġr ather
ĠA d
Ġint erest
Ġle ad
Ġse a
re et
Ġsu ff
Ġar m
g g
Ġunder st
Ġc ol
Ġ es
Ġcomm and
9 8
Ġj ud
Ġg one
Ġcon st
ĠW ith
l ish
ab ly
id es
Ġcha r
Ġt em
5 4
7 0
Ġe qu
? "
ce iv
00 00
Ġfa ct
Ġsu n
Ġt ill
Ġgiv en
Ġin v
Ġpres ent
Ġt alk
ĠL e
Ġw ond
Ġ ir
. ,
u ck
land s
p r
Ġbr ing
m en
und red
t o
Ġb ran
Ġa w
u ed
n ed
Ġh on
Ġre d
ull y
ur y
om p
Ġwith in
Ġf ire
7 3
Ġa ge
th s
Ġw ood
Ġany thing
ce ed
ro p
Ġb ook
Ġal ong
Ġt ri
Ġh undred
a w
2 9
omm un
ĠS c
ĠP r
ter s
o ot
mer ic
Ġwho se
Ġth us
Ġs oul
Ġincl ud
o int
ĠU N
ĠN or
ac hed
ĠP h
Ġt aken
Ġ ed
Ġs ir
e k
Ġthem selves
Ġo pp
Ġc ond
re ad
an y
Ġh old
t en
4 9
ĠG o
Ġfor th
ĠR e
Ġpro v
Ġm er
Ġc ried
ent ion
id ed
one y
Ġf in
ha ps
] ,
us ed
Ġstr ong
Ġacc ount
Ġab ove
Ġ2 0
Ġkn own
i o
u es
i us
Ġne xt
it al
Ġcan not
d den
ab or
Ġp rom
E L
art y
Ġsp ir
Ġbe aut
Ġsec ond
4 2
ĠC on
Ġ {
ri ght
Ġb oy
Ġthere fore
Ġm od
om en
is on
Ġple as
â Ķ
âĶ Ģ
Ġp ast
Ġbr other
Ġw ife
Ġare a
Ġd r
t on
ĠC H
it es
Ġc or
c ent
ĠA b
ir c
Ġc ity
W hat
A P
e ren
Ġs ound
6 8
re en
Ġre pl
Ġpass ed
Ġho pe
ress ed
7 5
Ġtru e
Ġb ody
âĶĢ âĶĢ
ĠâĢ ĺ
m m
Ġun c
Ġb ur
Ġde v
Ġbl ood
g y
Ġb illion
id er
Ġm id
am p
ĠA f
b ody
ous and
res ent
Ġfe et
Ġb ed
Ġhel p
Ġ Q
un e
Ġsu dden
Ġs we
Ġfa ir
r on
d ay
Ġm ount
6 2
h old
Ġex pect
3 1
Ġpl ay
Ġe as
Ġother s
Ġ *
f ully
i ent
Ġprodu ct
ĠH er
ĠA meric
y ing
Ġre ason
ist s
Ġg ent
in a
ren ch
Ġgo vernment
ĠE n
Ġhow ever
3 4
t hat
Ġ ide
Ġbeh ind
ĠO f
Ġth ousand
ak es
g th
Ġo bs
ut es
Ġt imes
Ġs ign
ĠS p
Ġm is
) .
Ġl ow
8 1
ill ed
D P
Ġgr ound
r al
Ġm ine
Ġex pl
e e
g ra
3 2
il ed
Ġlook ing
c ri
A L
ar ing
Ġal one
Ġst ra
Ġ ill
u ght
ĠP er
ri g
ĠC l
ord ing
e c
ha m
Ġbelie ve
f ort
Ġs la
Ġgo ld
os ition
or row
Ġp ar
is m
] ;
u se
it ing
Ġgrow th
Ġcl ose
b y
Ġth ir
Ġfor ce
Ġl au
Ġs n
Ġansw ered
Ġst ate
Ġres ult
Ġw all
Ġ2 4
Ġf r
Ġme et
it er
f ect
ard s
Ġpr in
iz e
ou d
I I
W ell
Ġde ep
Y es
Ġe conom
Ġl ord
Ġd est
ar ch
Ġb ar
Ġb ound
ent y
Ġad m
m p
ĠP arty
6 1
ĠO r
19 90
Ġde ar
ĠE l
ric ult
Ġpl ac
Ġsub ject
O L
Ġle g
Ġst art
Ġle ave
o on
Ġcon c
Ġm oney
Ġb ra
Ġe lect
Ġgent le
Ġunderst and
d om
u c
Ġof ten
k ing
Ġ2 3
i ence
g an
i um
Ġle ast
Ġp h
ceiv ed
e an
ĠT H
us s
Ġb es
Ġs ight
' '
7 6
Ġcomm on
Ġel se
Ġf ur
Ġdis p
ci ous
Ġc irc
Ġw ild
S T
Ġbran ch
Ġpro f
Ġrepl ied
O h
Ġf ive
Ġw alk
, âĢĶ
Ġf ree
il t
Ġse ver
Ġd aught
Ġab s
Ġquest ion
e y
I C
al ked
Ġf ood
am es
et s
A nd
Ġimp ort
ĠA g
Ġl ist
Ġst ru
Ġte le
Ġle ar
Ġsha lt
Ġc ase
pl oy
Ġdire ct
Ġh us
ri e
Ġhe aven
iv es
Ġ[ _
ou ght
Ġto wn
ĠEng lish
Ġ ve
ĠO ne
Ġpre t
ere nt
o ver
Ġgener al
b and
ove red
Ġch ief
Ġw ish
5 6
Ġre ally
b it
ry ing
r ing
Ġst op
Ġ '
3 6
ang u
ĠF rench
c he
Ġrep resent
e x
oh n
Ġnum ber
on y
Ġrun ways
Ġ` `
Ġt en
Ġ :
. _
Ġwh y
Ġserv ice
end ed
Ġit self
Ġv ar
Ġs it
ĠC ha
ĠP e
N o
if ied
it ary
re ady
il es
Ġbec ame
Ġs ix
Ġre qu
7 4
Ġsever al
i vers
Ġc reat
Ġs ort
Ġw omen
Ġ2 00
Ġd ri
Ġdou bt
ĠI N
av y
B ut
Ġbeg in
la g
Ġc ast
ect ion
Ġcom ing
Ġp ap
ĠG e
Ġp at
it ution
Ġne ither
Ġstran ge
Ġne cess
n ers
att le
Ġpr ay
ur ch
d le
am b
Ġacc ording
vel op
Ġ2 6
.. .
ĠK ing
itt ed
Ġinde ed
Ġm aster
ĠAn ne
in ation
ĠG u
Ġs ch
3 9
an ces
Ġ2 5
Ġey e
Ġbus iness
o or
ĠJ ud
Ġc orn
4 8
Ġcha ract
ra ph
Ġeff ect
ĠB y
Ġe le
Ġp ublic
Ġ X
Ġt rou
4 6
Ġpart ic
ct or
it ude
Ġc ut
ic ations
qu e
Ġh ur
ĠJ ohn
ol og
ce an
Ġar ound
he l
ĠS ir
Ġhum an
al ity
Ġme ans
E T
at ure
Ġsay s
Ġf oot
p ar
Ġqu ick
et y
Ġnat ural
Ġsh ow
0 8
u ro
Ġal ready
Ġl ost
Ġfriend s
ian s
Ġcomp le
Ġhus band
Ġper fect
19 91
Ġposs ess
Ġth r
ĠR ep
Ġfam ily
a pt
w h
Ġst ud
Ġe ither
Ġke pt
r ation
in ing
z an
a x
f e
Ġapp ro
Ġex am
Ġcons ider
Ġob ject
is ing
ĠL et
ic ial
g o
ĠA m
n y
ĠT ar
if ul
Ġso l
Ġor der
Ġm outh
19 92
Ġsle ep
Ġfore st
b ut
eren ce
-------- --------
z e
Ġso ft
Ġman ner
Ġc laim
Ġa v
o ke
Ġbec ome
Ġnot e
Ġtoward s
g ing
Ġex per
Ġwhe ther
Ġc oll
ĠWh y
Ġca pt
ĠG DP
c il
Ġpart y
Ġde m
Ġl ady
ĠAf ric
em ent
ne y
Ġspir it
Ġbeh old
em pt
i or
Ġp a
Ġansw er
Ġha ir
ĠCH AP
Ġpe ace
Ġv iew
ĠCHAP TER
ious ly
Ġocc up
Ġd ro
is c
Ġ ut
Ġas k
us h
Ġ 00
s ide
el s
Ġtr uth
Ġper haps
Ġr an
ĠP ro
Ġt ou
Ġreturn ed
ic ked
Ġe at
Ġdiff erent
uro pe
7 2
Ġv al
Ġw it
ot s
Ġl oc
A D
5 2
Ġeven ing
ĠW here
% ;
itt ing
00 2
Ġnat ure
ge l
._ ]
Ġro ad
Ġf re
ĠE st
Ġb it
Ġar ms
ĠFran ce
6 9
W h
Ġs ense
++ ++
Ġex pend
Ġdid n
ion al
Ġro se
an cy
Ġst reet
ĠB ar
b r
iss ion
Ġb reat
5 8
Ġappe ar
Ġtele ph
ĠE urope
Ġcle ar
Ġwond er
b ed
Ġf ish
Ġtw enty
Ġ2 1
ĠN ot
ĠW ill
f ra
Ġo il
g es
Ġse lf
st er
Ġf ig
ro y
7 9
Ġac ross
Ġde al
00 1
Ġst ri
a ul
Ġlong er
i am
Ġc ro
Ġor d
E x
o e
Ġb ene
c a
ou ra
Ġfollow ed
Ġcomp ut
Ġexpend it
Ġb orn
Ġf ac
Ġim ag
mb ass
or m
bl ed
Ġc old
re me
Ġm us
Ġex cept
he ad
g r
ust ri
ĠP res
Ġ19 90
ĠThe se
Ġm ist
cc ess
Ġt able
Ġbre ak
Ġpur p
han ge
mb ers
Ġm aking
al th
Ġb ad
ic s
Ġ2 2
ll ed
Ġa uth
Ġw atch
Ġf ield
ĠS outh
ĠP ar
w ell
Ġc ra
Ġres pect
A S
Ġs al
Ġl ine
Ġswe et
Ġev il
Ġst ay
ress ion
um p
00 3
it ical
Ġse nd
c ing
Ġl im
Ġw at
iv il
ia h
Ġsl ight
Ġg reen
Ġc al
Ġdep art
ĠD o
Ġdaught er
Ġs ons
Ġposs ible
Ġcharact er
Ġexpendit ures
Ġp ay
ĠC ar
er al
ow ers
s p
Ġocc as
= =
m a
Ġdra w
Ġd uring
Ġm ark
Ġwor th
. âĢĶ
ĠJ er
Ġpro per
Ġbu ild
ĠH en
ĠSt ate
Ġg rou
Ġre v
led ge
ĠTar zan
ac y
Ġcomm un
Ġab le
Ġest ab
ĠA fter
Ġfor mer
Ġc ause
er man
ĠC ommun
Ġp ort
I T
Ġp ie
Ġlet ter
Ġpri v
im ate
id ence
Ġl ater
Ġw on
Ġm ove
Ġv ol
Ġpri est
os es
is ions
le t
Ġp ain
Ġf ine
H e
Ġen em
ore d
Ġcontin ued
her n
ĠL and
am ent
Ġal t
Ġsec ret
Ġide a
Ġs in
c ul
itt en
Ġpartic ular
is f
Ġsl ow
3 8
Ġm ur
r or
Ġf em
are nt
ĠF rom
i ar
ĠT om
Ġan n
Ġ2 7
Ġfor t
n ight
Ġst ep
00 4
Ġr u
Ġh ot
Ġo ught
Ġpro b
Ġd ream
ĠHe re
Ġri ver
Ġm ed
ĠM an
Ġinf l
E C
Ġinclud ing
Ġ3 0
Ġen g
Ġsudden ly
oc r
Ġliv ing
Ġevery thing
Ġ er
d s
Ġs ister
IN G
Ġd et
ĠO cean
Ġgl ad
Ġfor g
ic ally
Ġst ren
Ġl ed
u ly
ricult ure
Ġth ine
s he
Ġd ang
Ġb ig
O M
Ġhor se
Ġme re
Ġcha ir
it a
li ke
og raph
om in
es h
Ġfell ow
ic ult
e ad
min ist
! "
i ps
Ġent ered
Ġp al
le y
Ġma j
ĠA p
Ġsomet imes
Ġ00 000
ĠS h
Ġfa ith
Ġd ie
y ou
Ġper man
Ġcount ries
f ace
00 7
Ġop ened
Ġwind ow
Ġsha d
ĠC ol
Ġv ill
w here
Ġfa v
Ġbe ar
Ġauth or
v al
5 1
l ine
ect ed
ĠT er
Ġ19 91
Ġhapp y
med i
ĠM ay
Ġfr ont
f l
ur g
Ġp et
................ ........................
y ond
s ince
ĠC an
Ġsu per
Ġpr ot
Ġc ross
00 5
Ġs outh
ĠTH E
ir t
Ġc e
Ġm ag
Ġpl ain
Ġdiff icult
19 93
0 9
Ġh ill
Ġappe ared
Ġqu ar
T hat
ant ly
Ġsch ool
ĠW as
Ġsu ccess
Ġp ract
ĠGo vernment
4 1
oun cil
ce ive
Ġear ly
Ġwant ed
Ġj oy
o es
Ġf ool
ĠA ra
Ġrem ember
av ing
if t
air s
19 89
Ġnor th
................ ................
A C
Ġc ry
00 6
Ġde velop
Ġsupp ose
Ġ2 8
Ġc op
im ent
Ġrem ain
Ġbl ue
7 8
Ġl abor
Ġhour s
er ved
u ous
Ġfur ther
ro om
Ġre ady
Ġsa ith
s on
ĠW ell
Ġpro cess
ci p
ĠB rit
ĠG erman
Ġla id
ing ly
is l
5 9
av es
u ary
ix ed
rig in
Ġqu iet
I S
tern al
ci ent
Ġmil itary
ĠA N
Ġperman ent
Ġcar ried
Ġent ire
pt ion
us hed
en cy
form ation
ĠE conom
ĠD em
Ġt y
Ġspo ke
r id
Ġpret ty
Ġsur pr
Ġcon vers
Ġadd ed
Ġsw ord
i od
Ġac qu
Ġfor ward
igh b
Ġde g
m y
Ġen c
Ġdr ink
Ġ z
w hat
Ġ ver
ĠTh ou
Ġre ached
Ġg ard
ay s
l s
in ct
Ġproduct s
ar ies
o x
har d
Ġt ree
ri age
g ar
Ġf ight
ĠPh il
Ġf if
a i
Ġ4 0
Ġbeaut iful
Ġw in
tern ational
Ġwr ong
Ġm ot
Ġinc re
Ġchan ge
es tern
Ġme mbers
ĠPe ople
Ġcl ot
Ġc re
ĠE d
gy pt
our ces
Ġtre es
Ġpre p
Ġo rigin
01 0
Ġex ist
he t
as es
Ġan im
01 2
ĠM ad
Ġsat isf
ĠJ es
Ġsa ve
Ġm ad
og n
Ġw alked
Ġt ear
ĠIs lands
sh ip
Ġdes p
ĠD av
o ber
re g
w ith
Ġbe yond
Ġh ost
Ġan g
c o
Ġreg ard
Ġlau gh
I R
Ġknow ledge
Ġl ad
Ġfem ale
Ġ8 4
Ġso ld
Ġl ate
e b
y l
u f
ve re
at or
Ġ19 92
Ġch urch
ĠC har
ru ction
Ġfeel ing
ce nd
Ġp ict
f ense
Ġwr ite
ĠRep ublic
** **
Ġm ach
Ġhis t
ĠM al
fra id
Ġsc ar
Ġac cept
00 8
ĠTh us
Ġsu m
ĠE gypt
O U
en ing
en ess
Ġco ast
Ġb right
Ġp en
Ġre ach
ĠH ar
01 3
ĠA nt
Ġf ru
ĠL i
E D
ĠEng land
Ġcom fort
Ġ8 5
ĠWh o
Ġt reat
o ly
Ġy ell
Ġar ri
em b
ĠM in
Ġre ceived
ĠSt ates
Ġt end
I L
Ġto p
00 9
as k
Ġdo ing
er ve
Ġd ied
Ġbro ad
ĠM a
Ġ2 9
Ġne ighb
Ġir on
Ġp ost
ward s
Ã ©
Ġseem s
ab les
ust om
il ing
ĠDav id
Ġdiv isions
Ġim medi
Ġa fraid
Ġf ast
Ġl angu
ri ble
ĠL eg
ĠB l
Ġfollow ing
oint ed
Ġcro ps
Ġdang er
ĠS ha
ag ue
_ ,
Ġf ra
Ġprodu ction
ant ic
Ġt aking
m ing
ĠChrist ian
Ġcirc um
ĠAmeric an
Ġpap er
7 1
Ġatt empt
ad or
Ġn ar
Ġl ie
Ġt ried
th ough
A M
Ġd en
01 1
o ff
n a
Ġadd ress
Ġpl an
Ġbe ast
Ġm ess
Ġcom es
Ġresult s
ĠP ol
Ġcap ita
ict ion
Ġcomp an
Ġs qu
W hy
Ġn m
Ġpr ison
Ġstren gth
Ġcour t
Ġthere of
is ion
Ġu nd
iz ation
p orts
Ġwr itten
in ary
ĠA le
ĠN et
Ġv i
Ġstra ight
Ġa id
T h
Ġd eter
Ġs ens
W e
Ġsil ence
Ġtr ust
Ġw ide
Ġpurp ose
Ġm ater
ro ad
res h
Ġb ott
Ġcomm od
Ġst ory
Ġo per
01 4
r ant
. ;
Ġl en
it ions
f er
Ġem ploy
Ġsh ip
Ġm ort
ĠS ome
Ġte xt
al es
ound ed
Ġm ult
ut ed
Ġ4 4
ĠEn ter
Ġs ad
Ġcomp any
pend ence
Ġj o
Ġro ck
Ġn et
Ġdo g
laim ed
a pp
Ġimport ant
ĠR oman
Ġd i
Ġb urn
Ġm ig
Ġpleas ure
Ġrem ained
Ġb and
ir m
âĶĢâĶĢ âĶĢâĶĢ
Ġha t
re nt
Ġcon v
Ġchan ce
Ġyour self
pl es
Ġmaj or
ĠAra b
Ġse ven
w or
01 5
um ent
Ġh ig
Ġpart ners
Ġhe avy
y d
Ġdeath s
oo se
i ant
Ġmin utes
est ed
ĠT r
Ġent er
Ġst one
ot al
Ġtrou ble
Ġcap ital
Ġnear ly
ener al
ci ally
Ġg od
Ġbl ess
ĠJes us
ĠS w
ĠInd e
ĠM ore
Ġdel ight
ĠG R
ou red
al y
ock ed
ĠT e
ond on
u ct
Ġres p
Ġpart ies
Ġe mb
Ġdest roy
ĠPres ident
os p
Ġf ing
r ay
Ġw is
ĠGe or
Ġo bl
Ġre pe
se qu
' d
Ġnecess ary
Ġteleph one
ustri al
ĠC our
ra in
ĠInd ian
st itution
ag ed
Ġop in
Ġcl ass
at he
ce mber
ĠUn ited
ocr atic
Ġset t
w ork
Ġli ps
Ġcommod ities
Ġvis it
Ġsing le
Ġeconom ic
i pp
Ġf it
Ġc ivil
ous ly
an ced
ĠM ary
p ly
Ġbir ths
Ġg as
Ġme as
an uary
Ġcon n
all ey
Ġrec ogn
um er
ĠW est
Ġdo ll
65 9
Ġnew s
ru pt
Ġcertain ly
_ .
Ġd rew
S AT
Ġ4 2
Ġre ven
Ġdist ance
p id
l ight
Ġoff er
cl us
Ġt ry
Ġthink ing
Ġst at
Ġspo ken
s u
ut y
Ġm ain
n ow
ale m
h ood
Ġe ight
ch ing
om atic
ĠT y
_ _
l o
Ġb attle
Ġatt ention
Ġm ale
il s
ĠI C
ĠNor th
i en
Ġyell ow
Ġr id
ive ly
Ġbreat h
Ġra in
Ġr ad
ĠD or
ĠJer us
Ġoccas ion
Ġ1 00
Ġd a
Ġsu gg
ol ution
Ġbro ken
Ġ19 93
Ġwh is
ĠY ork
c rib
o k
Ġp osition
Ġj our
Ġne g
Ġin formation
Ġw icked
Ġocc ur
ic ation
' ll
Ġthought s
Ġhard ly
our s
01 6
Ġmater ial
T H
Ġdes ire
ĠC o
t ered
Ġme ant
Ġgard en
Ġres ources
Ġcomple te
ca pe
Ġbegin ning
Ġbel ong
Ġk Wh
Ġpres ence
Ġcomput er
Ġme m
01 8
Ġrem ark
Ġstand ing
Ġwork s
ĠJerus alem
D A
Ġliv ed
Ġp it
Ġse par
ĠG ree
I O
Ġmo on
ĠO F
j oy
ĠA ir
Ġm akes
um e
Ġinfl u
w ise
Ġg ate
Ġy es
Ġf le
Ġag o
Ġsil ver
Ġlen gth
Ġan t
Ġp ot
Ġhapp ened
Ġk ill
it ation
Ġbir th
ĠDe fense
Ġp ress
Ġmight y
L O
i qu
al ed
u ge
Ġ --
Ġpro gra
Ġde li
is es
z z
âĢ ľ
T here
r s
ar a
Ġin qu
Ġthir d
I f
l ished
Ġpro ceed
ĠH igh
Ġr ich
g ress
Ġtem per
ĠAfric a
ĠC omp
p ort
ac ity
Ġbes ide
cha nt
ci ety
ĠN e
ab in
Ġex act
Ġprodu ced
Ġa st
Ġh id
Ġun ivers
01 7
i res
c ome
re y
Ġc ru
Ġin n
I n
o ved
ro du
Ġd ress
Ġb an
Ġsha r
ĠY et
s pect
Ġl atter
Ġf illed
Ġprob ably
ci ence
ru ct
Ġim m
Ġp ra
ĠHen ry
ĠC ouncil
ĠL u
r ative
Ġcom b
Ġwar m
ĠL ondon
Ġc ou
Ġbre ad
Ġmo ved
Ġserv ant
Ġp ath
ĠF l
Ġper iod
Ġgra nd
rie f
Ġgra ve
M O
Ġd well
Ġ19 89
Ġcorn er
Ġl if
Ġstru ck
Ġtre m
ad ed
Ġl ower
ĠIs land
Ġvi ol
ĠB el
Ġmin ister
ĠV al
ĠP aul
ic ed
0 19
ove mber
Ġde bt
Ġcl oud
Ġpre v
Ġyou th
ĠC ons
Ġh op
T U
Ġdark ness
Ġgentle man
ĠY e
H ow
cl ud
Ġf at
Ġbel ow
Ġgl ass
Ġstop ped
ll ing
Ġslow ly
Ġc oun
Ġh ol
Ġad j
ĠS aint
uf act
Ġbene ath
b a
Ġinst ant
Ġtr ade
or ies
ĠSe e
Ġsm ile
th ren
Ġst ations
Ġgreat er
u el
Ġwe ek
Ġl ab
Ġjud g
Ġfl oor
Ġf un
Ġen joy
ic ient
if y
ĠC ome
Ġs itting
Ġhon our
bl ing
Ġestab lished
Ġeas y
Ġclaim s
ĠS a
Ġpol itical
ĠBrit ish
Ġcircum st
um b
Ġfam il
Ġc aught
ir on
i k
Ġsla ve
Ġsh ut
ab ility
Ġth ick
Ġdes ert
Ġserv ices
Ġo bt
Ġt ong
Ġget ting
Ġh ous
Ġw ise
hy s
Ġd ry
ill a
il ar
ul s
Ġcom pl
Ġra ised
Ġknow s
Ġbre thren
Ġwa it
Ġd read
ent al
ĠG eneral
g u
Ġf resh
ĠB r
Ġloc al
ce ll
ĠM er
pe cially
Ġbeaut y
re st
Ġwe ak
ĠE lect
ĠCour t
Ġd in
Ġsit u
Ġra pid
E AR
Ġ4 3
h ip
Ġaccount s
Ġfig ure
ĠAmeric a
ain ing
ist ed
ap an
Ġ3 1
al ph
Ġprof ess
Ġcould n
Ġg ar
02 4
ol ute
ra nd
Ġcomm it
Ġimp ro
Ġ ign
ound s
ag er
Ġexc laimed
o om
Ġmon ths
am ed
Ġc amp
Ġway s
ĠO ct
se m
Ġcon vent
g hed
Ġint ell
Ġcont ro
Ġse ats
ĠR ic
u a
ĠUn ion
Ġdire ction
Ġra ce
Ġde pend
Ġfl esh
Ġserv ants
Ġh ung
T EL
at ural
Ġbook s
ĠJ ew
Ġpart s
ro le
ĠR alph
L E
ĠC apt
02 2
or ry
ĠDem ocratic
Ġc row
Ġm ention
ĠMar ch
Ġfore ign
Ġha ng
am a
Ġplac es
v iew
u ke
Ġlo ved
ĠAle x
isl ative
m n
ha b
ec ut
l er
Ġvar ious
ĠM oses
I P
M y
Ġind ust
Ġ3 3
o pe
a ff
Ġli ber
Ġoff ic
S he
om b
ĠU K
Ġcont r
s y
Ġplac ed
Ġimmedi ately
k es
l in
role um
Ġho ly
Ġd at
Ġk iss
Ġd im
Ġsp ake
Ġm ass
ĠA M
n ic
Ġe ast
] .
a f
Ġrel ig
te en
Ġspe c
ĠFor ces
Ġsee ing
Ġf ert
Ġsa v
ĠH el
Ġav ail
Ġmar ried
Ġb ow
Ġoccup ied
e ch
19 94
iv id
se mb
ort ed
Ġg rew
ĠF ather
Ġs ick
Ġut ter
i ers
Ġche m
ĠThere fore
Ġeconom y
ib ility
ĠS am
Ġ i
Ġ @
w as
or ial
Ġmount ains
Ġrepresent ation
Ġf ut
ĠN ovember
Ġtear s
en ces
TEL SAT
Ġhar m
Ġquick ly
ograph y
Ġ3 2
ĠC omm
ĠJ une
Ġsa fe
Ġso le
s ed
C H
Ġfru it
ĠE very
Ġoff ice
e ous
ock s
ĠW or
ĠSc ott
hing ton
Ġmil es
Ġman ufact
ne xt
Ġc ott
al d
Ġne ck
ĠJ apan
k n
Ġf ran
Ġoff ering
Ġc and
Ġcl osed
Ġfri ght
h ow
02 0
ĠGeor ge
v iron
Ġdec la
Ġfor med
ĠAt l
Ġv ict
Ġple ase
b b
or a
Ġout side
id s
Ġ4 1
Ġno ble
ib ly
e ks
ol ved
Ġopin ion
ĠT otal
ĠW estern
Ġscar ce
ĠQ ue
Ġstart ed
ĠWas hington
ĠCapt ain
ĠY es
ri l
R O
Ġlau ghed
Ġes cape
Ġf urn
um ed
Ġg az
i ver
Ġr ul
02 3
Ġter rit
b o
Ġv an
ret ched
os ing
Ġgo vern
ar ative
Ġslight ly
i pe
w ood
ĠDe cember
Ġgra ce
Ġse arch
Ġm iss
Ġequ al
ĠBe hold
ran ce
A O
Ġsil ent
Ġear s
ĠCon stitution
Ġpie ce
Ġb ull
Ġon es
iv ity
semb ly
Ġb ank
Ġnar row
Ġm or
19 88
ap pe
Ġsee k
ĠP opulation
Ġhist ory
Ġmus ic
Ġpres ident
ric t
Ġmon th
Ġdeter m
g ers
rou d
ott en
ĠSe a
b an
Ġcreat ure
ian a
h ouse
g in
Ġh ide
02 1
Ġsim ple
Ġmin ute
Ġentire ly
o le
pl omatic
Ġjour ney
Ġf al
ac le
Ġturn ing
Ġo d
ĠI I
mbass y
ĠT ur
viron ment
Ġgener ally
Ġt est
it ime
ver t
Ġsum mer
un k
Ġgu ard
so ci
ĠIN TELSAT
f ord
p or
Ġking dom
Ġpet roleum
Ġgood s
an a
Ġw est
Ġs orrow
ĠE ven
Ġme ad
and er
Ġ4 8
Ġinst ead
Ġimp oss
it ive
Ġadv ant
u nder
Ġcar ry
Ġvill age
Ġw ine
Ġfor get
Ġd om
Ġv es
Ġag re
Ġgr ass
c an
i pped
Ġc ustom
ecut ive
Ġ5 0
Ġgl ory
ĠOct ober
Ġb are
oura ge
N A
Ġmid dle
Ġlangu age
ĠM ic
Ġha ll
ac ed
er ning
olog y
Ġrem emb
Ġre ign
z en
re ct
ing u
I D
o is
Ġsa cri
Ġan x
ed s
Ġt one
Ġbott om
Ġsp read
ul f
ĠM ont
Ġ id
Ġspe cial
Ġ4 5
Ġchar ge
ĠB en
Ġear n
ĠO h
Ġlear ned
ĠJud ah
Ġar ran
I A
Ġp un
ĠS y
Ġes pecially
Ġenem y
Ġpl ant
ĠC om
w o
Ġgu ess
Ġsub st
R E
Ġart ic
Ġunc le
ĠPar is
Ġb as
as c
Ġwor se
Ġst ation
ent ed
Ġsh owed
ul ate
Ġves sel
Ġw ha
Ġ0 1
Ġor gan
Ġtalk ing
Ġan cient
pe red
Ġd am
Ġv irt
ap ed
I US
pt ember
Ġp hys
Ġwould n
ĠM or
ĠD r
Ġmid st
Ġp ull
Ġsp ring
Ġcommand ed
Ġqu e
Ġter rible
Ġspe aking
Ġ3 8
Ġc overed
Ġsp ot
++++ ++++
Ġ0 4
' m
ĠWh ich
02 5
Ġb ased
Ġd er
Ġis s
Ġt rib
Ġtr ad
Ġpriv ate
d ing
od e
p ing
Ġpro ject
Ġjud ge
f rom
n oon
Ġwit ness
ill e
ow ing
Ġd oth
ber t
Ġsacri f
Ġdem and
ar ily
ĠL a
Ġed uc
a it
ĠA re
Ġarm y
eth od
ri ll
ĠH ouse
Ġp ure
Ġse ason
ific ation
Ġfather s
c ast
Ġsa ke
Ġinclud es
m es
Ġf ly
ide red
Ġl ines
Ġwa iting
Ġspe ed
Ġsim ilar
en ger
ĠO ther
Ġp ubl
! âĢĶ
r ate
bl es
Ġinflu ence
Ġus ual
ommun ications
se t
Ġf lag
n et
Ġw ished
ug ust
Ġ3 4
d ed
Ġv alley
Ġwat ers
ac ific
athe red
Ġsk y
Ġappear ance
Ġke y
Ġc ities
ash ion
Ġpro ble
Ġ3 5
ES S
Ġre ceive
ra m
Ġpr ices
er ness
ĠS m
ac her
ĠO ver
Ġatt ack
ĠAp ril
ĠMin ister
Ġcap acity
ac hel
v i
Ġhe at
ak ed
Ġgrou p
p ro
minist rative
Ġfre qu
ĠL ady
Ġcur rent
ĠC ent
Ġso ciety
' ve
ĠJ uly
Ġtong ue
Ġa ction
ad a
Ġpers ons
ĠP ers
ur ity
Ġye a
Ġimposs ible
iet y
Ġf ixed
ra ble
âĢĶ âĢĿ
l or
Ġha ck
Ġsu mm
m on
Ġbu ilt
02 7
ren cy
Ġst ar
Ġc at
ĠA h
ĠC a
ĠY our
Ġbelie ved
02 6
Ġwall s
The y
Ġobl ig
Ġt rying
I s
ĠSe ptember
ĠM c
o id
Ġsim ply
Ġc ost
Ġhead s
C T
Ġmere ly
Ġcent ury
Ġliv es
Ġd uty
c ons
Ġdro pped
Ġt im
e al
Ġs ize
Ġme at
Ġe ld
Ġbro ke
Ġup per
Ġhouse hold
Ġexpect ed
Ġn ational
Ġr ise
Ġtou ch
ra w
Ġexam ple
Ġsu c
Ġag riculture
Ġt ast
em ploy
n es
ĠE th
w oman
w are
Ġlet ters
Ġchem ical
Ġfut ure
g ate
Ġsh out
ĠThe ir
ĠP ort
Ġexc hange
Ġlear n
) :
b on
Ġm ut
Ġl ot
Ġthir ty
Ġcr own
Ġex ceed
ck et
Ġindust ry
ĠQ u
Ġbl ind
Ġapp l
Ġspe ech
Ġjudg ment
ĠM art
ort un
Ġsuc ceed
Ġg all
: âĢĶ
Ġf ro
Ġmar riage
Ġext reme
Ġexper ience
Ġhon est
Ġconc ern
Ġshad ow
are r
Ġperfect ly
Ġlead ers
Ġ #
A h
out hern
Ġle an
ĠE C
Ġafter noon
i que
ĠR uss
Ġa ut
Ġmar ry
ĠJ anuary
ĠP l
L at
am an
Ġright eous
Ġp roud
ir th
in ite
re ck
Ġ3 7
kn own
c om
ch n
Ġeas ily
ĠInde pendence
Ġb ord
Ġdisc overed
Ġsn ow
o v
ĠA ust
be y
Ġe t
Ġbit ter
ĠP acific
Ġle aving
Ġm ail
Ġbec om
Ġwhat ever
re l
Ġbo x
ĠJ ust
ors es
est ic
Ġfif ty
s ha
D o
ed er
ĠS ol
Ġg athered
Ġg en
Ġth row
se e
Ġdo ctor
ĠAtl antic
Ġn ations
ra ge
Ġdin ner
Ġ0 3
g s
ach ing
Ġsh ips
Ġra il
ĠNew man
Ġper m
Ġcommit ments
Ġrun ning
Ġtrans port
ĠA ugust
Ġconc erning
el ve
Ġint rodu
Ġf ier
Ġ7 3
eb ru
Ġstep s
ĠC ap
mbass ador
Ġser ious
er ous
ro se
Ġfa ult
ebru ary
d y
ke y
Ġwe ight
D e
ĠS en
ive red
Ġbo ard
Ġcons cious
us ion
ĠC ong
Ġgirl s
ish ing
Ġfl owers
ri f
Ġ =
Ġpict ure
Ġv ain
Ġchan ged
Ġpl ate
Ġs orry
Ġap art
Ġst ream
Ġlike ly
he st
Ġdes ign
ist an
Ġcle an
Ġn on
Ġprep ared
s ing
Ġsome what
c ise
* _
Ġcond uct
Ġapp arent
Ġsur face
Ġal though
ĠG reat
Ġm aint
ĠB ath
Ġes c
n on
Ġcon sequ
Ġ_ *_
Ġ0 2
Ġdisc uss
Ġgiv ing
a e
Ġsha me
Ġwork ing
Ġpass ion
Ġd ue
Ġp ale
== ==
Ġobs erv
s c
Ġcomm er
Ġs and
Ġf aint
ic ate
lect ed
Ġ19 88
ĠI F
ĠGR T
e es
Ġha bit
Ġnum b
Ġar g
hen s
ĠCo ast
AR D
Ġwr ote
employ ment
Ġu r
on ed
Ġhous es
ĠJ ean
m orrow
Ġext ra
ĠSo cial
Ġbo at
Ġunivers al
Ġex cell
Ġfal se
EN T
ic it
Ġbe ll
Ġabs olute
Ġche er
Ġstran ger
Ġa im
Ġst ir
H O
Ġpr im
ci ples
ĠL ife
ĠR ow
Ġcar go
Ġmead ows
ir d
02 9
Ġdes cend
Ġafter wards
2 20
Ġhapp iness
Ġsing ular
Ġun f
op s
Ġoff ered
Ġign or
Ġl iter
Ġsp ace
Ġn ames
Ġthan k
ĠWor ld
Ġbe at
Ġfall en
ĠK ING
ron ic
Ġhol id
Ġc atch
Ġdec ided
Ġc ult
Ġf ol
Ġun its
ĠL abor
opul ar
Ġmod ern
Ġpre vent
al t
. âĢĻ
Ġatt end
ha bit
n ce
Ġexp ression
} .
Ġz one
Ġshar p
ĠM on
it able
Ġle vel
Ġh orses
Ġshould er
la w
U R
ĠP eter
n o
Ġsupp osed
ĠJ ac
p es
ĠJ e
Ġa pe
cl ock
ort hern
Ġexp ress
Ġgrou ps
Ġre b
Ġan gel
c hange
ot he
a ction
Ġpleas ant
Ġenem ies
ĠU p
Ġre j
Ġser ve
ĠTh om
Ġadm ir
Ġbound aries
Ġauthor ity
Ġ 90
Ġsc ene
Ġbuild ing
Ġclot hes
ĠF ebruary
ĠC la
p ter
t is
Ġde cl
Ġprin cip
et her
Ġpass ing
Ġt all
is p
ud get
Ġsur r
Ġdeterm ined
Ġ19 94
um ents
Ġsub m
ĠM us
Ġmer cy
Ġw id
cul iar
Ġcircumst ances
Ġsh ook
ic ated
ĠN ote
ĠF ar
Ġar ch
for med
wor th
s ur
Ġr ates
Ġa rable
Ġc it
Ġh y
Ġnot ice
ĠDe ath
Ġca used
E M
the less
ian ce
Ġjust ice
Ġcru el
r ated
ĠGerman y
Ġall owed
Ġpres ently
2 02
Ġind ivid
Ġpe culiar
Ġdoll ars
Ġsp ent
Ġst ro
Ġem pt
Ġconvers ation
Ġg ro
ric ity
Ġmount ain
19 70
Ġheart s
ĠQue en
Ġse at
Ġt alked
Ġph il
Ġsurpr ise
Ġs ought
ĠD on
Ġconf ess
ĠR achel
ĠC ur
os ite
Ġma id
ric k
Ġsuff er
Ġbre ast
Ġrec ord
Ġsitu ation
Ġin ternational
ĠA L
Ġstru gg
crib ed
um in
Ġsupp ort
re m
Ġwat ched
N ow
ish ment
Ġn ation
N ot
c her
Ġin j
ĠR ome
Ġp ack
ĠO ur
Ġdra wn
Ġf irm
Ġexact ly
c le
Ġtw elve
Ġa in
ĠT V
ĠIt aly
Ġperson al
ĠB ra
Ġmur m
Ġl oss
Ġboy s
' re
Ġh unt
Ġsu bs
Ġopp ortun
Ġhig her
43 9
Ġgo es
Ġdis appe
ens ive
Ġco ver
Ġadvant age
Ġcha mber
Ġgr ad
Ġwood land
Ġrepe ated
os op
Ġlook s
Ġcons idered
Ġobs erved
es e
Ġdeli ver
Ġreven ues
Ġwe ar
Ġfish ing
C O
Ġg au
Ġwis dom
Ġpast ures
an ny
ĠS up
Ġru le
ĠEconom ic
ĠN ever
res p
ĠWh ile
Ġco ff
Ġfor ms
Ġb ul
ri a
Ġdes cri
ĠJ ose
Ġh ither
pp ing
Ġsm o
and a
ĠAs sembly
Ġshe ep
Ġmean ing
f ast
ot ed
I G
Ġcapt ain
Ġdist inct
Ġlif ted
ĠEconom y
Ġ5 5
Ġin habit
ĠF red
Ġfa il
Ġd ust
ĠD i
ep ing
Th is
Ġl oud
Ġk illed
Ġprogra m
o cc
c ommunications
l ook
i ally
Ġco at
Ġed ge
F Y
Ġt ro
ic a
02 8
c ause
ĠMar ius
oy al
Ġacc ess
Ġhe alth
.... .
Ġindivid ual
Ġr is
ĠPr ince
Ġre ve
Ġag ree
ricult ural
Ġmem ory
Ġr ough
Ġdev il
Ġv ent
Ġmot ion
ĠS er
ĠThom as
Ġth in
y n
Ġcond ition
f ield
Ġp ity
Ġh uge
pend ent
Ġl ies
Ġwin ter
iv al
ung le
Ġpa id
Ġdis s
Ġle aves
ĠMad ame
Ġholid ay
ĠE ast
Ġmess age
Ġl ose
Ġquest ions
Ġal ive
Ġmost ly
Ġis land
the re
Ġapp ointed
Ġb all
Ġd ig
ĠC ont
ĠAust ral
d o
Ġunderst ood
Ġ4 6
Ġf ashion
ill y
ol ic
Ġme l
Ġb le
ĠPer cent
i xt
l ast
us es
Ġk ings
on el
Ġm ethod
ĠN ep
ĠG ood
ĠE mbassy
Ġter m
att ered
Ġt it
in c
ĠS pe
Ġc ases
Ġc abin
Ġha te
Ġfor ty
ater al
b ar
Ġis n
Ġhur t
Ġresp ons
se c
Ġ |
ĠAn gel
ĠD C
h ost
Ġc ous
Ġtra ck
t a
Ġno ise
Ġgod s
A B
Ġim age
Ġval ue
Ġconsider able
ĠS an
ur s
Ġass ist
Ġarri ved
Ġast on
c han
Ġ3 6
Ġs an
Ġwr iting
I ON
Ġmeet ing
Ġb od
at ors
Ġapp re
Ġprom ise
---------------- ----------------
F F
Ġr ising
U N
Ġb ab
Ġth ro
ag o
t te
Ġl ying
Ġfeel ings
Ġg un
Ġbl ow
in y
Ġdou ble
Ġb al
ĠJ ane
Ġall ow
at ures
ĠE m
ail s
Ġre ck
Ġquar ter
Ġfing ers
Ġfav our
ĠS u
ĠL ong
Ġv ast
Ġple ased
Ġfort une
p ha
Ġf ill
Ġstud y
our n
Ġs ides
er gy
Ġsu sp
re es
Ġpossess ion
ĠM o
ore s
Ġj ungle
ĠL at
Ġexist ence
Ġus ually
Ġinv est
u x
Ġc ool
ĠS uch
w ed
id ently
Ġcompan ion
ĠM ed
ĠLi ber
in ery
Ġadd ition
Ġrep ublic
Ġdis m
Ġlar ger
ĠFran k
ĠAfric an
c hard
Ġwa ited
Ġa ud
Ġ4 7
Ġopp osite
B R
Ġ 94
el ig
ed eral
Ġ0 5
Ġhear ing
il ateral
it ated
ĠS al
ĠHe aven
Ġanim al
Ġ6 0
J uly
Ġbur st
Ġpro ve
n el
Ġt rop
ĠB ell
44 0
id ing
Ġhe s
Ġse ed
at ives
ĠI mp
ĠSup reme
Ġcal m
ĠCommun ist
Ġter ror
C E
ĠAN D
Ġth rew
I ST
Ġwalk ing
l im
Ġto w
Ġdraw ing
id ge
isc al
Ġdeg ree
Ġtra in
r ous
ol s
Ġ5 4
Ġfac es
ĠAg riculture
O C
Ġsp ite
Ġequ ip
ĠCl imate
19 87
Ġb old
g l
Ġdiff erence
ĠSt reet
Ġdist ingu
Ġspir its
Ġt or
Ġtra ve
Ġshould ers
ĠG ab
Ġbeg un
Ġp owers
g reg
Ġwor ked
ĠIn ternational
ĠAl ice
AN D
Ġbe ha
Ġe ager
z er
h i
Ġas ide
ĠBe fore
Ġfl at
O S
wh ich
f ant
Ġso cial
Ġdel ivered
Ġgl ance
Ġsa il
Ġsha pe
Ġc red
ĠHe ad
ĠTe le
Ġcon ce
Ġmatter s
Ġy ield
T hen
as ons
ĠA mbassador
Ġun less
Ġmort ality
ic o
Ġam ount
Ġfre ed
ter ing
Ġcur ious
Ġt ent
ĠH ad
Ġhor iz
Ġreg ular
ĠI r
Ġdirect ly
Ġaff ection
y le
Ġve get
Ġknow ing
oun ced
ĠMar illa
Ġang ry
Ġc ell
Ġno body
Ġphil osop
Ġ0 7
eg ro
ĠB et
Ġrep ly
Ġwonder ful
il ities
Ġsugg est
p et
Ġalt ar
Ġpra ise
ĠCh ief
Ġhill s
Ġf ancy
Ġpie ces
i os
en ance
Ġb ent
Ġfert ility
ĠRow land
Ġl ack
Ġsu gar
y e
ra ce
Ġf t
ject ive
an cing
Ġr ub
Ġdom estic
Ġpr ide
ir gin
ĠN atural
Ġspe ct
Ġlaw s
s es
ĠD iana
ust ries
Ġread ing
Ġconst itution
Ġinterest ing
ĠFor ce
Ġsure ly
Ġpriest s
as hed
eren ces
Ġv ote
T o
an c
fl ation
Ġfin ally
, ''
p ower
03 7
g ged
Ġsh ot
ri er
Ġgreat ly
Ġprincip al
Ġhold ing
an i
Ġfor b
ĠF in
Ġthrough out
Ġan ger
og ether
Ġn oun
ot ion
ĠEx ecutive
all ed
Ġnet work
Ġmig ration
Ġconvent ional
ĠWill iam
ĠInd ia
Ġgr ant
ĠM aster
she ba
Ġf ile
ĠD ay
U C
ar th
Ġte chn
O D
i ke
Ġrequ ired
ĠEn vironment
ĠRic hard
Ġwild erness
ĠOr gan
Ġacc omp
ĠR os
Ġt aught
ve y
Ġdis app
Ġpo cket
Ġpr int
Ġrep ro
Ġexcell ent
Ġgr own
oll y
Ġeng aged
Ġfin ished
ĠGree k
an ish
Ġstreet s
Ġmag n
Ġpr ince
Ġexpect ancy
Ġc rit
Ġth reat
Ġwe l
Ġs ong
ĠB ul
Ġmark et
Ġl est
Ġl og
h ib
s k
us hing
ine a
ha nd
5 00
Ġbr own
Ġgiv es
Ġm ission
03 4
Ġequip ment
ic i
Ġal ar
Ġtre as
Ġw ilt
Ġd are
Ġb ilateral
Ġgreat est
ĠX X
Ġt our
Ġscarce ly
ĠD id
ĠTer rit
Ġinn oc
ĠThe a
at ory
r ont
Ġwe ather
ĠW ar
ĠS on
ĠJose ph
ist ic
c hen
ĠP al
iter acy
Ġpass age
Ġn erv
n ora
Ġad minist
Ġ7 2
ĠTh ough
ĠCommun ications
} ,
Ġhe ight
Ġour selves
Ġa rose
Ġsole mn
Ġr ing
Ġli ked
Ġf et
i ation
Ġad jective
Ġcol or
Ġmeas ure
O W
w ill
Ġparticular ly
Ġex er
er able
ĠJ urg
Ġopportun ity
Ġn ice
g est
ll y
ĠSe c
em pl
ĠBath sheba
Ġag ricultural
Ġ6 5
âĶĢâĶĢâĶĢâĶĢ âĶĢâĶĢâĶĢâĶĢ
Ġst ick
Ġorigin al
Ġc attle
ĠSha ll
Ġl ion
Ġf ond
D on
Ġm ir
, âĢĻ
ĠF anny
Ġm ill
Ġear li
Ġgrow ing
ĠS uff
cons umer
or ter
Ġyour s
Ġter ms
en n
Ġsy mp
Ġsm iled
ha l
ch ie
ir ing
Ġk W
ig er
03 0
Ġtast e
ĠEurope an
Ġst ars
Ġg ather
ut s
P U
ĠH ave
Ġworth y
Ġproper ty
Ġrememb ered
Ġinst r
Ġestab lish
ver se
Ġdevelop ed
the y
Ġwha le
ĠTh y
Ġsm oke
Ġbu y
Ġe vent
sur face
Ġb id
Ġre du
A G
Ġte eth
Ġeff ort
T is
Ġdevelop ment
I nd
ar i
ĠV er
ll en
um ber
Ġper form
Ġn ine
Ġim per
iz ing
Ġfl ed
ĠL ap
Ġ5 8
ard on
Ġliber ty
Ġin her
Ġport ion
Ġland s
ĠHow ever
Ġearn est
Ġe p
Ġst ones
Ġ6 2
ent ial
end ing
Ġse vere
it or
Ġlad ies
r im
Ġad vent
Ġ /
ĠB ab
as se
Ġneed s
or ough
Ġun known
e unt
ĠLeg islative
Ġcontro l
st and
Ġd ru
tern et
Ġintell ig
le ep
ĠEl nora
Ġw ore
ra ft
ĠCh urch
C C
ĠJ ames
Ġrem ains
Ġco al
con t
Ġempt y
I M
le ment
j ean
Ġ5 2
Ġmove ment
Ġaccept ed
Ġmar ked
Ġdoes n
st one
Ġbran ches
Ġad op
Ġf ate
Ġgold en
Ġforg otten
Ġhe nce
Ġst ock
ĠF M
03 3
Ġpers u
Ġdifficult y
Ġneighb our
our ce
ĠMar itime
Ġfar m
Ġfamil iar
Ġte a
Ġdecla red
Ġst ates
Ġcont ent
er ick
Ġins ide
est y
Ġpol ic
im b
ĠI S
Ġtou ched
Ġtend er
Ġn av
om pl
Ġwatch ing
ĠM id
Ġsha re
Ġro ll
Ġc ourage
Ġun p
in al
03 2
ĠS und
Ġw and
Ġrapid ly
T e
ĠVal jean
e qu
p her
ul ous
Ġconst ruction
i j
ĠC ath
Ġse vent
Ġra re
Ġimag ine
he ld
Ġas soci
v a
EN E
ract ed
o a
Ġt ank
est s
Ġleg s
um n
Ġtw ice
Ġsav age
Ġb ill
Ġcol our
Ġt ired
ĠS omet
Ġnum erous
Ġinhabit ants
Ġkn ight
ĠA ct
ĠTy pe
ac es
Ġp ill
Ġoccur red
b re
v ille
w ing
.... ..
ĠL ou
ĠBar b
ic ious
are st
Ġpoint s
Ġtra vel
ĠJac ob
e ge
Ġcott on
ĠGe ography
ĠJurg is
Ġ3 9
Ġli br
pe l
am er
Ġus ing
ĠSp ain
v ia
ic am
Ġpro gress
Ġste el
S o
om on
Ġord inary
Ġmach inery
ran g
Ġtri be
as y
Ġgau ge
Ġac id
Ġ0 9
ĠW ood
ĠCh ina
Ġunderstand ing
ĠSp ir
Ġsurpr ised
ĠI M
i as
Ġpal ace
ĠL yd
Ġhands ome
Ġbur ied
Ġany body
Ġconf idence
icam eral
ĠH ol
Ġmist ress
Ġmaterial s
Ġwind ows
ri el
Ġ7 5
Ġnot iced
Ġty pe
Ġhapp en
S t
Ġl od
Ġwe eks
Ġ2 000
Ġacc ompl
al a
Ġmar ine
Ġis lands
Ġro of
Ġbul k
Ġcous in
Ġm ales
ĠI II
Ġpur cha
ort ion
Ġopen ing
Ġdri ve
ak er
Ex eunt
Ġ 93
ren ce
ch ief
Ġpre fer
Ġtem ple
Ġthr one
Ġj ur
Ġbir ds
ĠOver view
Ġfav or
clus ive
Ġs q
ĠB ur
Ġsh ore
* ,
Ġ19 87
Ġpur s
D B
Ġdo ors
Ġoblig ed
ĠG l
P OL
Ġro b
ĠCap ital
Ġind ustrial
10 3
iv ed
ĠC han
Ġsa ved
? âĢĶ
E A
ĠF irst
Ġsatisf ied
Ġbeast s
Ġwhis pered
ĠP orts
Ġt akes
ĠC ount
Ġ ess
Ġwar ri
Ġex ec
an ch
Ġsett led
Ġmy ster
Ġd rop
v ation
Ġbless ed
nd ar
ĠTer rain
ĠS at
ri et
Ġus able
ĠLap ham
Ġ 91
Ġother wise
Ġbur nt
Ġp an
Ġsw ift
Ġbreak fast
as p
Ġsuff ered
Ġev idence
Ġcou ple
Ġmult itude
O F
ĠAg ain
Ġn ative
Ġfran c
c er
Ġsa f
t hen
Ġp arent
Ġpoint ed
Ġkeep ing
Ġpubl ished
Ġwe ap
Ġrecogn ized
Ġpro s
Ġlist ened
Ġcar riage
Ġtrop ical
Ġsl ain
__ __
ĠJ ude
ĠGu inea
ĠInd ustrial
it ch
Ġevery body
ĠCoast line
reck les
ail ing
Ġtell ing
Ġn amed
Ġev idently
Ġd w
Ġrem oved
Ġb ase
ad ing
i est
ie ur
ĠK night
Ġrep ort
Ġdestroy ed
Ġmention ed
art ed
Ġdo c
ĠEl iz
ha med
Ġact ually
Ġteleph ones
Ġacqu aint
v an
Ġpr ime
Ġobt ained
ĠAustral ia
Ġaw ful
Ġrad io
Ġ 92
BR D
m ark
ĠB er
ĠJ im
Ġ7 4
Ġdiv ided
Ġsla ves
Ġf er
ĠT wo
Ġd u
Ġste ad
. --
f ess
k er
Ġbene f
ĠN egro
Ġsmall er
Ġdist ur
ĠCath olic
Ġdaught ers
Ġfl ight
Ġend ed
Ex it
Ġsk in
Ġsu spect
ĠLyd gate
Ġpress ure
g on
Ġ6 6
II I
Ġfor ced
ĠC or
Ġn es
ust ed
Ġsuff icient
Ġwood s
Ġinter p
ose tte
Ġser ved
Ġsugg ested
Ġp red
Ġjo ined
Ġam b
Ġpro ved
Ġsp le
Ġgr at
Ġdisc over
Ġg rief
Ġthr own
im ents
ĠL ook
10 5
Ġgl oom
Ġmy st
Ġfier ce
Ġalt ogether
ĠJ o
Ġhigh ly
I V
Ġimport ance
Ġf art
Ġprom ised
Ġsystem s
Ġpur su
ĠAd j
ran ches
Ġ6 4
mm a
ish op
Ġterrit ory
Ġin iqu
ĠB a
ĠR elig
ain ted
ĠL angu
C ome
Ġmo ving
Ġsacrif ice
Ġinterest ed
Ġce ased
b ury
ha d
Ġp opular
het ic
Ġsucceed ed
us ing
03 1
un ch
ĠB ern
Ġcomp arative
U T
ĠS C
Ġspe nd
Ġ ice
Ġ2 93
ĠIn ternet
Ġconvers ion
Ġhig hest
Ġ19 86
Ġput ting
Ġun s
Ġeduc ation
Ġbe aring
ĠA ng
ad es
ĠB irth
t le
Ġ0 6
m eter
Ġwe alth
Ġk it
greg ation
Ġte ach
ĠSol omon
Ġp os
Ġc oc
Ġexpl ained
is d
U L
Ġp ick
Ġaff ord
Ġoff icial
rig ated
I X
ĠS ud
Ġe mer
Ġwas n
Ġso il
Ġcoff ee
k y
Ġre nd
ĠTele communications
ag on
Ġcop per
cl es
Ġdo zen
Ġcreat ures
Ġpict ures
ĠD ep
Ġaff l
Ġrev ol
Ġplay ed
ĠSm ith
Ġcrow d
Ġf old
ĠAd ministrative
cept ion
Ġo x
Ġpro c
Ġkn ees
ĠEx change
Ġide as
Ġ ing
ĠC osette
ons ieur
ĠF reckles
iam ond
' ,
z y
Ġse ized
ĠIM F
Ġhe ro
Ġn od
Ġcount enance
Ġro y
c ies
Ġmom ents
Ġstand ard
Ġvis ion
ĠM ex
ĠIn st
Ġb rief
Ġpo et
Ġdread ful
Ġc up
ud d
25 0
Ġcent ral
Ġadv anced
ail ed
ĠInd ustries
ĠUn employment
ĠF lag
Ġlead ing
ĠPr ot
Ġcond itions
Ġsan ct
Ġsqu are
Ġche ck
Ġpower ful
b orn
Ġb ore
ut ions
Ġcare fully
Ġcross ed
he m
Ġe re
Ġpract ice
Ġd ull
Ġfreed om
A Y
ĠIn fant
Ġcur t
y a
Ġtank er
Ġl ink
Ġlaugh ing
ĠC al
Ġfool ish
Ġg rie
el ess
os en
ĠT han
Ġneed ed
st airs
ĠH am
Ġincre ased
ha pp
Ġright s
Ġdist ant
ord an
ĠPol itical
othe a
Ġfe atures
Ġam az
Ġcomp ass
or ous
l ong
Ġ ...
Ġsm iling
Ġc ow
ĠLi ke
Ġnumb ers
f all
ĠS and
ĠBl ack
ĠAir ports
ĠWhere fore
Ġthy self
Ġg ame
ĠOn ly
Ġbir d
Ġno se
li ament
Ġa unt
Ġhe av
ĠCon f
ĠEth nic
Ġfl o
Ġcr ude
ĠW HO
ĠIn flation
ĠCent ral
Ġcent er
Ġin vent
Ġl oose
fort un
g en
Ġ5 1
S C
Ġdesp air
u an
ay ed
**** ****
bo ard
o very
Ġbes ides
Ġquiet ly
ĠElect ricity
Ġb rill
ĠEx ports
Ġprop he
Ġd ressed
k ind
ĠR od
Ġrel ations
Ġincre ase
Ġgentle men
ĠAr my
Ġtem pt
Ġd ign
r ants
Ġas leep
Ġod d
ĠPort ug
Ġlist en
ĠB es
Ġcons cience
Ġkit chen
ĠT O
Ġint ended
Ġdepart ed
road s
ĠDi plomatic
Ġl it
ĠDor othea
Ġb ond
isd iction
Ġwas te
p lace
age ment
Ġcit iz
u k
Ġappe ars
Ġr out
Ġproble m
Ġsple nd
ĠL iteracy
Ġwant s
ĠS ara
Ġst orm
Ġsupp l
ĠRe v
Ġda ily
os om
Ġ5 6
ĠPer haps
u le
Ġwill ing
ĠJud icial
ĠImp orts
Ġsp r
Ġmil k
Ġpap ers
y er
g ent
Ġ8 3
ĠEx ternal
ar on
Ġbra ve
O T
it an
Ġfa iled
ĠCur rency
Ġdes cribed
Ġbra in
Ġfing er
resp ond
er ver
Ġsuper ior
0000 00
e f
ĠA y
ĠR ed
Ġch osen
ur ally
Ġo bey
Ġcoun sel
Ġaff airs
j ust
p ut
Ġpro of
Ġinter rupt
en ced
ĠF iscal
Ġre sem
ĠU nder
Ġ9 5
Ġl uck
ĠT ake
oc ation
Ġbel ief
ĠNational ity
Ġpossess ed
Ġanim als
Ġjur isdiction
Ġend e
Ġwr ath
Ġmach ine
Ġbod ies
Ġroy al
Ġv o
03 5
Ġexpl ain
ĠB udget
ĠN ay
ven ue
Ġra ise
Ġmet al
Ġfe ast
Ġinst ance
Ġpol ice
i i
ha el
ĠM ac
row s
ĠBe cause
Ġt ab
ĠHigh ways
Ġfell ows
ĠC as
Ġfull y
ĠLeg al
em s
Ġwond ered
h is
ad s
ar n
Ġsh op
Ġas hamed
Ġs igh
Ġst age
b or
F r
Ġprov ided
ĠD es
Ġres ist
Ġreg ion
ic an
Ġsh own
Ġim pl
Ġra ge
Ġv ague
85 7
Ġadv ance
ha ra
Ġimag ination
as ing
Ġnecess ity
Ġexp ed
ast ic
Ġsla very
Ġaw are
ĠM ember
Ġd omin
19 85
ful ness
Ġwel come
Ġband s
........................................ ...
ĠD en
Ġfl ower
ĠJ ordan
Ġelect ed
em ed
ĠM any
L et
ĠF IR
Ġinher it
Ġcon gregation
Ġwor st
Ġrequ ire
Ġwith d
Ġfart her
ter day
ar ked
Ġcont ain
Ġm al
Ġposs ibly
Ġ x
Ġa ver
Ġpa used
Ġp aint
am ing
ĠSuff rage
Ġf il
Ġst uff
Ġconn ected
Ġh om
Ġind iff
ĠIN TER
Ġsymp ath
ra it
Ġprin ces
Ġpre cious
Ġde ck
Ġlove ly
Ġrelig ion
h o
Ġy ards
ĠF R
ĠBern ard
h or
ĠCong ress
Ġ4 9
ci ple
. ''
Ġthr ust
Ġsw ear
Ġarran ge
Ġdri ven
p ir
ind er
ĠIt al
Ġsol id
clud ing
r is
ĠSt and
less ly
Ġende av
Ġpart ly
Ġappro ached
ĠM il
ĠH oly
Ġpresent ed
Ġb osom
ĠC y
Ġch oice
ĠFran c
Ġfield s
m as
Ġh yd
Ġfe ed
Ġhe ll
a fter
Ġt ale
c ery
r as
Ġg ain
ĠP R
Ġact ivity
wh ile
p se
Ġrel ief
Ġthro at
A s
ul ation
Ġne arer
Ġsoul s
Ġrepresent ed
ĠI nt
ĠD uke
Ġto day
ĠM ost
ĠChar les
ĠS aul
Ġp air
Ġbe held
ĠB ank
ĠW ould
ĠAn other
ĠS ince
or ing
Ġth orough
Ġg le
qu is
Ġfamil ies
Ġact s
e v
Ġlim ited
Ġse ll
Ġremark able
ĠFIR ST
Ġw ed
Ġregard ed
ĠT ess
Ġm ild
Ġthen ce
Ġcomput ers
Ġcon qu
ĠS il
ĠCha pter
Ġh un
Ġcont rib
Ġsaf ety
p art
Ġsu it
Ġapparent ly
am s
. );
Ġbroad cast
Ġt ur
Ġ8 0
Ġcomplete ly
Ġb ought
03 6
Ġincl ude
or is
Ġre asons
E G
en a
Ġfall ing
Ġemploy ed
N P
Ġtrad ition
u zz
Ġp ounds
Ġst yle
Ġt um
Ġst retched
Ġ rom
Ġhon or
y s
ĠJew s
ut ies
ĠA R
ad ers
ad em
Ġoffic ers
ale ndar
Ġsal t
ul a
I AN
th is
Ġcon ven
Ġent ertain
ĠEd ward
Ġha ven
Ġfe ared
Ġch oose
Ġgl or
ĠM AR
Ġfind ing
IC H
Ġhor ror
Ġtim ber
Ġtru ly
ĠSund ay
Ġunder t
as tern
Ġoccup ation
ĠP en
L A
Ġcor rect
ĠCol onel
im s
20 4
Ġacc ident
ĠGab riel
ĠSC ENE
ĠM at
Ġdisappe ared
ak s
Ġf ought
2 00
z ing
ĠS erv
ĠE mma
10 4
Ġ5 3
ĠS ing
Ġsu p
Ġmurm ured
U M
Ġchemical s
x ed
Ġas pect
Ġprodu ce
ĠO ld
clud ed
Ġ5 7
h ic
Ġinst ruct
Ġc ook
Ġsold iers
Ġco ven
Ġdanger ous
Ġw ings
ure ly
Ġv ac
Ġvis ible
Ġsp rang
Ġ6 3
Ġref lect
Ġconv in
Ġfig ures
Ġord ers
ĠT ime
ĠJ ack
e el
Ġrelig ious
Ġvirt ue
F or
K E
ĠO OF
Ġo ath
w est
Ġqu ality
Ġprison er
Ġh it
âĢĶ âĢľ
ĠO DA
Ġthan ks
Ġst ore
ĠG rand
Ġs outhern
ĠNet her
t ime
ct ure
Ġdes ired
Ġcompan ions
fess or
ĠA aron
ĠQ U
ic ian
Ġob st
Ġg ates
Ġper ceived
Ġmur d
al ing
ĠU PU
Ġsound s
T O
gr ound
Ġpull ed
Ġesc aped
G ood
ra cy
Ġfair ly
o ch
ĠA c
ĠAlex ander
a j
ĠOn ce
Ġhel ped
Ġse ctor
ĠR og
Ġcall ing
Ġmor al
6 27
ES CO
Ġpa ved
Ġann ually
Ġ vers
Ġe ase
Ġtit le
Ġst ret
ĠV en
Ġs ource
ul ated
a ult
Ġre le
Wh o
Ġprot ect
Ġcop y
Ġg ently
Ġabs ence
Ġacquaint ance
ĠR oyal
Ġkind ness
Ġdes ol
Ġdest ruction
Ġs ins
Ġn orthern
S R
Ġdis pl
ĠNot hing
Ġagre ed
1 00
Ġ ident
Ġp in
Ġn aked
Ġun happ
yl on
ĠNether lands
Ġabsolute ly
um ption
eal ous
Ġinst inct
um ph
Ġconst it
ĠI V
ĠS ch
Ġfl ood
ĠF ront
Ġ6 8
Ġd ate
Ġfl our
at i
Ġsec urity
Ġf an
Ġburn ing
Ġcreat ed
Ġsoft ware
Ġvessel s
Ġcontin ue
Ġadm it
ĠIC AO
ĠUp on
Ġth under
oun ce
Ġcr im
Ġm ic
ĠL aw
Ġab road
Ġgra vel
Ġcar rying
Ġrej o
le ction
ab eth
Ġev ents
Ġsle pt
Ġtext iles
Ġpros per
Ġc ard
Ġext ent
Ġextra ord
at han
Ġcoll ect
Ġlead er
Ġprocess ing
Ġdep th
ic ip
Ġaff ect
n am
Ġs cience
ĠR ail
Ġkn ife
Ġb en
Ġwor ship
Ġgr ay
l ot
rif ied
ĠI TU
Ġc art
Ġent rance
Ġste pped
ĠSpir it
04 3
ens ion
Ġpre par
ĠUN ESCO
Ġc ord
ink ing
ĠC ast
ĠL ib
Ġg host
Ġpr on
f le
Ġc alendar
Ġun e
Ġobject s
b ook
Ġser ies
Ġintell ect
Ġanx ious
ĠA cc
Ġre n
ĠH ist
Ġtra il
ĠI BRD
Ġthere in
Ġbord er
Ġsupp er
Ġhor rible
Ġcommun ity
ĠLat in
Ġ7 0
Ġstri ke
Ġhop ed
Ġadm itted
Ġsmo oth
e en
Ġrighteous ness
ra ham
ĠIt s
Ġt al
Ġen orm
up ied
Ġappro ach
r us
Ġm at
Ġwr it
Ġcur ios
Ġp oll
Ġref er
Ġt ask
Ġexc ited
Ġt ar
Ġ19 80
ĠAN T
ĠLou is
Ġqu al
Ġp ardon
Ġam id
Ġyes terday
Ġimm ense
in ter
Ġmist ake
ĠR ue
Ġimp ression
Ġsepar ate
Ġh orn
ĠM e
ĠF air
ĠWh ite
Ġav oid
Ġsurr ounded
Ġheaven s
ie ce
Ġre ward
99 9
Ġcra ck
Ġcomp uls
t op
ing ing
ĠSw ed
Ġconcern ed
Ġvo ices
Ġsold ier
Ġcontr ary
p ent
AN T
Ġcred it
Ġexpl an
Ġem p
Ġli qu
ĠV irgin
Ġcor respond
Ġsoft ly
Ġpray er
Ġre nder
ĠJ os
ĠB ranches
pe lled
Ġpol it
Ġa head
Ġcons ists
our se
c ar
W here
is her
Ġj ealous
og g
3 14
ĠT roy
Ġv ig
ĠW MO
ĠF AO
ond er
ĠHen chard
Ġme mber
ĠO ak
ge ant
Ġso vere
19 86
Ġmis ery
A n
ĠHol mes
Ġprom pt
ĠR ober
Ġobs c
Ġpro spect
Ġque en
ĠI MO
em en
ĠTur k
ĠCan ada
or ne
Ġd ance
9 94
ĠMc Te
Ġreg ret
Ġdw elt
Ġmon arch
m et
Ġuse ful
l ar
65 3
F TU
r at
Ġwe ary
Ġleg al
84 5
ĠBab ylon
Ġlab our
Ġwhen ce
ere m
Ġmind s
Ġadv ice
Ġdat a
im on
Ġartic le
k in
it ate
Ġgrad ually
ell a
Ġnat urally
P H
63 3
Ġen ergy
Ġinqu ir
l ines
ac hes
Ġm ile
olog ical
Ġt ax
ate ll
Ġpr ice
ĠAr t
Ġgovern or
Ġcons ist
Ġrep ent
ĠYe a
Ġcoven ant
Ġsc attered
aught er
ac les
Ġdog s
ĠM ove
6 00
on st
Ġse ated
Ġprop ortion
ĠAlex and
Ġas cend
ri an
Ġfam ous
ran k
Ġdo ct
ĠPro fessor
ĠTr ina
Ġdist rib
Ġg e
ĠF A
ĠSp anish
Ġr um
Ġcle ver
Ġbound ary
Ġfright ened
. ]
o ked
ĠT ell
Ġcoun ter
Ġroom s
Ġsc ream
G o
Ġartic les
an n
++++++++ ++++++++
Ġun ex
Ġ6 1
91 8
Ġsusp ic
ĠD uring
Ġsa c
Ġshe lf
Ġ7 6
Ġte acher
Ġequ ally
Ġthousand s
ĠBel g
Ġavail able
Ġsing ing
oint ment
Ġclot hing
Ġt ight
ap er
ĠMcTe ague
f ar
ic ted
Ġth ither
Ġsatisf action
Ġcom eth
Ġkiss ed
Ġlibr ary
Ġc ouncil
Ġsm ell
Ġcloud s
eg al
Ġproceed ed
Ġsp are
Ġcond em
m ore
Ġtreat ed
ar ian
ĠItal ian
Ġthe ory
Ġp ant
om s
M r
90 4
ĠEliz abeth
Ġm ood
Ġatt ached
ĠCla re
Ġun b
ĠL aman
Ġdis ciples
Ġfight ing
8 12
Ġpre ced
Ġb ones
Ġaccomp an
ĠN iger
Ġinde pendent
A ll
Ġw et
ĠM ag
Ġqu ant
Ġhur ried
Ġchair man
z il
Ġf ulf
Ġhad n
Ġwar n
Ġfore head
Ġshad ows
Ġoffic er
ĠJ ul
Ġrequ est
âĢ ĺ
ĠPr ime
Ġearli er
ĠINTER POL
il st
ĠTh ose
Ġmis erable
per or
Ġcirc le
b urg
Ġm ixed
off icial
Ġhid den
l ocked
ĠA mm
ck now
own ed
b ted
up id
W hen
l am
Ġprop het
Ġelect ronic
ĠN W
Ġsuff ering
ĠSc ene
Ġtab ern
8 00
Ġro de
ĠRuss ia
Ġv ine
Ġcr ime
0 95
Ġb ag
end s
Ġdro ve
Ġclear ly
Ġref used
Ġinterest s
ent h
oc racy
Ġavail ability
is hes
Ġinter ior
A r
Ġab und
Ġro lled
Ġ8 7
Ġextreme ly
Ġwhe el
65 7
Ġact ive
8 15
ĠI LO
Ġwhe at
Ġo re
Ġ2 92
Ġfact s
Ġextraord inary
am in
a id
m osp
Ġjo in
Ġiniqu ity
Ġcurios ity
Ġtrans l
ut ation
Ġun icameral
Ġdemand ed
Ġr ang
Ġke en
Ġcra ft
Ġmur der
Ġcons ult
Ġexp ressed
ĠRod erick
Ġc hat
Ġconsequ ence
ĠD W
Ġhast e
r ors
Ġtotal ing
Ġclose ly
Ġinst antly
Ġcult iv
c raft
Ġt ail
ĠTerrit orial
Ġm ing
ĠMove ment
b our
ar se
em ents
Ġse m
Ġpl ains
clus ion
ĠS ay
Ġmod er
Ġcomple x
y ard
Ġman if
ĠJ on
Ġen v
Ġw ound
Ġelect ric
Ġpass enger
r one
on ia
Ġcomfort able
3 00
Ġbus y
rid ge
ign ed
ĠB ro
Ġdef ense
Ġprev ious
f ive
ĠC ity
os o
Ġstand s
Ġwind s
Ġb owed
Ġa cknow
Ġno vel
r ison
Ġp icked
Ġas king
ĠMore l
Ġdist ress
ĠDW T
1 13
Ġw retched
ĠG ive
ĠG reen
ivers ity
Ġbecom ing
Ġhe ed
ĠK or
Ġman ners
v est
ĠBes ides
ON D
Ġfin al
ĠG ent
Ġl at
Ġat mosp
Ġ5 9
20 8
ĠPr in
ĠW il
Ġbet ray
Ġrec ent
Ġprov in
abin et
Ġiss ue
Ġcompuls ory
J anuary
ul se
-- (
ĠJ a
Ġhist or
Ġt ort
ĠMex ico
Ġc y
Ġyour selves
Ġconvin ced
Å ĵ
Ġper cent
Ġcand le
ĠE s
Ġho le
Ġwor n
Ġcent re
u able
Ġcha in
Ġsign s
Ġwhis per
R Y
Ġmyster ious
Ġbl ank
Ġpat ience
Ġcommer cial
s uff
t es
Ġhoriz ont
ĠMid dle
atell ite
ĠK ore
Ġass ured
Ġres olved
Ġdes per
67 3
Ġn ur
st e
st ro
ĠA P
Ġv en
so ever
Ġr ide
r ass
Ġme chan
Ġdisp utes
Ġend ure
Ġlarge ly
Ġprin ciple
Ġfort un
Ġown er
Ġformer ly
Ġher s
07 3
es ar
ĠO ut
03 8
Ġs ore
Ġpre y
Ġexc it
ĠB ay
Ġbring ing
Ġd il
Ġsha de
Ġcomm itted
ĠB old
os ure
ap s
ur d
Ġeld er
Ġfor ces
Ġout er
ĠSt ill
ĠAs ia
Ġgra in
Ġforg ot
z ed
Ġst ared
ig hed
Ġhide ous
ag ger
Ġintrodu ced
es ter
ĠCons ulate
Ġru in
ĠGree ce
it ure
ĠV in
ceiv ing
ĠCl ay
Ġl one
Ġtrou bled
Ġgl anced
9 89
Ġ19 85
Ġar med
ĠS un
ĠB o
Ġbe nd
63 4
s ome
23 2
Ġr ic
Ġenorm ous
ĠA C
, --
ĠRober t
Ġkind ly
Ġnav ig
e ve
Ġt on
64 4
0 96
ĠMus lim
b ack
Ġinnoc ent
Ġfrequ ently
Ġdistingu ished
in o
Ġex hib
Ġprov ide
Ġse x
Ġleg isl
Ġp ause
Ġrec omm
Ġfriend ly
. '
Ġplay ing
ĠIF AD
Ġsh ock
ĠMar ian
Ġreturn ing
eder ation
Ġinvest ig
Ġthink s
ĠMic hael
Ġfif teen
I m
ĠW he
ĠMore over
iv ing
Ġignor ant
Ġstrugg le
Ġcl o
Ġgl im
IN E
uff s
ĠLangu ages
ĠP et
Ġopp osition
C S
Ġd ying
Ġj ew
ĠBrit ain
Ġhang ing
Ġexper ien
re p
Ġhost s
Ġbecom es
Ġunhapp y
Ġsk ill
Ġexer cise
Ġgr im
Ġsc orn
20 6
ĠIs a
Ġsol ution
d on
oo per
Ġex ha
84 1
ĠâĢľ _
Ġshe l
Ġchar ming
Ġsch ol
s en
un ning
Ġbel oved
ĠI DA
Ġhop es
ĠB as
Ġind ign
u z
Ġrem arked
Ġfaith ful
Ġexceed ingly
ĠRelig ions
Ġr ank
20 7
Ġce le
CT AD
c us
Ġw ounded
Ġg ay
Ġshe w
ĠBra zil
Ġbab y
pp er
al og
ĠM en
Ġre con
ro ll
Ġg ained
au x
Ġmar ch
Ġsec ure
26 1
pect ed
Ġprop osed
Ġc rying
rou p
Ġret reat
Ġhung ry
ĠD ig
Ġlight ed
ĠLaman ites
Ġw rought
ĠUN CTAD
ĠSomet imes
ag u
Ġspec ies
Ġexcit ement
c ol
Ġ9 8
Ġutter ly
anch oly
ĠS ue
63 5
Ġcomb ination
Ġdis e
Ġp ushed
Ġcont aining
Ġdeep ly
oura ble
Ġrespons ibility
Ġcont ained
Ġob v
Ġfour th
Ġsubject s
ĠSocial ist
A l
Ġro pe
Ġg rey
Ġown ed
23 3
re ed
Ġmer ry
Ġacc ur
ĠAm ong
ĠIF C
il ty
ain e
Ġsl ay
ĠBold wood
Ġsome body
Ġyoung er
a ire
Ġph r
Ġm atch
Ġtrib es
93 5
Ġs atellite
Ġimpro ve
Ġsome where
ĠR es
Ġcontin ually
ĠLe aders
Ġabs or
il bert
90 3
Ġab and
il us
ĠL A
ĠMa j
ĠLe v
Ġconn ect
s m
Ġbrill iant
Ġprophe ts
Ġimpro ved
M AN
ab out
Ġw aves
ĠAb raham
ĠS EC
Ġest im
Ġconscious ness
Ġtabern acle
Ġconst ant
look ing
Ġlight s
Ġcal cul
Ġve hic
Ġ6 7
Ġc ub
ĠPhil ip
v ol
in or
Ġover t
Ġcont ains
Ġbr ass
Ġsepar ated
Ġev ident
Ġexplan ation
ĠA hab
ĠTh ree
Ġr ushed
6 96
ĠD el
Ġend s
Ġre nt
Ġent ering
ad d
Ġrec oll
Ġche eks
Ġadop ted
as ant
Ġexp ort
Ġo cean
ĠP at
Ġarg ument
13 7
Ġcare ful
Ġs cient
Ġsh ield
Ġtr ump
ous ed
Ġatt itude
Ġinf er
ĠNever theless
Ġst ern
Ġdiv ine
Ġmer c
in ent
at a
Ġst iff
Ġmin ing
Ġsoon er
ren e
04 0
Ġha ted
ed u
Ġl an
se y
el ia
ĠFrank lin
P E
b ly
ĠElect ions
Ġhorizont al
ĠS T
Ġsupp ly
Ġst ories
Ġwhere in
Ġreck on
67 6
Ġter min
Y EAR
Ġst airs
ĠW ork
Ġsha ke
Ġ8 8
Ġimp ress
Ġet c
Ġgl o
Ġn in
Ġsubst ance
Ġwho lly
Ġr ust
AT T
i h
Ġ19 05
Ġcall s
Ġmer chant
pl ural
ĠEl inor
Ġproble ms
Ġcommer ce
ol f
Ġt a
Ġp ond
I Z
Ġsleep ing
ĠRuss ian
Ġcomp re
ru e
Ġcont empl
Ġdr unk
Ġlist ening
Ġinherit ance
ot es
Ġord ered
Ġmel ancholy
Ġbr ow
Ġquar ters
ĠI OC
Ġforb id
Ġun able
Ġrem ind
4 00
Ġwarri ors
Ġdist rict
ĠK en
Ġf iles
ĠM ark
Ġforg ive
ut ch
Ġ19 00
Ġexper iment
10 6
Ġgu ide
ĠAd v
Ġf o
Ġlar gest
Ġd uke
Ġdisc overy
um es
Ġg reet
Ġf ederal
ines e
Ġcommun ication
Ġhousehold s
Ġ9 6
ĠAl so
Ġlo ving
cri pt
Ġstra w
Ġnever theless
ĠMar ia
ĠM ass
Ġint ention
Ġun fortun
Ġsc he
Ġda wn
ĠP oor
Ġb orne
ol a
Ġbur den
ĠR eg
ound ing
pl ess
o ir
Ġn ig
Ġsm ote
ertain ly
Ġran ge
Ġsplend id
ĠT ill
ĠP ass
ĠMer chant
ĠS outhern
Ġh ollow
ct ic
20 5
Ġmyst ery
ĠA unt
ol es
Ġche ek
ĠC ivil
Ġany one
Ġpre cise
65 5
Ġmin or
Ġeff orts
Ġtri al
ĠMa ur
Ġrel ative
itt ee
Ġrock s
ri ot
ĠA venue
ers on
94 3
Ġref erences
Ġche st
ixt ure
H ere
re land
Ġconf usion
Ġl amp
ĠA ustri
Ġcont act
Ġunc ons
Ġfol k
Ġval uable
Ġarran ged
04 4
63 7
he nd
Ġp ow
ĠS om
Ġp ressed
ipp ing
j ud
D id
a o
Ġun ion
Ġroad s
Ġdepart ment
Ġimmedi ate
Ġinqu ired
Ġold er
Ġfru its
U n
Ġen s
Ġveget ables
ur ies
Ġassist ance
Ġfore ver
h us
Ġwater ways
Ġdel icate
Ġint ent
Ġph one
Ġhot el
Ġmanufact uring
ol k
st on
Ġfriend ship
Ġe gg
Ġin ner
ol ve
Ġw ra
Ġ19 84
at oes
Ġst upid
Ġdoll ar
ĠG OD
Ġwhere fore
........................................ ....
Ġliv est
E EN
b ac
ĠM ount
i ot
ld om
==== ====
h im
Ġs ul
Ġshout ed
Ġres umed
Ġhum ble
Ġpl ans
Ġappl ied
25 4
Ġl am
Ġevery where
Ġha z
Ġse ct
ĠN ap
Ġobs erve
Ġdisp ute
Ġphys ical
a ur
Ġsu s
Ġadd ressed
Ġcomp osed
ĠSo v
Ġchief ly
os er
Ġl ust
Ġh osp
ĠDe velop
Ġpurs ued
Ġp or
Ġdirect ed
ĠCa esar
ĠM ap
Ġar rest
Ġsp l
r ine
Ġf ix
Ġsp ark
Ġg ift
au bon
stand ing
in ate
Ġb ree
Ġprof ound
Ġha l
Ġoffer ings
Ġoccasion ally
Ġlear ning
43 5
n ard
Ġw estern
er k
Ġdo st
Ġbl ame
Ġaccompan ied
U D
Ġas sem
Ġrail way
Ġsh ining
Ġint ense
c ase
Ġm orrow
Ġa x
it zer
Ġst rict
are t
Ġreal ized
Ġhur ry
ĠAmm on
ere r
Ġc am
ĠI m
f ather
Ġread er
ot ted
ĠM iles
x im
Ġsh oes
Ġcur se
Ġdru gs
Ġlone ly
ard e
Ġdep os
ĠT her
Ġviol ence
9 85
ĠE astern
Ġgaz e
Ġfollow s
Ġcap able
ax on
Ġh int
ĠTh Ã©
Ġcont empt
ustom ed
1 19
8 24
ĠN ature
Ġatmosp here
ut en
et te
Ġprin cess
Ġeas tern
O f
in cluding
ĠP an
ĠU t
j ah
Ġgr ate
ĠAb out
Ġfrequ ent
Ġcomp et
or se
Ġconsider ation
Ġpriv ile
ĠSen ate
Ġtreas ure
l ock
ĠS ur
Ġv ice
Ġmajor ity
Ġfranc s
ĠCas aubon
Ġbelong ed
ĠS H
Ġbr idge
_. ]
ĠAre a
Ġpolic y
Ġdiscuss ion
Ġappre ci
ĠNA M
Ġr at
Ġremain ing
Ġgen ius
05 6
Ġs aint
04 2
Ġinf inite
wh o
Ġl oo
m it
as ped
Ġhe ark
ĠM onsieur
Ġeng ine
8 14
ĠS ar
ĠC raw
Ġc ig
Ġl in
if ying
04 5
Ġtown s
AS S
Ġl ake
ĠR em
Ġrel ie
Ġpract ical
m ond
ep s
Ġdign ity
ĠSov iet
Ġd ish
Ġsw all
Ġviol ent
Ġc her
st ock
Ġdid st
Ġe rect
ĠD ou
ĠPhil ist
Ġtour ism
as hing
ĠCh ic
Ġset ting
Ġexc use
ather ine
Ġ7 1
Ġ19 81
Ġcele br
Ġtro ops
Ġdef e
Ġobt ain
Ġterrit orial
ĠO ff
Ġreg ions
Ġrend ered
Ġl aughter
Ġtrans fer
Ġlivest ock
Ġnot es
Ġw ives
Ġp lag
Ġcharact ers
Ġdescri ption
ĠP ri
ĠE ach
91 4
Ġprin ciples
ĠRev olution
Ġbe w
ĠN avy
Ġind ul
h um
el f
90 5
Ġ8 2
Ġf la
Ġ18 90
Ġrel ation
Ġp ipe
ĠO p
Ġj ob
Ġque er
ĠRail roads
10 7
ne w
Ġequ ival
ĠL y
Ġcons ent
Ġvar iety
Ġp il
il and
B ER
ĠCraw ford
al i
ĠD un
ĠR a
Ġpal m
Ġ1 77
ĠB uck
Ġpl at
07 8
Ġro lling
Ġsome how
Ġfle e
ID O
Ġuncons cious
Ġwas h
Ġtrem bling
ĠNep hi
Ġheav ily
ĠT ha
Ġfound ed
Ġcommand ments
Ġcitiz ens
u ce
Ġstran gers
Ġmid night
Ġignor ance
A re
Ġpl enty
Ġdev oted
Ġwh ither
Ġcour ts
Ġeffect ive
Ġfle w
1 64
2 94
ask et
bac co
s is
Ġp our
Ġfe ver
Ġstri king
Ġdecla re
i able
m atic
ac he
Ġexpl o
Ġl ap
ĠY EAR
Ġste ep
Ġaver age
V ery
04 7
Ġr ays
91 5
ĠAn y
Ġmon st
Ġele ction
Ġdream s
Ġsac red
Ġmagn ific
................................ ................
90 7
Ġgra cious
g han
ic ing
w hen
ĠT em
Ġshe d
Ġ19 83
Ġtri umph
Ġhack ers
Ġ <
he ast
Ġaff air
Ġoper ation
ĠI reland
Ġspirit ual
Ġfra me
ĠB oth
Ġ19 82
Ġp ig
Ġre ar
Ġchan ges
Ġaw ake
itzer land
Ġf ab
Ġgar ments
9 19
ĠAnd rew
ha nt
ĠI ll
ĠHel en
Ġl ift
Ġha m
Ġfl ung
ĠUN IDO
Ġfra g
pher d
ĠRog er
Ġgu ilty
Ġalar m
Ġc rew
ac c
' .
ĠF ogg
Ġgener ation
Ġass ure
Ġmig rants
IP O
Ġsl ipped
g ly
n al
ĠM ir
ang le
C h
N E
um ped
Ġburn ed
Ġcon cluded
Ġc la
Ġ19 79
Ġkn ock
91 7
24 4
Ġexp orts
Ġstrong er
g ic
Ġnew sp
ones ia
Ġaud ience
Ġp oured
Ġse ldom
Ġarri val
Ġ19 52
Ġsh ru
Ġfly ing
ĠG ar
Ġwid ow
ĠC oll
Ġvol can
Ġacqu ainted
Ġinter f
17 2
........................ .....
Ġjud ged
Ġparent s
Ġph ot
H ave
Ġfe e
04 6
Ġext ensive
Ġenter pr
Ġp age
ĠS lo
Ġri vers
Ġfran k
ĠE li
ĠW IPO
Ġpl ants
Ġden y
ĠKore a
im ony
Ġreal ity
67 0
Ġser iously
ĠClay ton
Ġg est
ck ets
Ġto bacco
Ġcommun ications
on ly
ĠE ust
Ġemb ar
Ġper ish
ĠV I
ĠNe ither
occ upied
........................ ..
Ġinstr ument
ĠP hara
Ġsign ed
Ġdet ails
Ġdescend ed
Ġliter ature
Ġfet ch
ĠH all
Ġal oud
Ġinterrupt ed
Ġag es
Ġ19 95
Ġfl ame
ĠV ery
M ar
ha ll
Ġwh ilst
ĠNor way
Ġclaim ed
Ġen cl
Ġcast le
Ġweap ons
Ġwhen ever
i op
05 7
ici ently
Ġde eds
ĠW ild
Ġ19 60
ost on
Ġelect ions
Ġprep are
Ġbut ter
Ġd uties
ĠH aving
Ġun w
wor ks
ĠPhara oh
A V
Ġc ash
87 0
ĠSc ot
Ġshow ing
Ġde ed
Ġext ended
Ġlean ing
id ents
Ġuncle an
M ay
Ġatt ended
ĠLe ban
ver ted
83 2
ĠLOR CS
om y
Ġdeg rees
Ġrepro ach
L and
Ġhy p
Ġp uzz
Ġsim pl
Ġsett le
Ġequival ent
Ġlean ed
il i
25 8
Ġ19 96
Ġsome one
Ġpurp oses
on i
ly ing
ĠZ eal
Ġ19 01
Ġper ceive
Ġcomm ission
13 2
ĠCh inese
87 2
Ġget s
a res
ĠC ore
ĠL ove
03 9
Ġsle w
Ġvol ume
Ġun us
ĠGu ard
Ġmort al
ri p
Ġnerv ous
ĠFA X
ĠP C
Ġwond ering
ĠTh rough
ult an
ĠUS SR
ĠPro v
Ġdi plomatic
se ll
Ġare as
Ġagree able
ĠO P
Ġfurn iture
Ġsympath y
Ġent reat
Ġcr ushed
ĠX V
ET H
Ġe ch
ce t
ĠL ight
Ġ19 78
Ġstud ents
Ġsh ows
an ge
Ġl ux
ĠN ames
ist ry
Ġchar ged
ud i
ĠL ake
Ġstay ed
Ġpl un
ĠF are
1 77
N et
Ġre se
ĠH on
10 8
Ġchar m
Ġref use
Ġper pet
Ġgaz ed
Ġprot ection
Ġm ock
A EA
Ġdes ir
Ġstrong ly
u it
ke ep
ĠD U
Ġpo ison
ĠCl iff
z ib
ge on
Ġshe ll
90 9
Ġho ist
ĠSEC OND
ĠThÃ© nard
it ud
Ġse ction
Ġ19 70
Ġatt ract
Ġrej oice
Ġthorough ly
ĠIC J
Ġembar rass
Ġdeli ber
ĠChic ago
Ġany where
Ġm ud
Ġnight s
O n
Ġhel pless
Ġinclud ed
Ġris k
ĠIsa ac
ĠDevelop ment
ĠC ON
Ġplain ly
Ġof t
11 1
Ġimag ined
ĠDo ctor
Ġf oul
ur ance
ĠZeal and
ac ious
Ġsign ific
Ġconn ection
Ġro ot
ĠPres ently
or ation
ĠE ll
Ġut tered
ĠI AEA
18 0
Ġir rit
Ġf und
we re
ĠP RO
ell e
ap ing
Ġfor s
Ġcl ock
ĠMar s
Ġbre aking
Ġm ourn
g then
ĠV ict
Ġrest ed
Ġeat en
A d
b ur
Ġto ss
ĠAn n
Ġtem por
Ġdepart ure
m und
Ġbe ard
Ġimp at
Ġlaw yer
ĠC ass
stro de
Ġd iamond
Ġun im
Ġref lected
Ġun re
27 4
Ġb la
Ġappe al
Ġem otion
Ġaff ected
Ġdef end
Ġbal ance
ke l
ĠH O
au nt
c row
ic ity
Ġbuild ings
o qu
Ġcons umer
Ġsur v
Ġdelight ed
Ġprofess ion
ĠA G
Ġdoc ument
c est
Ġto morrow
Ġg iant
iv eness
Ġp up
Ġsc ra
ĠSy ria
14 4
ĠAs soci
Ġair craft
Ġadvent ure
Ġlo ver
Ġsecret ary
Ġdisc har
Ġleg islative
Ġtrou bles
ĠR ICH
Ġappro aching
Ġt iny
Ġs ank
ar ine
as m
ic ane
Ġent hus
Ġview s
n s
Y e
Ġin ex
ir ty
Ġpart ed
Ġc able
ĠL ion
ĠSw itzerland
Ġst aring
Ġdep ths
ĠWith out
Ġele ven
Ġa chie
in ction
Ġr ice
ĠS us
Ġintellig ence
Ġto ler
ĠA pp
Ġan ch
ire ct
Y our
ĠF el
Ġ7 7
Ġw ire
ĠG ATT
Ġcheer ful
ĠSer geant
ĠOrgan ization
Ġm ental
Ġcon vey
Ġlike wise
Ġce ase
ot y
Ġcon cent
Ġacc ord
Ġexam ined
25 2
Ġadmir ation
umin ous
ĠCore y
65 8
Ġdistur b
ĠMarian ne
Ġwis hes
s pe
Ġn ic
ĠC r
Ġc ode
ug ged
Ġc ents
Ġtow er
Ġr ow
um s
ĠR o
OR D
ĠChrist mas
ĠDen mark
av al
Ġcontr ast
ĠBul strode
Ġming led
P R
ic ar
Ġsc ale
Ġenjoy ed
ĠW al
ac ia
ist ence
Ġ18 80
Ġrem ote
Ġpain ted
P er
Ġm ixture
Ġgood ness
Ġdesol ate
Ġoccas ional
Ġal tern
Ġpl uck
Ġrev iew
Ġiss ues
Ġscient ific
5 53
a ved
re ction
Ġb on
Ġsy mb
Ġincl ined
Ġup ward
ĠAl ger
Ġmod e
Ġrep utation
I B
ĠB ook
Ġcoast al
Ġt ied
Ġout put
65 0
Ġlord s
Ġt in
Ġbrother s
Ġprogra ms
Ġ18 99
88 6
Ġl ing
ck s
Ġsent iment
Ġdifficult ies
ĠBarb icane
Ġsuff iciently
Ġpat ient
Ġ iv
it ute
Ġf ury
ĠA k
suff icient
Ġon line
20 9
air y
Ġsuccess ful
Ġcl im
as ion
Ġhand ed
up on
ĠMan power
ĠLev ites
ĠTher on
Ġcol ored
Ġcott age
Ġt rick
am ond
ĠMinister s
Ġmaint ain
Ġgrant ed
Ġdesert ed
ĠC CC
Ġvict ory
; âĢĶ
Ġy ard
Ġpres erved
Ġadminist ration
Ġsuspic ion
be an
isp utes
Ġp ace
Ġlo ft
Ġwh ist
Ġfe ather
ĠY OU
Ġcom ment
Ġu gly
ĠP ier
cl am
ĠB oston
ĠF our
b ox
ra ction
Ġrev olution
Ġc unning
Ġ18 95
Ġatt rib
Ġinc ident
ra ined
Ġpl ates
Ġref uge
ĠPh r
Ġwicked ness
al ty
if orm
Ġex cess
Ġsh oot
Ġ9 7
C L
Ġsent ence
n ant
is ible
ĠG NP
ĠE arth
op p
Ġle aped
Ġres erv
ĠH u
43 7
ĠProt est
S P
at ha
Ġsc ru
Ġcontin u
ĠP oly
ĠAl though
ĠTur key
Ġ --------------------------------
Ġw oe
Ġhast ily
z a
Ġ18 94
pend ed
Ġdel ay
Ġde b
Ġcl oth
Ġuse less
ĠRos amond
ĠL ocation
Ġim ages
Ġri g
Ġd ared
ak eth
ĠBr own
he arted
Ġl ament
Ġch lor
Ġconf l
Ġfat al
N ational
en gers
05 0
Ġtell s
Ġ19 04
ĠRep resent
Ġneighb or
b ow
Ġ19 76
Ġprison ers
Ġmain ly
Ġreign ed
Ġton ight
Ġs en
ĠC atherine
Ġr ush
Ġpre cip
Ġfear ful
Ġpen et
ĠH ung
Ġdis ag
ĠMar cus
1 15
the w
84 3
Ġkind s
Ġdri ft
Ġg a
ĠF ederal
Ġacc ustomed
ĠAd am
Ġdim in
Ġanx iety
in ity
Ġlo ves
den ly
Ġsovere ign
at us
Ġprof it
Ġref lection
Ġre de
Ġ8 53
Ġra ising
ot o
Ġmeas ures
ro s
ĠG ulf
Ġrel ay
ĠDig raph
Ġab rupt
Ġres olution
Ġcent ered
Ġe ternal
-- -
IC K
Ġg ig
ran s
Ġspo il
ĠPol ice
Ġmig rant
h ire
Ġth read
ĠâĢľ âĢĺ
Ġv oy
Ġ7 8
ĠMal ays
ĠPers ons
ĠT en
Ġst oo
ĠO R
Ġ18 92
ber g
IL L
Ġup right
Ġex clusive
Ġphilosop hy
ĠPortug al
Ġj aw
Ġfl ow
ĠVal ent
ĠRICH ARD
A t
. ),
a is
Ġst um
Ġ19 75
ipe lines
0 87
v als
0 67
amb ia
Ġapart ment
Ġc ab
Ġ18 97
ĠK ir
Ġdra gged
Ġsal vation
Ġw ake
Ġ19 02
Ġ18 91
Ġ18 98
ĠHel ium
Ġnod ded
C an
om ed
ĠAn ge
Ġdrink ing
ĠB R
y m
Ġact ual
Ġattempt ed
Ġpain ful
Ġl ock
Ġse as
Ġ18 85
Ġam use
Ġfear s
ĠG ord
Ġcol umn
Ġgo ats
Ġlin en
b ot
Ġafter ward
ill ing
are crow
Ġswe pt
Ġcircumst ance
ĠPhilist ines
Ġp ier
ĠK e
Ġw ars
Ġper il
Ġmad am
lot te
ĠCliff ord
Ġmon ster
Ġvis ited
Ġwar rant
Ġunc ertain
Ġer ror
ĠHar riet
Ġder ived
Ġunex pected
Ġw ave
ak istan
Ġsubm arine
ĠInde ed
Ġin con
Ġcon clusion
92 5
Ġmed ic
Ġdescri be
ill er
Ġwhere as
Ġhar p
s ch
ĠA D
91 2
04 1
Ġste am
ST A
Ġn igh
Ġdepend ent
ed ing
Ġreb ell
Ġ18 96
Ġar k
t ical
Ġw ag
ĠF ri
Ġobserv ation
ĠThÃ©nard ier
f our
Ġ18 93
ĠCar ib
ĠD ick
ĠC amb
Ġab st
Ġun m
Ġar ise
Ġrel ated
Ġreven ge
Ġprovin ces
d ig
Ġal ike
aut ilus
D S
Ġpun ishment
Ġmanif est
ĠComp arative
C R
l iness
Ġd ancing
ER S
ER V
Ġlangu ages
Ġrepe at
Ġrid ic
w ould
Ġsw ell
obs erver
Ġst am
os la
US E
che on
ĠAs s
ĠCont in
Ġglor ious
Ġass ert
ĠIr rigated
an ed
Ġch ose
12 5
Ġo l
ĠSam uel
Ġcons umption
Ġhunt ing
Ġsub sequ
Ġreve aled
ĠW TO
Ġwant ing
ĠBar on
Ġinstr uments
Ġst air
cri ption
Ġdelight ful
Ġm our
uten ant
Ġra m
ĠChar lotte
N autilus
ru ption
Ġca uses
Ġste ady
ĠEd mund
Ġl ocked
Ġh oney
Ġe th
ĠB ol
Ġch im
Ġind ig
Ġsil k
Ġblood y
De cember
Ġaston ishment
ĠAustri a
ĠT ra
7 00
Ġ ze
Ġf olly
ĠR ama
90 6
ĠAnt ar
Ġw ing
ĠFranc isc
A U
E n
g ain
ĠEust acia
l ad
Ġinv olved
ĠH om
Ġcom pelled
Ġ18 75
83 5
Ġstru cture
Ġt u
Ġsee king
ĠAf ghan
o ons
Ġb orrow
Ġn aught
Ġbo ast
Ġshort ly
ĠProtest ant
y ss
14 7
B e
Ġra w
Ġsc reen
oth y
Ġread ily
Ġdec ision
Ġres c
Ġaw a
Ġaccompl ished
2 16
Ġg if
ĠPers ian
Ġann ounced
ĠP art
Ġcontin ental
Ġbott le
Ġhes itated
Ġcoll ege
1 18
ĠN orthern
Ġcont ract
Ġmount ed
Ġenc oura
Ġst ol
Ġ18 84
Ġdef inite
Ġpot atoes
âĶĢâĶĢâĶĢâĶĢâĶĢâĶĢâĶĢâĶĢ âĶĢâĶĢâĶĢâĶĢâĶĢâĶĢâĶĢâĶĢ
0 64
Ġcl iff
w ick
Ġhundred s
ĠEth iop
m aster
Ġ19 67
Ġpat tern
Ġeffect s
ĠPar liament
Ġtemper ature
Ġur ged
3 64
Ġ18 89
Ġch in
our g
ĠM ade
ĠMat thew
% )
Ġne arest
ĠA ch
LO W
Ġperm itted
44 5
Ġs ite
Ġsha king
Ġint im
Ġhyd ro
on se
Ġnot ed
Ġsound ed
Ġelse where
ĠGord on
92 1
91 3
Ġspe ar
Ġbra nd
! âĢĻ
04 8
Ġdisp osition
Ġwood en
k ward
ri pt
ink s
r ust
ad el
ill es
Ġscar let
Ġb att
Ġl ately
ĠD omin
Ġad vert
17 5
Ġmar ble
Ġdeter min
Ġvan ished
ĠCarib bean
Ġle af
86 8
Ġrest ored
ĠJos h
Ġc ave
st uffs
ou ch
Ġno on
........................ ...
u w
am il
or able
Ġin it
ĠM other
Ġsister s
ĠFel ix
ve ll
Ġindiff erent
ĠS P
Ġan aly
ĠMar g
] [
Ġt orn
ĠIs lam
ĠComm ission
ĠSud denly
Ġrec over
Ġconf used
ĠT w
Ġwar ning
ĠAr gent
b ra
l eness
Ġst aff
um mer
Ġt id
92 6
at o
ach use
Ġbeg at
Ġem peror
Ġemploy ment
Ġbull et
achuse t
ĠE qu
Ġbl ock
ĠAt t
ug osla
Ġcol on
Ġfree ly
Ġele ment
ĠArab ia
Ġha b
19 7
ci a
Ġdem onst
Ġheat hen
m al
Ġth irst
Ġ19 06
Ġfound ation
Ġconst antly
Ġcry st
Ġthe at
ĠW oman
Ġstud ied
Ġid le
v in
16 9
Ġins ult
Ġvict im
Ġaston ished
achuset ts
Ġaw kward
Ġmist aken
Ġcont ents
ĠN EG
ĠF er
Ġcomp ar
ric ts
Ġstr ate
ĠSc arecrow
itan ia
m ir
Ġc as
ut ing
23 7
Ġrec overed
Ġpur ple
Ġfurn ished
en es
Ġd ried
an as
ĠB ox
Ġdes k
ĠA B
w l
qu et
12 3
ĠBelg ium
Ġan cest
Ġle is
Ġshould n
ug g
Ġprov ince
ĠCa pe
Ġmagnific ent
Ġsche me
Ġtou ching
ust ration
Ġ9 9
ĠSo ciety
Ġpos itive
Ġwh oso
Ġconv iction
ĠTy rone
ĠC ro
Ġcons id
l ow
Ġy er
ĠE lt
Ġ19 45
65 73
Ġdeep er
Ġmaster s
Ġneg ro
Ġwed ding
Ġ19 03
Ġjud ges
Ġt ick
ĠK ong
Ġ6 9
Ġ8 6
Ġus er
Ġover come
Ġmult ip
O H
Ġin ch
Ġse es
Ġ19 73
Ġcl imb
Ġblack s
Ġann oy
Ã ¨
Ġdisc ern
Ġgener ations
Ġabs ent
Ġd airy
ra q
ĠB O
Ġr ude
91 6
Ġopin ions
ĠQU EEN
m ail
ha s
Ġso d
Ġass umed
Ġlim it
Ġcre pt
Ġweak ness
ĠMor occ
Ġ vel
ar ling
Ġmach ines
ĠH al
ĠW ere
ĠO t
Ġloc ation
Ġprob able
ĠCom stock
Ġintellect ual
at ched
st an
R A
i em
r ude
ly m
Ġdiv ision
Ġrecogn ize
Ġb ind
12 4
Ġtra ining
m ight
re ls
ĠP re
ĠE le
Ġa pt
Ġe ating
ĠW ent
ĠMic hel
om fort
3 45
Ġg or
id dy
Ġcor rid
Ġup stairs
ens ions
ĠSa id
rop ri
Ġabs urd
ĠP akistan
Ġsu st
ĠIn land
Ġut most
ĠStand ard
Ġin ward
all s
Ġpray ers
Ġmail ing
w ater
Ġ19 49
Ġ19 72
Ġtra ce
Ġv ir
Ġcha llen
Ġcommand ment
ĠMass achusetts
Ġ19 74
Ġprom ote
Ġstand ards
ĠVirgin ia
im a
ul ates
Ġinc hes
Ġins p
! _
E conom
Ġhe d
Ġbr ut
Ġfoot st
ĠBen j
Ġhun ger
ĠLeban on
Ġc ries
Ġch ur
23 4
Ġagre ement
ĠAcc ording
P P
Ġhe els
14 5
Ġbes ee
os al
Ġob ed
L D
Ġwe ep
Ġal p
Ġsy n
Ġdisp osed
Ġcomple ted
r ad
ĠA T
ĠM ean
94 5
15 0
Ġkn ee
ĠSt rait
Ġ18 87
ĠY ugosla
17 6
Ġcar rier
Ġinc ome
br idge
Ġexceed ing
w an
ch in
Ġus ers
Ġdist ricts
ĠUn iversity
Ġunfortun ate
Ġb asket
se ct
ĠG old
Ġlight ning
Ġant icip
k a
Ġp ains
Ġy onder
ĠWork ers
Ġ19 97
Ġne at
for ce
ro g
ĠMart in
Ġwa ist
Ġconst ruct
Ġredu ced
on a
Ġsens es
Ġhack er
Ġshel ter
ĠF AL
ĠD an
ĠCol omb
ĠJosh ua
le ts
83 7
Ġeld ers
80 9
ĠFrancisc o
le ar
Ġimp ulse
Ġha unt
Ġal ter
og ue
05 5
Ġsl ip
Ġconfl ict
O K
Ġstir red
ĠM oon
ĠW H
ge ance
Ġtest imony
A meric
it ating
Ġfl ock
Ġarm ies
Ġlan tern
Ġu lt
ĠH ence
Ġ18 78
r ud
17 3
ĠT un
ĠM os
ĠH a
ĠB an
ĠP AR
Ġvill ain
Ġobv ious
R ESS
v is
ĠE L
Ġour s
Ġbless ing
0 77
B y
Ġhe ap
Ġ19 48
Ġmove ments
Ġclass es
r ade
an ing
Ġsend ing
Ġs ighed
ic able
Ġv ul
ens ity
ĠH y
Ġcoll ection
Ġenc oun
Ġmaint ained
Ġex ert
Ġcl oser
93 7
Ġide al
Ġhither to
Ġse ar
i el
ha ve
Ġmore over
Ġfl ash
Ġsc r
67 5
Ġpoint ing
ĠCar l
ĠL E
Ġprint ed
ĠSwed en
ra h
Ġ19 71
Ġ18 81
Ġatt ent
Ġann ual
ne ver
less ness
Ġcommand s
b el
91 1
Ġplate au
ĠMarg aret
Ġb ade
Ġj oint
Ġfa rew
Ġnur se
ran ean
13 5
G u
ĠB u
Ġ18 83
Ġmark s
ĠJud ge
ri ve
ge nd
ons ense
05 3
ĠL UC
ĠG ilbert
Ġfol ks
Ġfarew ell
e ven
Ġde ce
Ġapp ar
Ġinv isible
Ġdirect ions
Ġangel s
T otal
Ġpre c
Ġrul es
65 4
Ġexp ense
Ġamong st
Ġgu ests
Ġb ol
Ġsh one
ci pl
ĠA z
Ġman kind
Ġpre jud
64 3
Ġstart ing
Ġ18 88
ang s
ooper ation
Ġf ount
Ġexped ition
Ġliqu id
94 32
v ity
ĠIn ter
Ġin ternal
92 7
ĠUn cle
EL L
Ġquant ity
Ġret ired
Ġprop hes
Ġproper ly
ran ge
9 00
Ġdesper ate
Ġphr ase
Ġ19 62
Ġb ay
Ġle ather
ap h
Ġmay be
Ġturn s
Ġele g
ĠNEG L
in ia
Ġdistinct ly
ar l
ĠF ort
Ġad vers
Ġsubst ant
ro l
Ġ18 77
Ġdis g
Ġgaz ing
Ġproject ile
Ġp ages
ut er
Ġab omin
it ect
ĠK now
) /
C l
m at
Ġshe et
Ġc ir
ur day
um a
Ġest ate
ĠD avy
83 3
Ġbr id
Ġp ink
y es
92 4
Ġsupp orted
reg ular
O r
m ailing
id a
ĠE ph
ap ore
ĠY emen
64 7
Ġcapt ivity
ĠHist ory
Ġpow der
v ak
Ġme al
Ġconf ined
Ġinc red
Ġmethod s
Ġtrave ll
Ġf ame
Ġin formed
Ġat e
ĠP age
Ġvol unt
ĠI ran
Ġun like
f aced
Ġd ivers
19 4
Ġun just
Ġperform ance
ar m
ul ating
92 3
Ġposs ibility
ĠA v
ĠInd ians
Ġspec ific
Ġess ential
ĠDU KE
d own
Ġsw ung
STA FF
u ish
ĠM el
Ġatt ach
Ġs orts
Ġp ine
ig uous
Ġcl ub
93 4
ĠRepresent atives
T han
Ġo wing
Ġmed ical
Ġsens ible
Ġwand ered
itud es
Ġf asc
Ġre form
Ġbl ows
Ġtr unk
Ġcrit ic
se en
Ġ18 79
Ġdis gra
ĠF e
per cent
Ġbeg ged
Ġeas ier
Ġfle et
O V
ĠServ ice
m ale
Ġd us
Ġl ists
ĠH EN
Ġman aged
O P
Ġs ang
Ġ18 86
Ġ18 82
Ġj umped
Ġir rigated
ĠOrgan ized
ĠE D
Ġan at
Ġ19 68
Ġle nd
Ġsp ort
Ġwhat soever
Ġhat red
ĠAlger ia
ĠFAL STAFF
L ook
Ġl un
Ġre ject
ĠL ie
Ġper ple
Ġhand le
Ġgun s
Ġhoriz on
____ ____
Ġd rank
Ġnot ion
with standing
Ġpursu it
Ġfl atter
89 6
16 6
Ġem ot
ĠMir iam
ver ty
ul p
Ġever last
Ġgu est
ĠB la
Ġsw orn
ĠPol and
Ġshe pherd
Ġ19 98
ens es
Ġdist inction
Ġsix ty
an cial
all el
Ġ19 77
Ġwr iter
Ġinc or
Ġdri ving
ĠL ittle
rib ly
ĠChan cery
ĠL o
Ġ19 07
ĠS E
ĠBell eg
it z
ĠH AM
Ġrain y
Ġstret ch
le g
Ġpay ing
Ind e
Ġinterp ret
Ġdoct rine
Ġn est
ĠC abinet
Ġwe pt
ĠN ations
un ction
Ġpo verty
Ġreason able
fra e
Ġfac ult
Ġgener ous
Ġins isted
Ġt ables
Ġo h
18 7
Ġ +
Ġin form
ĠF ree
Ġ19 58
ie nd
88 7
Ġt un
ĠH aw
ĠE r
ub a
Ġremain der
Ġdwell ing
ud a
Ġexcept ion
Ġinquir y
a an
ĠT im
ĠP ont
Ġquar rel
S ee
Ġvan ity
Ġstead ily
F A
ar ia
Ġwh ip
Ġpri ze
ĠPro gress
Ġ0 8
Ġcl ergy
Ġgr in
18 5
ĠCong o
Ġpoll ution
Ġd umb
Ġorgan ization
Ġ8 47
ĠSh ould
ĠPier re
ĠBenj amin
Ġo pt
ĠE SC
ĠAssoci ation
Ġwas hed
Ġele ments
Ġwide ly
Ġfright ful
ĠJa vert
Ġj ump
Ġday light
ĠWh ose
Ġsil ently
Ġeng agement
emb ourg
Ġcons ol
Ġext rem
Ġhous ing
ĠPhil ipp
Ġresp ond
ĠWest on
v o
ĠH ester
Ġex ternal
ub b
Ġang le
Ġconce al
Ġinfer ior
Ġp ool
Ġdis gu
Ġfe ature
Ġmiss ed
ĠFar frae
Ġze al
Ġrep orted
Ġstart led
Ġrespect able
05 4
Ġdoor way
Ġric hes
Ġdise ase
Ġth res
ul ations
od es
04 9
Ġexp osed
Ġdat ab
ĠCast le
b oy
is k
Ġd ial
65 6
sh ine
Ġreach ing
S A
b ell
h ites
Ġ ----
en ous
Ġ19 46
Ġint eg
Ġfail ure
Ġrough ly
Ġcabin et
ĠSa udi
Ġdism iss
ĠG al
ear l
Ġref erence
pr ing
d es
Ġf ed
Ġcomp ared
Ġart ist
Ġhuman ity
Ġexist ed
Ġpit ch
E lect
ĠC ould
ĠHe p
Ġest e
Ġincre asing
Ġvent ure
Ġcelebr ated
Ġcow ard
Ġf ib
Ġg own
Ġv on
Ġap es
ĠTurk ish
Ġcub its
ri ved
TH E
Ġvoy age
ve t
Ġcount y
Ġmet als
Ġstud ent
hab ited
Ġw oo
Ġp ed
Ġ19 47
os ion
83 6
Ġform al
ĠGent iles
Ġs way
Ġc rop
are th
Ġperm it
Ġtor ment
ker chief
C on
Ġeager ly
i ge
ĠI raq
Ġbe ach
man anda
ĠAr m
Ġb ug
Ġlight ly
Ġexec ution
Ġs illy
ĠP le
ant a
Ġh ut
Ġhast ened
Ġschool s
f oot
vern or
head ed
ĠPR IN
Ġc ared
Ġhe ir
05 2
Ġdoubt less
Ġg la
ad o
ĠH ong
ert o
ĠPer u
Ġprev iously
b u
Ġ18 76
Ġag ony
Ġcontin ent
Ġprim ary
Ġpron ounced
ĠWent worth
i eth
ag le
ĠU nt
Ġbo ards
Ġobject ion
Ġoper ations
Ġbas is
pha nt
t w
id el
ĠL amb
Ġ19 66
Ġst or
ĠP ap
ĠS ever
ĠHe b
ĠAt hens
66 0
Ġsecond s
ĠHar ry
Ġconstitution al
i ber
Ġd ur
Ġst ated
Ġ19 64
12 7
Ġgl ow
Ġfall s
Ġrid ing
O ne
Ġfun ction
z o
ĠC he
ĠP ipelines
ĠO x
Ġbus h
Ġbed room
Ġdet ail
Ġenc ourage
ĠSat urday
89 7
Ġpres erv
Ġdef ence
Ġmut tered
Ġgloom y
ha z
ĠL uc
Ġ19 63
06 6
Ġbus hes
Ġadminist ered
Ġdisag ree
n i
st ation
Ġst om
Ġdel ic
ĠComm on
Ġsafe ly
Ġacknow led
-- âĢĿ
Ġprecise ly
j a
ĠC elia
ĠN ich
ĠV iet
ĠChrist ine
sha ll
g ia
Ġb i
st r
Ġal c
Ġcivil ization
De fense
Ġdisapp ointment
ess ion
ĠJ an
Ġtele gra
Ġhosp ital
Ġbr ide
Ġgen u
f ied
Ġb apt
93 6
Ġsm art
ĠKor ak
Ġfirm ly
c u
ac ing
Ġfin ish
adem y
clam ation
Ġw ool
ĠG host
Ġtem p
ĠMer iem
Ġtim id
Ġbesee ch
f a
go ing
ĠANT ON
Ġrec all
ze ch
Ġappre hens
Ġs ne
ĠB less
97 0
ĠAt mananda
Ġinv ol
ĠAb d
osp hat
Ġsuggest ion
Ġde emed
Ġinter vals
Ġmis chief
Ġbread th
Ġgrat itude
zib ah
15 5
Ġcorn ers
bb ing
Ġtechn ical
L ES
nd e
94 8
Ġrem ove
ob right
c omp
19 3
Ġt ons
Ġf ence
Ġto mb
Ġp ile
Ġst out
Ġ19 65
10 9
Ġdil ig
w he
our ge
ĠN em
Ġ19 08
ĠHe av
Ġmag ic
u erto
Ġe mbassy
ie u
Ġab ility
ĠCar th
ma id
Ġsuspect ed
Ġech o
ĠVict or
Ġgif ts
ĠG roup
23 5
ĠYe obright
n atural
N ET
l est
Ġch ick
Ġspe cul
25 7
Ġeverlast ing
Ġ19 61
ĠR E
ia lect
90 8
Ġrul er
Ġsup reme
quis ite
t wo
er m
Ġp ian
for th
Ġfood stuffs
Ġprot est
Ġkn ocked
Ġcoll ected
Ġexperien ced
Ġpersu aded
Ġb ark
Ġp ound
ĠG ren
Ġwor sh
Ġexam ination
Ġor n
ne x
Ġprov ides
ĠMalays ia
Ġpass es
L Y
Ġt el
Ġexer c
ĠG race
Ġcha p
Ġaddition al
Ġbenef it
k ins
Ġen qu
Ġche ap
Ġris en
Ġinv ited
Ġplat form
ard ed
Ġatt racted
Ġact ing
19 79
Ġdistur bed
Ġgrie v
i ated
ĠB alt
ord s
84 7
gl ass
Ġsanct uary
Ġbe ars
Ġgr asp
13 4
Ġrun s
Ġsun shine
r ates
Ġs ources
ed y
63 2
Ġjud icial
ĠSing apore
Ġfab ric
ĠBelleg arde
Ġsw im
Ġliter ary
Ġprefer red
ĠValent in
ĠHEN RY
Ġ200 9
Ġpray ed
Ġmotion less
e ff
ĠI T
ĠH ath
Ġpres erve
Ġden ied
H OL
Ġb ust
64 5
Ġarch itect
Ġcompass ion
Ġ19 59
77 4
ĠTo b
Ġforest ry
Ġtreat ment
le e
Ġsh r
Ġper formed
Ġmar vel
by e
Ġestablish ment
1 14
ĠSt ar
Ġconf ident
ĠAr ch
Ġnumb ered
Ġ19 20
art ment
ens us
Ġwit hal
Ġh ind
ĠA CT
Ġexp and
h ile
Ġl ic
ĠC re
ĠInd onesia
Ġshar ply
ing ham
ĠC art
Ġ19 50
ĠMar ie
Ġsub ur
ĠAl ban
Ġthrow ing
ir ds
Ġlay ing
Ġtri p
ĠJe h
Ġlink s
D ER
N ever
ĠM ess
Ġact ed
Ġprofess or
ce l
Ġpr ud
Ġdead ly
ĠPe ace
Ġdisapp ointed
le m
Ġoff ices
ĠH ind
th y
Ġback ward
Ġven geance
ay ing
ĠL ad
Ġso ber
ĠE N
ĠD utch
iv ian
Ġj est
Ġrememb rance
P AN
u pp
64 2
Ġban ks
Ġsevent y
ĠHep zibah
Ġind icated
Ġplag ue
Ġb ury
it ors
Ġm ast
Ġas h
ĠW ha
12 6
Ġcount ed
Ġprevent ed
r Ã©
Ġmanufact ure
ĠWil son
Ġanch or
Ġstom ach
c ut
Ġro ar
Ġunivers ity
ic y
Ġper sec
Ġpar liament
ois elle
ĠIS O
b es
ill s
Ġsc ore
Ġinde pendence
S E
b bed
m ar
Ġre cip
Ġab ide
ĠEx clusive
Ġcapt ive
ĠCarth oris
3 86
ĠE v
ĠR ight
Ġcent uries
Ġing en
L ET
Ġstr ing
Ġsus pended
T R
ĠC amp
ĠCh ile
Ġf ant
ir med
ur rection
88 4
Ġsword s
el ope
Ġdoc uments
Ġcurt ain
Ġus es
Ġper t
Ġw ages
Ġp hen
Ġ19 69
Ġcan st
uous ly
Ġtran qu
Ġout ward
Ġ8 43
Ġplant ation
Ġc ement
Ġfl u
Ġste al
Ġmaid en
Ġ19 99
27 2
Ġemp ire
re r
ĠM ah
ers ed
Ġkn eel
Ġbr ute
Ġslight est
ĠSpe ak
Ġunus ual
Ã ¦
Ġdis ple
Ġhold s
wh ite
Ġstren gthen
gu er
per t
Ġhar sh
Ġrec alled
Ġrespons ible
Ġbe ating
Ġ19 57
Ġman age
iv ities
ues e
Ġ2000 8
Ġcl am
Ġform ing
ĠM ake
op ing
ĠO z
Ġchim ney
p ic
ĠTh or
Ġlo ad
ene z
Ġsign al
ĠMo ab
? âĢĻ
or al
Ġun iform
ĠJust ice
Ġbree ze
Ġex quisite
Ġgenu ine
$ )
ot ing
qu es
ĠD am
Ġ19 44
Ġbo ots
Ġsubs istence
ĠLiber al
Ġindig enous
ĠH ud
Ġele v
Ġphys ician
Ġbew ild
Ġprepar ation
Ġdis k
Ġhid ing
ĠSud an
ĠOP EC
Ġrese arch
Ġhab its
y our
Ġm ate
ĠA mb
ĠB ert
ĠO cc
ĠT an
Ġre la
ĠB urg
ĠW es
Ġv ap
Ġ3 00
Ġj ack
Ġover w
Ġdes ires
77 5
99 7
Ġaccording ly
ing er
94 7
Ġstra in
Ġstro ke
pl ed
w hy
15 7
Ġrec ently
Ġcon j
ĠR OS
Ġinde f
ĠArgent ina
W ill
Ġbe ings
ĠL ab
Ġapp et
oul t
th ur
Ġinst it
co at
I ll
ĠE nd
Ġoff ence
ĠAr chie
Ġcharacter istic
Ġswift ly
Ġd ialect
ra im
Ġsla ught
Ġlim its
Ġaut omatic
y r
ĠB ishop
keep er
ĠB eth
ĠZ ones
Ġtrem bled
ĠD isputes
65 2
Ġsitu ated
E W
ĠS ab
Ġcl imate
A ST
d oll
he red
ĠM ond
ĠB illy
ag ing
Ġinter view
Ġfin ancial
Ġoccas ions
Ġnavig able
B ec
Ġas hes
Ġas sembly
Ġj oke
92 0
Ġland locked
Ġwand ering
ĠAlexand ra
Ġl oyal
97 3
ĠDor othy
Ġmin eral
ĠIC FTU
Ġresist ance
ĠJon athan
Ġhand kerchief
ĠDor ian
Ġgrate ful
uw ait
ĠP yn
24 7
ĠCha mber
Ġst uck
ĠM ist
Ġde w
Ġbeg ins
ĠUN IX
Ġmanufact ured
Ġweap on
Ġfold ed
ĠRa oul
er ies
ĠC OM
Ġ19 18
Ġsh irt
Ġpol ite
Ġspec im
Ġabsor bed
or us
Ġfind s
Ġarrange ment
Ġt ap
Ġper f
ĠV ice
bor g
Ġcompre hend
ĠE ve
ac on
ĠCon st
ĠMean while
u ated
Ġc ere
uel a
pro ved
is ha
ĠH ast
13 3
Ġbelong ing
Ġcult ure
Ġexha usted
ĠMorocc o
Bec ause
Ġ19 19
os pel
il ight
ĠD O
iz es
18 2
Ġfr own
Ġcommon ly
Ġstol en
ĠS ultan
ĠH uck
res ident
Ġv ivid
Ġab ol
oth s
25 6
Ġcle ared
Ġauthor ities
Ġstat ement
Ġin ev
Ġri val
ON E
Ġloft y
Ġ19 54
âĢĶ âĢĶ
ak ened
Ġfar ming
AT H
Ġpar allel
Ġqual ities
A E
Ġd az
Ġv ary
Ġno is
ĠAl bert
Ġchar ity
Ġlim bs
Ġegg s
G od
ĠAs ian
17 4
ĠG rant
Ġreg ister
Ġang uish
ĠInst ead
Ġorn ament
ĠB al
Ġbro ok
Ġ18 70
........................ ......
Ġcontr ad
Ġaccomp any
Ġaband oned
Ġr ot
19 5
Ġent it
ĠT al
07 5
Ġhor rid
Ġl ur
Ġ19 56
Ġro d
Ġground s
Ġloc ated
Ġo we
ĠS el
15 4
ĠSus an
Ġf og
63 6
Ġbl oom
row ave
Ġtre ad
Ġver tical
Ġobsc ure
S O
ĠM as
Ġover th
87 4
Ġref ined
Ġcor rupt
Ġorigin ally
Ġheark en
it ious
en cies
Ġre ce
Ġspe ll
25 3
Ġchair s
Ġfif th
o ge
t ies
Ġl amb
Ġk id
83 1
Ġfar mer
Ġsumm ers
Ġleis ure
ir ts
ĠS aw
15 3
Ġdec ide
Ġins ist
ĠLu x
Ġbeat en
Ġp ir
at hed
ĠB rand
d id
Ġ19 51
Ġgu ilt
ĠKing dom
Ġacqu ired
iver ing
Ġfulf illed
w ind
Ġm am
Ġwe eping
Ġ19 37
2 845
A side
Ġwe aring
Ġun ited
Ġres erved
Ġsw amp
Ġansw ering
80 8
Ġele phant
Ġaut umn
i pt
Ġ Ã
ĠR iver
Ġcha ins
18 4
Ġsk et
bl er
ĠV alley
Ġconsid ering
Ġsa bb
ab led
ek iah
Ġmer it
Ġban anas
Ġsevent h
Ġsa le
Ġ19 21
ck ed
Ġad equ
18 3
67 4
ĠMaj esty
Ġgest ure
ĠC zech
Ġ19 40
ĠR h
ĠHe ar
Ġcur sed
part out
Ġinstruct ions
ol ph
19 2
Ġwork ers
Ġcar pet
Ġ200 1
ĠE p
ĠD u
os ity
ear s
94 6
27 3
ĠTem ple
L ong
Ġs ink
Ġ19 55
Ġ19 30
Ġar rows
Ġfast ened
Ġplun ged
g a
Ġpre f
Ġevery one
Ġindividual s
Ġhal ted
A K
Ġ19 10
ink led
gg ing
asse partout
Ġe cc
Ġr ugged
ĠO ED
Ġ8 1
Ġcomm enced
Ġpot ential
ĠG en
Ġpract ically
Ġwin ters
Ġtemper ate
Ġm un
âĢĿ âĢĶ
Ġ19 53
77 7
Ġact ions
Ġlive ly
Ġfac ilities
ĠPortug uese
Ġse lect
Ġ19 12
Ġro ots
ĠBe ing
AT ION
ĠHud son
a ign
Ġkind red
ĠPr ay
Ġmot ive
ĠEthiop ia
p ointed
ĠH orn
Ġse al
Ġcut ting
Ġcrow ded
ĠLiber ation
Ġamb ition
em an
87 3
Ġjudg ments
Ġearnest ly
Ġde gr
ĠG ra
ĠN ed
Ġad ministrative
12 8
06 2
Ġdepend s
Ġassem bled
p an
Ġacc ent
Ġca ut
Ġd ent
Ġre ceiving
13 6
guer ite
Ġd un
Ġd amp
Ġmar itime
ĠAl as
Ġhapp ens
Ġrest ing
Ġmonst rous
f olk
o il
ĠD im
cc a
Ġbo ats
ĠGo vernor
ord er
Ġcand id
her s
qu ar
22 9
ĠZ ion
Ġarm our
Ġph osphat
Ġrom antic
ĠVen ice
ĠEph raim
ri ots
63 8
c r
i ations
Ġpl ed
Ġmedic ine
Ġ19 26
Ġsad ly
ani el
Ġrefer red
ĠContin ental
ĠElt on
ator ial
IP US
Ġmill ions
Ġdish on
ĠOED IPUS
ĠA lf
Ġart s
ĠAr thur
i ate
Ġdress ing
ĠEm il
Ġconce aled
Ġpred omin
Ġwithd raw
P S
Ġto ols
ĠD E
Ġbl ast
asc ar
Ġte aching
Ġcare er
Ġgovern ments
Ġt ones
ĠH im
Ġtrans m
s aid
Ġas c
01 48
Ġspeak s
Ġcol ors
in ated
ĠS urely
Ġ19 29
bl ance
25 5
vers ed
Ġmult i
Ġconvent ion
Ġfault s
ĠH IS
ĠP assepartout
ant ine
Ġ19 42
Ġ19 32
ĠAs sy
Ġbed s
Ġpoet ry
ĠT urn
Ġ19 17
Ġwa x
Ġcustom ary
Ġchur ches
i ph
Ġse lected
if orn
Ġent ry
Ġf ir
26 6
Ġhum id
Ġprofess ional
ĠKnight ley
Ġtradition al
ĠBro oke
Ġg ross
Ġmod el
Ġindiff erence
Ġwhoso ever
Ġr ud
Ġ19 09
Ġed ition
ĠSal v
c ane
r ary
act ory
Ġcre ate
Ġnet works
Ġro ses
ild ing
te xt
83 4
97 5
m other
Ġd ed
ad er
17 0
07 6
Ġbar ric
Ġappl ication
ĠDun can
ri ger
Ġwe igh
ight ed
Ġ19 11
Ġkeep s
Ġbreat hing
ĠSever al
ĠViet nam
s la
Ġmar gin
Ġhar vest
ĠRe be
Ġnecess arily
Ġcondem ned
ist ics
19 6
G ER
et e
Ġqu it
92 2
ĠSo on
Ġrub ber
Ġde ceived
ak h
Ġform id
ĠPh Åĵ
ey ed
Ġalt ered
Ġsuper st
ĠW inter
ĠJ oe
Ġany way
Ġtw ilight
Ġsince re
P e
Ġwh irl
Ġ19 35
sh ore
ĠGu y
Ġ19 33
Ġv ic
ĠMar guerite
Ġhum or
Ġtri fle
ĠCha ll
Ġer rand
Ġglim pse
Per haps
Ġdra g
Ġtrust ed
Ġcomb at
worth y
Ġcover ing
az a
Ġpurcha sing
ĠWild eve
he w
Ġshe wed
Ġcha pter
ĠV II
Ġaw hile
Ġve il
ad ian
84 4
ĠNe xt
it he
Ġf ow
out heast
Ġag ent
18 6
Ġcons umed
Ġbar bar
Ġtend erness
Ġrul ers
Ġsabb ath
Ġex ists
Ġ19 22
23 6
ĠLux embourg
ony m
ĠFin ally
Ġenterpr ise
ĠScot land
ĠB ah
Ġcle aring
Ġant iqu
Ġvehic le
w all
ĠS qu
12 2
Ġprov ision
M AR
Ġis ol
85 5
97 4
pr us
p ass
ed d
Ġ19 15
Ġ19 23
Ġ19 34
Ġle gend
Ġ19 16
Ġa ught
ĠT ai
ĠD iamond
Ġar ray
oc ol
Ġass ume
ĠSy stem
Ġbe er
ĠF a
qu est
Ġ19 28
Ġ19 39
Ġ19 38
ress es
ĠTun is
s er
Ġre vel
Ġrecord s
Ġs ke
s us
Ġh ook
Ġ19 14
Ġtreat y
G e
n at
Ġa ven
Ġhon ourable
Ġsul ph
ter y
Ġrem o
Ġunc omfort
em oiselle
Ġ19 24
Ġ19 27
Ġ19 41
A g
l ers
Ġd ense
ĠN i
ĠHe ll
93 3
85 4
Ġapp ropri
Ġreal ize
Ġcomb ined
ĠJew ish
Ġmut ual
Ġvolcan ic
Than k
ĠB ang
Ġpro long
hold er
Ġmeas ured
ĠBul gar
ĠSalv ador
, '
T A
Ġc ables
Ġ19 43
Ġill icit
ĠCan aan
Ġdisgra ce
Ġalc oh
22 2
Ġsearch ing
Ġs ou
Ġli ken
05 1
Ġset s
Ġsec ured
Ġearth qu
p ul
ĠS imon
th rop
Ġ19 25
Ġ19 31
iv en
Ġun ple
Ġpre m
Ġimp orts
Ġcur rency
Ġtri ump
Ġclot hed
Ġmess ages
Ġremark s
Ġmoon light
er re
Ġto re
ous es
Ġopp osed
Ġsatisf y
ong ol
ĠXX X
Ġm ant
Ġ19 13
ong a
Ġcan n
Ġres ent
Ġmaj esty
Ġenjoy ment
ĠPrin cess
Ġ **
Ġt ide
Ġw ounds
Ġst ag
ĠB ru
Ġtra p
Ġill ust
Ġneg ot
ĠW ater
Ġres idence
Ġsens itive
Ġwitness es
Ġpuzz led
p en
ll a
Ġst ole
ĠD is
Ġexam ine
Ġbreat he
ĠNep hites
Ġcontain er
Ġcorrid or
enez uela
Ġv est
ig ible
Ġinst ruction
Ġvisit or
ĠC amer
27 5
ĠFin land
Ġtort ure
Ġsaint s
Ġb ud
Ġcor pse
Ġarri ve
Ġnerv es
ro ve
99 6
Ġflo ating
W ith
ĠNem o
Ġthe r
Ġre ne
ĠC ost
Ġ19 36
ig ne
Ġback s
Ġref riger
Ġprim arily
ĠEll iot
Ġunim proved
Ġsc ent
Ġadm ire
Ġdet ect
Ġtrump et
ft en
16 2
Ġfool s
7 232
w a
Ġp ave
Ġag itation
Ġmed ium
Ġty p
Ġdesp ised
Ġstat utes
Ġbelong s
b ing
Ġde fore
ĠW end
Ġformid able
ĠChall enger
Ġdefore station
um ing
Ġvent ured
j an
Ġb ishop
ri k
ĠK ron
ĠSc ro
Ġguess ed
Ġvalley s
in ations
ad ise
Ġen lar
Ġpart ing
24 5
Ġco ach
s uch
Ġw ret
Ġf itted
ĠC all
97 6
ĠPyn cheon
t ar
Ġsa ck
Ġcl ay
ĠV an
Ġdes crib
Ġtra ff
Ġcol ours
Ġgard ens
Ġresp onse
Ġb ath
Ġf ires
77 3
Ġdisappe ar
ĠCount ry
Ġcrim inal
Ġs ed
ĠG ert
ĠColomb ia
v ial
Ġthere by
Ġinf ant
ole on
Ġearli est
av a
Ġsc ript
Ġrepl aced
Ġvers ion
ĠIr ish
Ġben ch
L e
Ġth ief
ĠT rans
ir a
ĠW FTU
Ġj ar
ĠTh oris
Ġdes erve
ĠAfghan istan
Ġn it
Ġir regular
Ġcompan ies
Ġgrand father
Ġsail or
Ġoverw hel
Ġdis cipl
ĠWith in
Ġindign ation
g ian
r um
ro che
Ġtra ged
Ġsol itary
ĠT R
ĠJ enn
int s
ces ter
63 0
ĠSec urity
Ġcompar ison
Ġc ure
Ġsc an
89 5
M iss
w ixt
Ġm athe
ĠW CL
Ġwhe els
un ken
Ġcha mp
24 6
Ġart ific
Ġbu ff
Ġcapt ains
Ġdream ed
Ġridic ulous
Ġencoun ter
Ġf u
ĠS id
ur t
op h
Ġab ode
Ġbl oss
ĠPer cy
Ġnig ger
Ġd rought
Ġpleas ures
Ġwarri or
m ind
Ġd ining
ĠC ed
un a
Ġfl ocks
Ġabrupt ly
Ġn onsense
oo f
and al
40 8
Ġmag ist
Ġz inc
ĠPhÅĵ be
ib ilities
ane ous
Ġfac ed
Ġimm ort
Ġdesign ed
Ġneighb ors
Ġattack ed
Ġconven ient
Ġb ars
ĠA bs
ES T
Ġstrange ly
Ġdecl ined
ĠSat an
c har
Ġinter val
ĠL orry
Ġ7 9
14 8
ĠCommun ists
Ġassoci ated
w er
ct ions
Ġlet ting
07 2
ĠAl ps
Ġpil gr
re c
p iece
Ġbe ver
ĠF au
07 4
Ġprodu cer
Ġmod est
Ġl osing
Ġpret end
Ġintellig ent
iforn ia
Q u
Ġl ou
Ġwh it
ĠN one
Ġdown stairs
Ġri fle
ret ion
iter ranean
IC E
u ation
ant e
Ġar d
so om
85 3
Ġc rou
Ġcon nex
Ġemer ged
Ġmic rowave
ĠJul ia
might y
Ġl ane
ĠT rue
ĠB g
our ing
Ġtheir s
Ġ18 60
omm od
88 3
Ġgu ards
sh op
Ġcre ation
Ġwarm th
Ġgrave ly
Ġble w
Ġdru g
Ġtum ult
ĠOp hel
ha h
Ġb rick
ĠB ird
ĠG et
Ġpo ckets
Ġtre acher
Ġsun k
Ġdeal t
Ġport rait
ĠAnt ony
ang led
Ġtransport ation
Ġcrit ical
ĠL es
Ġdisagree able
p hat
Ġw ip
ĠS im
ĠR am
Ġint imate
Ġco ax
95 7
Ġsmall est
Ġrequ ires
Ġvill ages
C ES
Ġp ist
ĠYou ng
ĠDe jah
Ġes p
Ġval iant
ĠBar soom
Ġgall ant
vak ia
14 9
Ġem pha
ĠCha d
Ġintrodu ction
ĠS ub
Ġ18 30
Ġoff ended
Ġgood ly
Ġru ined
................................ ......
Ġrout e
Ġune asy
ĠYugosla via
Ġre in
19 8
Ġsuccess ion
Ġfat ig
ĠLy nde
Ġrig id
an im
Ġfac ing
I E
Ġh ired
Ġover se
24 2
Ġobey ed
im o
iz ations
14 2
64 6
Ġoper ating
ĠHAM LET
H T
67 2
IN D
Ġtheat re
f rey
i y
iv ia
Ġun it
OR T
Ġapp ly
Ġchan cery
ĠAf DB
ĠArab ic
tered ge
Ġtrem end
ĠAP O
ĠC am
Ġcon ceived
ĠN uma
Ġv ault
Ġinc ense
Ġform ation
70 8
Ġcruel ty
c ourse
Ġb ough
Ġg oss
Ġ8 45
OU N
ĠSec ret
ĠHung ary
B S
Ġt ha
ur a
Ġdis cont
Ġwhere of
Ġaw oke
Ġdro ps
ĠChar ity
ĠSen egal
Ġinvest ment
ĠMed iterranean
Ġneighbour hood
Ġascend ed
Americ an
le v
ie ve
Ġen chant
ĠK uwait
ĠSomet hing
Ġpreced ing
Ġabund ance
Ġschol ars
ĠB art
95 5
N ote
Ġth orn
Ġdes cent
Ġbord ers
Ġsuppl ied
Ġphen omen
Ġsu cc
ie re
87 5
Ġplant ed
Ġhorn s
Ġrecomm end
Ġphot ograph
b out
ĠE ver
ure au
14 0
ĠCy prus
Ġsignific ant
Ġfount ain
ĠTh u
fort une
Ġbra ins
........................................ .
ĠScro oge
o am
Ġb its
ĠS axon
Ġcl ut
Ġwit ch
Ġentit led
Ġ8 9
97 2
o ven
Ġp y
ĠD aniel
Ġv ow
19 9
Ġpers ist
Ġless on
Ġa est
Ġde arest
ĠAl b
Ġopp ress
Ġprep aring
Ġadvant ages
ĠC le
ĠH ill
Ġcon ject
Ġel oqu
Ġthr ong
Ġpurs ue
Ġdiamond s
p oint
ĠS we
18 8
for ms
ĠSec ond
ĠH ome
Ġcha mbers
Ġst ub
14 6
Ġcor al
Ġfro st
ĠPen elope
Ġjealous y
Ġf aded
as hes
ĠU sen
Ġfl ushed
Ġtend ency
ĠD own
ĠO TH
Ġprocess ion
ĠTerrit ory
ĠOphel ia
ĠB i
ĠAs h
Ġac res
22 8
Ġwish ing
Ġindust ries
Ġenv y
ĠWhe ther
Ġfee ble
Ġm ould
Ġde af
Ġag ed
Ġcomm ittee
Ġiss ued
Ġrelie ved
w rit
ar us
ak ers
ĠNew s
O ST
Ġc ove
ĠD ur
64 0
Ġneighb ours
ĠTr in
Ġpit ched
Ġspeed ily
Ġ** *
ĠKron borg
A f
t ree
u ced
art s
ĠR oy
Ġmus cles
Ġpolit ics
Ġe c
ĠB ull
ĠE X
Q U
Ġb one
an na
ĠC ertainly
ĠE mp
Ġ18 50
ĠV enezuela
ĠAl ma
Ġbu ck
Ġmod em
ĠNap oleon
c omm
ĠT ro
Ġwas ted
if ted
ell ow
og s
Ġrem nant
Ġchan ces
Ġca ution
Ġbad ly
Ġteacher s
37 40
Ġsmo king
ĠSu pp
Ġtid ings
Ġb und
Ġf iend
Ġshall ow
Ġdef ined
ĠEnglish man
Ġeduc ated
ĠAC P
ĠIll icit
Ġincon ven
Ġo ak
ou bted
Ġlo vers
Ġself ish
Ġgar ment
ĠMo z
ĠW er
Ġcl osing
84 6
Ġtra m
Ġsymb ol
ĠGert rude
C ommun
N ay
a wn
i ast
c ore
Ġp la
ĠE va
ri ly
Ġrep orts
Ġgrace ful
e xt
ĠL os
un s
Ġexpect ing
Ġperm ission
E US
Ġgl it
Ġemb ra
Ġnav al
Ġamaz ement
Ġv ile
ĠM aced
ĠC lym
ĠSt ep
Ġtri f
le ans
ĠP opular
Ġseem ing
64 8
Ġnewsp aper
G AR
Ġfair y
ĠV ivian
Ġconf erence
ĠMad emoiselle
Ġmad ness
Ġmess enger
1 10
b by
ic ular
ĠJ erem
Ġearth ly
Ġlow est
Ġcross ing
Ġeld est
Ġmurm ur
ĠWend y
ĠUsen et
Ġtrans p
ĠEvery thing
b ol
Ġli que
we alth
Ġland ed
IT H
ĠMin chin
Ill ustration
ĠG L
Ġ18 61
Ġap ost
Ġdiv ide
Ġcompl iment
Ġgather ing
Ġlegisl ature
il iation
ĠR et
Ġfa ire
Ġbreat hed
ĠCent er
ĠH ack
ĠB E
ast y
han g
ric al
Ġchan ging
Ġwond ers
Ġattempt s
p ers
ĠS ummer
em por
Ġret ire
Ġsur vey
Ġliken ess
Ġto il
Ġp all
ost er
Ġli p
Ġcompl aint
F rench
Ġg ru
ĠH an
ĠF u
ne cess
vel in
Ġcamp aign
ĠC orn
ĠB ill
ĠF ore
Ġact ivities
ĠGeor gia
ĠWood man
Ġfan ci
Ġclim bed
Ġw ard
AC H
ĠBet teredge
u velin
Ġw reck
Ġbe ef
ĠB M
Ġfl ashed
Ġfam ine
ĠJe ff
Ġsh y
27 6
Ġsub tle
Ġinfl ation
id ad
ĠH um
Ġ18 15
au g
Ġen light
63 9
84 8
ĠAm az
Ġnar rative
Ġfert ile
Ġones elf
Ġsubur bs
Ġme nd
ĠL im
Ġir res
Ġpar ish
Ġcomplex ion
ĠI B
Ġha y
le ton
77 6
ĠCl ara
Ġpar lor
Ġmic ro
Ġrest less
ĠAp es
Ġlad der
Ġdistingu ish
erem ony
Ġmour ning
r ations
Ġm ap
Ġse aled
ft s
Ġmar ched
ĠWe ather
Ġsecret s
Ġsail ors
Ġmoder ate
in th
ist ered
er als
Ġb atter
if ully
ĠG ill
Ġsl ope
Ġinde pend
EC T
Ġmeant ime
Ġagre ements
Ġenthus ias
Ġ18 48
Ġra v
86 6
Ġdef ect
ĠAg ency
Ġpress ing
OM E
ĠColl ege
re th
ĠH as
Ġsh udd
Ġdecl ine
as ure
al ia
Ġst ab
14 3
Ġinst itution
Ġfanci ed
en ch
ĠN eb
ric ks
erv ative
Ġsle nder
Ġdesp ite
Ġstat us
Ġp ush
Ġd yn
Ġbe f
ĠC irc
Ġ18 67
ĠAb yss
Ġdisg ust
I F
ĠL ist
Ġun con
ste in
Ġf ired
ur ious
Ġknow est
Ġimp ressed
Ġdec or
Ġearn ings
Ġthreat ened
ĠIslam ic
P resident
Ġg ames
et t
Ġsu itable
Ġpro dig
Ġcha se
Ġsurr ounding
Ġcondem n
j ib
ad os
ĠW all
Ġle ap
Ġbr ows
r ating
Ġs or
Ġoff end
Ġbitter ness
3 57
ĠS IR
ass es
06 0
Ġir re
Ġran ks
Ġfootst eps
at em
and y
ap ers
Ġres erve
Ġapp oint
Ġdispl ay
Ġemot ions
Ġc eremony
ĠP uerto
ĠO N
ĠU g
16 8
ĠAll iance
Ġoil s
Ġdent ist
ĠV III
Ġchild hood
Ġbas ic
Ġpersu ade
or ic
Ġliber al
Ġfier y
Ġbetray ed
ar ly
Ġl ub
ĠT est
13 8
ĠBl an
Ġplan ned
Ġadop t
88 5
Ġwar ned
Ġexc han
Ġexpect ation
ĠOr leans
Ġremind ed
ĠJenn ings
Ġth ri
ĠC AR
ĠL ine
Ġcl erk
93 8
15 6
Ġdirect ory
Ġg ri
Ġ18 40
Ġforest s
Ġsin ned
ĠIsland er
Ġprim itive
Ye a
o ard
Ġg ospel
ra ck
ĠF OR
05 8
Ġtrave lling
Ġslaught er
P ar
ĠV ol
Ġdoubt ful
Ġconsequ ences
Ġgor ge
c ified
Ġt ents
ĠA ff
Ġde em
us hes
Ġfollow ers
35 53
Ġfavour ite
Ġrele ase
Ġhistor ical
ĠM od
Ġ18 64
ag ascar
Ġsm ite
ĠCha uvelin
d in
t able
Ġbr ings
23 0
Ġmet ers
Ġsens ation
Ġbitter ly
ĠRem ember
ĠCed ric
ĠT ars
ĠC uba
oo p
ud ed
Ġdev ice
am be
ĠU k
Ġfl ut
Ġacc um
Ġneg lect
Ġmass es
ĠWood house
Ġhas n
Ġnat ives
Ġcr um
Ġheaven ly
Ġstop ping
Ġproceed ing
Ġglass es
Not hing
Ġsong s
en g
ag ua
93 2
te enth
Ġcoc oa
Ġhed ge
ĠBless ed
Ġadequ ate
in er
ĠN ight
ĠU r
Ġrep ose
ĠCol in
ĠB ou
ĠD ar
Ġcur iously
ĠCl ub
Ġfert il
Ġprivile ge
et a
Ġ18 66
Ġad apt
ĠTh ink
Ġri bb
Ġnew ly
Ġfeel s
Ġlead s
ĠM AC
Ġv ital
Ġadm ired
Ġconc ert
ĠTai wan
S ir
ĠG av
Ġv irgin
Ġli kes
Ġ. "
Ġcont ented
Ġco arse
Ġinc omp
ĠCH R
Ġtent h
Ġpian o
m ade
Ġspo iled
amb ique
Ġstay ing
Ġdeterm ine
Ġmir ror
Ġcurt ains
Ġimprove ment
Ġvul gar
a us
Ġacc used
Ġperfect ion
Ġi i
ĠCal ifornia
cu ador
O B
an es
ĠB ER
Ġar row
17 8
Ġcra w
Ġorgan ized
Ġwithd rew
Ġunple asant
Ġenthusias m
p ast
ĠA ld
Ġimp rison
ob oam
ĠEd na
ĠJerem iah
C omp
h ist
ra c
ĠL iddy
ĠG i
Ġdr unken
Ġsumm it
Ġtechn ology
Ġalp hab
Ġ18 62
Ġam used
Ġsc rew
ĠIs ab
86 2
Ġre ver
ist le
06 8
ĠAgain st
ĠConf ederation
u ity
ĠT empl
ab we
os oto
Ġter rif
Ġlow ered
imb abwe
ĠBla ke
D ear
in n
om ing
Ġ18 63
Ġav o
Ġdam n
Ġdam age
Ġappar atus
0 63
Ġtrem ble
Ġcomparative ly
Ġsear ched
R e
Ġm aketh
be cause
Ġprov isions
Ġclo ak
Ġtempor ary
Ġstrate gic
Ġa fore
Ġg y
Ġgr ows
Ġmar vell
EL LO
******** ********
Ġprosper ity
Ġre vere
ĠP ark
ĠM ur
ul ars
Ġsh ine
ĠAr men
Ġfun eral
bour ne
Ġw ont
er o
Ġd irty
Ġin k
Ġpeace ful
Ġstri fe
26 89
R OM
ĠA E
ri pp
est one
Ġobserv ing
ĠPhilipp ines
Ġr ings
Ġ18 32
Ġpre ach
P ol
han a
Ġapp la
ict ions
Ġimport ed
i ently
ar c
Ġman agement
Ġgo eth
Ġpart ial
Ġcons isted
Ġmis fortune
Ġtreas ures
Ġpill ars
aux ite
Ġrefriger ated
: --
Ġsu bl
ĠG r
ust ice
cha ir
Ġsix teen
Ġadvent ures
Ġx x
Ġd re
ĠR ob
19 0
ond ur
Ġen gra
Ġown ers
60 8
Ġpat ron
Ġspect acle
S h
f old
is er
Ġc ed
se a
ĠS av
ul ed
ĠL ess
ĠD ie
omet er
Ġins ol
com ing
Ġconduct ed
Ġp ark
87 6
cri be
ici ency
ĠNiger ia
Ġthres hold
ĠRebe cca
G E
Ġcomp osition
Ġland ing
Ġty ran
Ġinqu ire
ĠFranc is
Ġt resp
Ġsa iled
nt y
Ġ18 74
Ġprop ose
gu ay
â Ī
Ġamuse ment
âĪ Ĵ
S S
Ġc ock
Ġshe ets
Ġvol umes
% ),
L eg
Ġbe fall
Ġg ran
st ri
ĠG ur
ĠN Z
ĠR ab
Ġcar bon
Ġsub du
ĠZ e
Ġelect rified
Ġdang ers
Ġrare ly
Ġaffl iction
Ġuncomfort able
od ox
Ġdischar ge
ĠCamer oon
ĠN a
ell y
ck y
Ġqu ad
Ġalar med
C o
Ġm oss
Ġre ct
.... ...
P r
v ag
ĠSt an
Ġstud ies
AS E
Ġshout ing
Ġpor ch
ĠWer per
o king
ĠC og
ĠD ear
op ed
cl oth
Ġmay est
Ġsc atter
Ġel bow
Ġeight een
Ġexplo itation
f ig
Ġwra pped
Ġlam ps
i ents
T er
Ġf est
Ġg n
94 0
Ġland l
Ġtr im
26 2
ĠDe far
Ġpriv ately
Ġce iling
Ġrele ased
Ġwrit ers
Ġarrest ed
z es
Ġt ales
ur red
Ġne p
ric ken
ourge ois
Ġdo om
Ġpass ions
Ġrel uct
Ġt une
ru guay
ĠTh ur
Ġbar ley
ĠDep artment
Ġglo be
ĠF rid
ick s
Ġsepar ation
ut her
13 0
82 8
Ġobserv ations
jib out
d am
Ġnot withstanding
Ġpres ents
24 3
Ġprodu ces
Ġless ons
Ġbar gain
ĠRoman ia
ĠWes ley
Ġde y
Ġ18 68
Ġra ces
99 5
Ġgra vity
Ġprop riet
Ġeng age
Ġsad dle
Ġtong ues
ĠThomas in
Ġcalm ly
Ġrom ance
Ġcultiv ated
ĠR ay
---------------- ----
Ġcha st
ĠV AL
67 8
Ġbel t
Ġhigh way
Ġfun ny
cher s
ĠMed ian
Ġvague ly
Ġestim ated
ĠBert ram
ce land
Ġso ci
Ġmo ist
Ġb auxite
ĠM ust
ous ing
ĠHe z
Ġrep air
ĠChristian ity
Ġdefe at
ĠHom osoto
LOW N
Ġtraff ic
Ġf uel
Ġ18 55
Ġpath s
AG E
Ġcrim son
Ġprepar ations
Ġsubstant ial
Ġm ent
op es
Ġregard ing
Ġmiss ing
Ġachie ve
ha st
ĠâĢľ âĢĻ
Ġ18 21
Ġ18 52
omet hing
ĠPh ill
ĠBet ween
Ġdetermin ation
g om
Ġp ha
Ġg ir
al ted
ĠP o
Ġfur ious
Ġdiscuss ed
Ġdistrib ution
at isf
ĠP S
Ġtot ally
Ġexist ing
" ,
Ġg re
ĠT u
ĠC int
Ġen abled
Ġdes erv
Ġcoll ar
Ġrecogn ition
ĠPan ama
Ġtemp est
Pe ople
y ear
en et
Ġf ain
od ing
Ġ18 65
94 2
12 9
ere rs
Ġrep rodu
Ġreve rence
ĠTha iland
ar ation
Ġex ecutive
Ġpurcha se
ĠInt o
Ġperpet ual
Ġlie utenant
ĠAnge les
ĠTob ago
Ġpave ment
c ould
Ġb ru
ĠP oint
ac o
Ġ18 35
Ġel abor
Ġill ness
Ġmag az
ĠVin cent
Ġvehic les
Ġ---- -
Ġass urance
Ġf oe
Ġl ots
ĠC LOWN
Ġ18 72
Ġknow eth
Ġwhere with
ĠGod frey
br other
ĠRepublic an
OU R
Ġfro zen
pir ation
Ġneighbor hood
ĠDick on
Ġn iece
ĠC ham
24 8
Ġret ained
96 2
Ġconf irm
ĠBr other
Ġinj ustice
bre ak
ĠR ad
Ġ5 00
Ġfort night
Ġmass ive
p ress
Ġf isher
st aff
Ġcon ceive
ĠLe ague
ĠTer ry
Ġ-- -
ĠDep uty
Ġappet ite
Ġbarric ade
Ġmother s
Ġconven ience
Ġfortun es
ĠC OR
Ġbut t
ars on
ĠWha le
Ġ iod
85 0
27 0
96 6
Ġemploy s
ĠDefar ge
" .
ĠP ur
ĠG rey
Ġneg ative
Ġlands cape
Ġjew els
Ġasc ertain
T P
Ġse ize
84 2
ĠAd d
Ġattach ment
er ity
am ily
Ġ18 71
02 55
Ġhear th
........................................ ..
Ġcre eping
ok off
Ġox en
Ġamaz ed
Ġresc ue
Ġlique fied
ĠCint rÃ©
a pe
se il
ĠB ible
Ġgr asped
cl ude
Ġapp le
ĠMad agascar
Ġminister s
Ġrevol ver
o at
Ġdis d
85 6
Ġsol itude
Ġmouth s
AC E
Ġsubsequ ent
Ġc ake
Ġ18 57
ass o
Ġgl ac
Ġsun light
Ġcor ps
Ġru ins
Ġbas in
Ġrelative ly
J ust
L ean
Ġb ourgeois
Ġp oult
ĠCon seil
Ġemb race
Ġtoss ed
ĠH ER
86 0
Ġw its
Ġb icameral
ĠA ub
Ġwh ites
ge red
Ġcl ung
Ġinst ances
Ġpur se
Ġbeha lf
Ġmir acle
ĠT in
Ġun necess
Ġpo le
Ġacc ommod
Ġapp ointment
Ġrest ore
Ġcare less
Ġsacrif ices
Ġ1 19
Ġv ia
Ġback ground
Ġinc ons
Ġexper iments
ĠPRIN CE
Ġ18 69
Ġbr ush
77 0
97 37
ier ra
Ġcre ep
Ġmanufact ures
Ġfortun ate
Ġmulti pl
Ġex h
77 2
Ġjust ified
Ġobed ience
Ġavo ided
on ian
ĠS ERV
ĠP ut
ĠF ij
vent ion
Ġextra vag
Ġhom es
ĠAlf red
ĠC E
Ġcal am
Ġinj ury
Ġsugar cane
ĠMil itary
Ġgle am
w ar
Ġw ander
ĠH ig
Ġbl owing
Ġfour teen
Ġmurd ered
Ġve x
kes pe
ĠOff ice
b ro
ĠR oom
ud ge
Ġsc enes
Ġop ium
95 3
ĠZ aire
................................ ..
quar ters
Ġm ol
ĠD ash
Ġj e
13 9
ĠNegro es
Ġa we
Ġple ad
Ġsix th
Ġregular ly
Ġknight s
Ġacknow ledge
Ġinstit utions
_ .âĢĿ
r ot
ar ms
Ġn avy
ter rit
Ġcon verted
ĠR okoff
Ġ18 34
Ġcl asped
Ġfl ames
og o
........................ .
Ġrespect s
................................ .....
Ġant agon
Ġproceed ings
Ġstair case
ĠL est
are rs
Ġgra ph
Ġbar ren
Ġfra ud
Ġhunt ed
ĠT it
ĠB ed
Ġres olve
88 2
Ġbest owed
ĠMist ress
L AND
O ver
e very
ĠH or
mb re
Ġtra ces
Ġcitiz en
ĠMond ay
Ġconnex ion
ĠB ad
Ġr ans
05 9
Ġret ain
Ġglad ly
Ġsevere ly
Ġproc laimed
ĠMoz ambique
ĠT ip
Ġsun set
Ġver se
, )
r d
r ice
Ġl ions
ic ians
Ġst im
Ġr oused
ie ves
Ġoff shore
Ġtra ct
40 9
Ġhum our
Ġdev ils
Ġty pes
Ġwha les
asse h
ĠJo ab
Ġsimpl icity
c alled
Ġd ict
om er
ra wn
Ġme ek
Ġ18 36
Ġdem ocracy
Ġpun ish
ĠMc Lean
Ġjew el
ĠB ot
Ġtra ined
Ġinvestig ation
Ġextrem ity
is law
ĠI rene
est ine
Ġint ently
Ġam mon
Ġbet wixt
Ġadv oc
Ġcourt es
ĠMart ian
ĠPC A
Ġiv ory
ĠEL IZ
Ġf ug
ĠD anish
Ġsha ken
Ġ18 73
Ġgreat ness
27 8
ĠAl i
ĠAmeric ans
ĠDem ocracy
ĠAL L
b id
y an
Ġc ards
ĠG ray
82 9
f ire
Ġwas t
ĠW el
Ġ18 47
15 9
Ġcr is
ek a
Ġpartic ip
ĠMan asseh
ĠTr ust
Ġconsequ ently
ĠD iv
53 5
ĠKen ya
Ġhaz ards
Ġencoura ged
Ġb ows
ĠE cuador
Ġ18 54
Ġen able
iss au
zan ia
ĠB on
ĠL ank
ĠG ard
Ġso ot
Ġso fa
Ġ18 31
ĠAl mighty
uff led
ĠRevolution ary
Ġdesir able
Ġlub ric
Ġtrans gress
; âĢĿ
M an
k now
ĠM EN
ount ered
Ġp opul
Ġwh ore
ra g
Ġsa ving
24 0
Ġhar ness
Ġnor mal
Ġser pent
Ġfront ier
Ġver ily
ĠTrin idad
Ġd aring
ĠM ans
ĠN am
Ġex alted
Ġvisit ors
ĠFrid ay
v ant
Ġimp art
Ġwalk s
Ġwitness ed
v y
Ġk ins
op her
Ġ18 53
Ġ18 06
ĠZ imbabwe
Ġprop osal
Ġpen ny
ro b
th ree
th odox
ag ues
Ġpaint ing
Ġconqu er
Ġbend ing
Ġrecoll ect
clud es
iver se
ĠPoly nes
atem ala
Ġ18 42
Ġ18 51
iz z
Ġsc andal
Ġgra pes
Ġneg l
AB ETH
AG O
ĠVer inder
doll ars
Ġfu els
n ect
ĠN umber
ĠD ist
Ġsh ri
Ġsha red
Ġint end
Ġcl ad
83 9
Ġca res
Ġdeal ing
ĠT re
Ġatt ain
sw ana
ll es
ĠC ad
Ġ18 33
Ġres ign
03 24
67 9
ĠCons ulates
Ġhol es
ĠWal ter
Ġgig antic
CES TER
ĠELIZ ABETH
m arch
Ġf oc
ĠH art
Ġbut ton
Ġcertain ty
Ġrepresent atives
Ġdoubt s
Ġaccompl ish
Ġnep hew
15 2
Ġaw akened
Ġenc ountered
Ġcustom s
1 17
A y
g ood
o z
ic ating
le vent
Ġ18 45
Ġgive th
06 9
Ġreck oned
++++++++++++++++ ++++++++++++++++
Ġmerc iful
MAR SAT
Ġrene wed
s ix
at ar
Ġin habited
Ġwe lf
oc he
Ġhere after
Ġarrange ments
agu erre
Ġeste em
ĠM ongol
Ġr ows
44 6
Ġext end
Ġdef in
Ġopp ressed
uc lear
ĠArab ella
Ġtempt ed
Ġdispl ayed
lad esh
g ence
t han
w in
Ġv iz
Ġad ul
Ġste amer
Ġpassion ate
ĠBR UT
ĠGav roche
ĠB re
ber ry
ĠNo body
Ġquestion ed
Ġbare ly
Ġwelf are
C ur
Ġc ens
ĠI v
ĠM ESS
Ġun will
urn ed
ĠRo ad
T ell
Ġab hor
Ġno bles
Ġ18 44
ile ad
91 14
ER N
ĠSp ace
Ġconsist ing
En vironment
y ll
Ġ18 43
84 0
Ġap olog
be it
Ġass ault
ĠNor man
Ġdistrib uted
Ġbrut al
S erve
ri ages
ĠP orter
Ġar ist
Ġacc us
23 9
Ġmar rying
Ġaddress ing
Ġrecoll ection
ĠMoon stone
Ġclergy man
ĠESC AP
J ane
Ġn ay
ĠT ow
Ġst able
Ġpl ural
Ġreg iment
Ġharm ony
Ġdam sel
Ġunp aved
Ġimpat ience
Ġc ooperation
OR K
the l
53 3
Ġevent ually
ĠLib ya
a ired
ĠH ondur
Ġr hy
50 9
ĠAc ademy
Ġdus k
Ġgoss ip
Ġec st
ĠS U
ri ety
ĠO per
ough by
Ġinv itation
che levent
Ġvol s
ĠRic o
Ġun in
Ġbl ush
Ġsc ant
Ġwhere ver
Ġmo b
Ġinnoc ence
Ġchallen ge
1 20
Ġf id
Ġdis like
47 49
Ġnews g
ĠFl at
in ence
le ine
Ġst re
ĠG arth
Ġle ague
Ġ18 14
Ġsp y
Ġdis cl
Ġ6 00
24 9
Ġcoc on
Ġm um
Ġf el
Ġf ret
ĠM u
ens ed
Ġstill ness
Ġconfess ed
Ġaest hetic
i ac
m ach
95 0
Ġdisc ourse
sy ch
s al
43 4
Ġdro pping
bre vi
ie ge
Ġcomp are
ick ing
use um
ĠMaur it
oubted ly
ĠCan adian
ĠFred erick
kespe are
d oor
s erv
om ination
Ġ18 46
Ġkill ing
cet ta
ĠHu gh
Ġtremend ous
ĠBRUT US
ou cester
Ġf ist
Ġ18 00
Ġam bit
02 76
03 64
Ġcha riots
ĠAg nes
Ġappro ved
Ġlim b
aster bridge
Ġsk ull
Ġann ounce
Ġwret ch
Ġpro st
Ġ18 59
oc ity
ĠAr d
Ġma xim
ĠAd mir
ĠIN MARSAT
Ġcapt ured
ĠS Y
ĠL ot
Ġpr ow
ĠK ar
95 4
Ġimpat ient
Ġmarvell ous
1 12
ot hes
ĠC ale
ab ul
Ġconf irmed
ĠPer ry
ĠTr ade
IM ON
Ġt ie
ĠS apt
Ġar oused
ĠK ent
05 63
26 8
Ġtri angle
Ġcapt ure
ĠFl ore
Ġlif ting
Ġexec uted
Ġpan el
Ġmerchant s
ĠSqu are
Ġsu ck
Ġr ay
ĠG all
ib ia
Ġsw ore
53 6
Ġdec ent
Ġthir teen
Ġmus ical
Ġrejo ined
Ġinquir ies
Ġjaw s
ĠDash wood
92 43
ific ations
Ġfurn ish
ĠAntar ctic
ĠIB M
jibout i
Ġw aving
Ġw omb
Ġm as
ĠM IST
Ġhelp ing
ĠWill oughby
Ġdepart ments
ĠLu cetta
Ġdam ned
Ġrede em
i ary
Ġbl ade
99 8
95 6
44 7
ĠSam oa
Ġdaz z
Ġpoult ry
Ġ18 41
gr at
ĠLangu age
Ġpup il
Ġw uz
Ġy oke
Ġal umin
Ġ18 28
ON T
Ġplay s
Ġauth ors
ĠLad islaw
ĠFau chelevent
Ġalphab et
a ver
Ġoff ers
Ġest imate
Ġsur re
Ġpost s
Ġanx iously
icar agua
a way
ĠI celand
here nt
Ġmet ric
Ġpleas ing
ĠJapan ese
Ġvirt uous
d ep
h ouses
Ġd ug
Ġd anced
ĠC M
Ġse qu
Ġr att
Ġ18 38
92 8
ĠSt ra
EN D
Ġstream s
Ġbell y
IG HT
Ġball oon
Ġlod ging
ĠFR G
Ġaband on
Ġfeather s
Ġartific ial
mind ed
re qu
13 25
Ġmean while
uck y
Ġvirt ues
Ġstrugg ling
g one
u Serve
19 44
Ġcan v
A mbassador
c abinet
Ġg ut
ay a
Ġcon sec
19 80
94 9
ane ously
ĠComp uter
Ġhes itation
Ġham mer
0 65
Ġp ad
Ġen er
ount ed
Ġra pt
Ġdes erved
95 2
aw i
Ġele vation
ĠGl oucester
ale y
Ġmot or
T y
Ġg ang
Ġ18 25
Ġ18 58
ĠU ruguay
44 8
cept ible
Ġdisc retion
Ġdou bted
Ġexam ples
Ġjour nal
Ġprev ailed
Ġglo ves
ĠMade leine
Ġtresp ass
Ġs ites
ar med
Ġ18 49
ber y
Ġen vironment
Ġres olute
ere th
ET R
Ġeleg ant
Ġover look
Ġcons pic
Ġimper fect
> >
g ins
m ont
Ġha lt
ri ers
Ġ18 12
Ġqu oth
23 14
Ġdest ined
Ġforb ear
Ġtal ents
Ġvine yard
edd ak
Ġtraged y
ĠAub rey
1 65
k ina
on ic
ĠJ ama
ag ers
95 04
Ġsy m
Ġrepresent ative
Ġprev ail
ĠM ethod
ĠH ait
ĠP ER
25 14
Ġstrugg led
Ġcheck ed
ut us
ul pt
Ġ18 39
18 9
Ġprodu cing
Ġsub t
Ġdesp ise
ĠIsab ella
ĠC A
ĠP lace
Ġr ushing
ĠE xt
Ġ18 56
10 77
000 8
ĠLu cy
Ġswall owed
EN GER
Ġvis its
th ou
Ġse pul
Ġ18 20
ap ital
Ġbl iss
Ġunder ground
Ġnic kel
M er
Ġ18 10
ĠCh in
gan ized
Ġcre st
Ġsatisf actory
Ġbelief s
N ew
m ay
Ġd ies
Ġad ult
Ġknow ed
ĠComp uServe
Ġmonarch y
g iving
Ġl unch
Ġst ove
Ġst amp
ĠM et
Ġwill ingly
Ġ18 37
Ġad orn
87 8
Ġoccur s
f ax
im p
ĠL ater
ĠF ear
94 1
Ġfar ms
Ġconf ounded
Ġcoff in
Ġacknowled ged
77 57
Ġadv ancing
ĠA men
ĠT il
ĠW omen
Ġwhere by
Ġind isp
Ġatt ained
Ġmon key
Ġwond rous
velop ed
chan ce
Ġassoci ation
ĠVin cy
ĠOx ford
j o
ĠW ind
Ġun acc
Ġadd ing
Ġfaint ly
Ġinvent ed
Ġtal ent
Ġinev itable
Ġsulph ur
ĠC asterbridge
Ġab oard
85 2
16 04
Ġpen cil
Ġyield ed
M rs
Ġde er
ort ions
01 26
Ġve ins
Ġspecial ized
Ġ293 3
Ġdepos its
Ġcris is
Ġlubric ants
E V
u v
w ide
Ġr asc
Ġbr isk
14 1
Ġsur m
Ġless er
ats on
Ġunc omm
Ġsubm it
Ġredu ce
Ġbond age
Ġdiscipl ine
Ġc u
Ġ18 17
Ġlong ing
Ġpol ished
Ġrul ed
Ġfacult y
ĠI AGO
Ġme lt
Ġ18 27
Ġbeg gar
Ġtra itor
30 95
Ġspeak er
Ġfin est
Ġdece it
ĠTunis ia
t was
Ġc ows
ĠM uch
per haps
int end
43 3
Ġinter course
Ġste alth
Ġwa ved
Ġord in
Ġneg lected
ĠE M
I mp
e er
w et
Ġlong ed
Ġconsider ably
Ġax e
Ġconstruct ed
r ity
Ġp atch
ĠN OT
ĠO AS
Ġag itated
Ġprom inent
Ġdiss olved
Ġafford ed
ĠM is
ĠProv idence
a iah
ĠP L
Ġpro hib
Ġ18 03
Ġpe op
94 4
77 00
99 92
Ġansw ers
66 14
Ġdr um
Ġer rors
adel ph
Ġto ken
ent ially
Ġgra ins
Ġexper t
Ġmot ives
ĠMor oni
Ġhealth y
Co ast
7 50
U r
ĠE sk
um ps
op er
vent h
Ġsent iments
ĠGu atemala
ĠBulgar ia
ĠMIST RESS
1 01
en ched
Ġto oth
Ġp uff
ĠA way
se x
Ġst ain
Ġex agger
Ġprom ises
AD B
Ġport ions
Ġbatt les
ĠFer r
ĠC ard
ĠF ig
Ġus age
Ġla ce
84 9
Ġneed le
Ġmod ified
Ġcra zy
ĠBo ard
Ġd irt
ir i
ĠC ASS
th ird
Ġli able
Ġdec ree
Ġcor por
Ġw rest
om uch
ĠT own
Ġwas hing
ĠL ow
15 86
ĠComm ittee
Ġbond s
Ġaffect ions
Ġmun icip
Ġsubdu ed
Ġb other
-- "
Ġun l
ĠIn formation
18 22
47 5
ĠCon c
Ġoccup y
Ġunf old
Ġperple x
ĠDo es
ĠSha kespeare
Ġgall ery
ĠTan zania
T ake
u h
he ard
Ġd ashed
ĠI OM
Ġ18 23
Ġ18 07
Ġrem edy
23 94
Ġcontin ual
Ġhence forth
ĠBa al
Ġbon net
Ġindef inite
ĠWinter bourne
Ġdown ward
Ġvac ancy
ĠH old
85 65
82 64
Ġdev otion
b al
Ġs am
Ġo m
Ġ18 19
94 24
13 35
Ġter rified
45 7
ograph ic
ĠEgypt ian
ĠSam aria
ĠMart ha
Ar not
ĠROS AL
ĠCog gan
ĠB apt
rou ps
Ġind uced
Ġput s
Ġdest iny
Ġdesert ification
ĠOTH ELLO
gom ery
Ġunnecess ary
N or
ra ine
ĠP rop
Ġwor ry
Ġam iable
ia w
22 84
Ġincl ination
Ġamid st
Ġinterpret ation
j ol
ĠI X
Ġbe ans
Ġ18 29
Ġun employment
01 61
91 44
Ġtrans g
Ġreason ing
ĠJe ho
Ġflo ated
Ġinvent ion
Ġspr ung
Ġdatab ase
Ġsepul ch
ĠM em
ĠJ ourn
Ġcan oe
Ġnow here
Ġsw inging
Ġdep uty
Ġcop ies
0 88
f ashion
ĠP earl
ĠD aw
Ġal ien
Ġexp ans
ĠAustral ian
Ġft p
ĠBol ivia
Ġc oo
Ġf oes
Ġp ulp
Ġn our
Ġman ager
92 95
ĠIs h
16 25
Ġswe ep
ĠEgypt ians
Ġstrict ly
M anch
Ġha il
ĠS et
un ion
Ġsp in
ĠU rs
Ġrem orse
Ġmark ets
Ġarg uments
oty pe
Manch u
A IL
Ġs inking
ia ge
Ġcourtes y
C P
d is
Ġb udget
Ġin land
Ġhe ath
Ġ18 22
Ġ18 09
Ġch ronic
63 1
ĠWh om
53 4
Ġmin erals
not hing
Ġaffl icted
Ġe agle
im ore
Ġr ash
ress ing
ĠDe v
Ġbo ot
66 6
Ġhope less
Ġprot ected
Ġty rant
Go vernment
ĠW E
83 0
26 0
EN S
Ġem ail
iaw atha
it ations
Ġd iam
ul es
ĠP A
ab e
19 13
Ġ18 01
53 7
Ġ17 80
Ġemb ro
ĠNich oll
Ġfertil iz
Ġm ask
Ġf aster
Ġha ught
le x
âĢĿ ;
Ġpro sec
13 00
83 8
Ġcontin ues
Ġcontro lled
ĠWar wick
ĠSil ver
Ġnewsp apers
e ches
ut ral
ĠG ib
ĠE du
ĠJ OH
Ġinsp ired
L ife
d em
g al
g ment
o ft
at u
ĠA id
93 57
77 17
Ġsl umber
83 94
Ġconf er
law s
Ġcompre hens
Ġfrag ments
Ġchlor ide
ĠPap ua
Ġbever ages
U E
Ġp p
ith uan
00 82
Ġcon ception
un ci
Ġthan ked
oth o
Ġdev our
Ġdri ver
ĠGree ks
Ġhop ing
Ġmurd erer
D C
Ġd ates
the m
Ġrecord ed
or ney
Ġp orter
ol as
Ġ18 24
Ġsm iles
24 26
87 55
Ġlast ed
16 0
Ġkind led
Ġbra ke
Ġstud ying
Th ou
ĠAng ola
Ġcig ar
ĠHal f
ĠHeb rew
ĠLank a
S e
Ġre action
77 8
arch y
61 65
Ġstat ute
Ġluck y
Ġdefe ated
h ind
Ġun iverse
Ġro aring
Ġind icate
Ġpass ages
ĠBe cky
Ġdet ached
Ġp ushing
Ġn ort
Ġan alog
th ink
ĠF L
ĠR ock
Ġch ill
cl ed
94 27
int erest
89 8
43 53
Ġneed n
Ġbar n
uc id
Ġlim estone
Ġcompl ain
ĠAssy ria
Ġtriump hant
ĠArd an
Ġpl ot
Ġpass engers
27 01
Ġdr owned
Ġpun ished
Ġher d
15 26
Ġ17 92
Ġchar ges
ĠBang ladesh
A ir
ĠC lement
ĠH ot
ĠU AE
72 24
ĠPhil adelph
ĠComp any
Ġviol ently
Ġpill ow
e ast
g irl
De ath
Ġfill ing
Ġep och
Ġglit tering
Ġb ald
10 39
93 43
15 8
Ġjust ify
C ommunications
Ġa u
Ġd arling
Ġn ought
ĠI DB
Ġde ceive
ĠP op
ĠF ix
Ġsc ulpt
85 07
Ġrec omp
Ġsun ny
Ġstat ue
Ġtempt ation
Ġmechan ical
Ġtransfer red
g reen
l ay
ĠW atson
Ġ18 16
82 25
ĠLe ft
Ġill umin
ĠMont gomery
Ġsuppl ies
Ġtransl ated
bur gh
ĠMESS ENGER
Ġd uck
ri end
93 9
Ġmon ument
min ster
Ġdig ital
Ġapprehens ion
P A
Ġt ed
Ġwh oles
Ġan ointed
ĠB Y
Ġv ener
Ġ18 08
Ġbl asp
Ġcar pent
Ġ17 96
Ġma ids
Ġswe at
Ġstri p
ĠCar ter
zz ar
ĠMart ians
Ġprompt ly
ĠPle ase
_ âĢĶ
g od
ĠD a
.) .
angu age
Ġsett lement
Ġbold ly
ĠThu via
ĠH iawatha
ĠN ile
ĠF ollow
01 06
22 1
34 27
m outh
Ġb ite
ĠT z
ĠC uff
ĠP il
ĠP har
Ġor ange
Ġ18 11
ci an
ci ences
Ġapp are
Ġopen ly
cha mber
ĠLe on
ĠRelig ion
Ġune as
Ġabund ant
======== ========
on ement
Ġm ix
ant ed
Ġsha pes
Ġimp lement
Ġstir ring
s pring
Ġf erv
ĠG ENT
Ġso j
14 64
23 8
Ġheart ily
Ġbur d
Ġeight y
ĠDomin ican
Ġn omin
ĠP ost
ĠF ur
man n
Ġins pect
Ġlear nt
Ġsecret ly
ĠAra bs
Ġcand les
Ġinj ured
Ġbeha vi
Ġrat ified
Ġfabric s
Ġalcoh ol
ĠHez ekiah
Ġt act
Ġp est
Ġ18 18
90 42
ink le
Ġtr ous
Ġinc ap
Ġlo aded
Ġwind ing
ĠMal i
Ġtow ers
B Y
ion ed
Ġse asons
50 8
ĠBelg ian
E th
G DP
n or
Ġp aces
ĠS ic
ad dy
ĠM am
ĠH ou
Ġtw isted
65 62
Ġ15 0
IN A
Ġcr imes
Ġcast ing
Ġconfess ion
Ġcell ar
Ġcalcul ated
On ly
Ġpup ils
Ġbrid le
Ġrecip ient
Ġl ent
ĠT ri
Ġst ores
15 73
88 1
Ġ17 00
ĠPal ace
Ġsolemn ly
ĠAct on
ĠANTON Y
Coast line
ĠH EL
95 08
68 04
76 67
ĠGENT LE
g eneral
ir y
ĠL ay
res cent
ĠR io
Ġ18 26
Ġwor m
Ġcan non
Ġdis hes
77 90
ub en
Ġtrans ition
Ġadv ised
ĠLe vi
ĠCar m
Ġer osion
O G
g ot
h t
Ġin eff
Ġsu llen
Ġpe ep
Ġext ingu
ĠJer sey
ij a
ent er
Ġcon grat
05 75
Ġcirc ular
Ġpartic ulars
Ġpra ised
9 918
I ER
N atural
l our
r un
Ġre ass
ĠS ri
ĠS em
ĠM ob
ab is
int on
15 99
Ġpers isted
Ġ17 93
ES D
Ġwild ly
Ġval our
Ġcou p
Ġpull ing
Ġvac ant
Mar itime
Ġworsh ipped
Ġg it
ĠS ix
64 65
ĠSc ar
................................ ...
ĠAnt ig
Ġhang ed
asm uch
Ġol ive
Ge ography
B issau
ter ior
ĠO ften
Ġj ury
83 96
16 1
Ġsect ions
ĠCost a
ar ity
pe ak
ĠN ear
Ġsc ared
17 1
Ġ17 90
Ġsk ins
Ġpret t
Ġeye b
Ġinterp re
Ġdeliber ately
Ġtravell er
S ome
ĠP ot
Ġam ple
43 6
Ġreg ional
ters on
31 18
Ġbound s
Ġbox es
Ġpack ed
Ġgrie ved
Ġcorrespond ing
ĠAnn ie
it ative
Ġk in
Ġpre acher
88 34
Ġmon ot
b us
ha ck
Ġp oo
Ġl y
00 26
Ġsh rie
Ġro be
Ġhand ful
ĠIn c
Ġthought ful
33 93
ĠNor we
Ġtrave lled
equ eg
Ġfeed ing
Ġswall ow
Ġconcent rated
Ġreject ed
ĠUg anda
1 02
ĠP ope
ĠN icaragua
64 9
17 68
55 7
AL L
ĠP ra
ĠG hana
Ġthere on
Ġorgan izations
ĠSu per
b uck
l ife
ra p
Ġle cture
Ġ18 05
Ġj u
17 9
24 90
-------- -
48 15
OU CESTER
Ġsumm oned
Ġcost s
Ġsovere ig
ess ie
ĠW alk
ĠJ UL
93 0
12 72
vers ion
EN ET
ĠBalt imore
u pt
ĠB ring
ĠL ast
Ġr ises
Ġbl own
ĠRe c
ĠEsk imo
W as
y ards
Ġth rees
ĠS n
ri ans
Ġsu ng
Ġ18 04
Ġch uck
92 9
22 77
Ġpri or
Ġ200 8
985 8
Cl imate
u i
Ġc ream
Ġres ort
85 8
84 12
AN S
50 90
Ġbod ily
Econom y
Ġtelegra ph
ĠMaurit ius
@ _
d ess
ĠD jibouti
Ġtra versed
Ġyoung est
Ġtext ile
Ġfavor ite
Ġundert ake
ĠHIS PAN
ĠHondur as
E very
Ġh ire
ĠG or
ĠO AU
02 50
Ġgr ind
Ġra nd
25 92
85 9
Ġchan nel
Ġhapp ier
orm and
Ġmountain ous
Ġtrack s
agu ay
Ġtrump ets
ĠAbs al
ĠGL OUCESTER
Ter rain
Ġa far
Ġg am
il ful
Ġfl owing
20 75
the se
85 90
55 94
Ġrepresent ing
umer able
Ġid ols
Ġdescend ing
ĠFa ith
Ġshri ek
p ost
ing e
ot ic
Ġst are
ri ental
ĠW AR
Ġelect ron
b ai
Ġf ox
ur able
ĠM AN
00 42
02 31
Ġqu aint
25 05
Ġsl ack
Ġtra mp
55 5
Ġid ol
bar ry
Ġrepublic s
Ġfant astic
Over view
ĠPhiladelph ia
19 30
ree k
oll and
20 56
li est
unt o
Ġmeet ings
ĠUt terson
ĠR ich
Ġ_ @_
88 86
53 64
Ġass ass
46 97
1 67
P L
Ġo wed
ra int
ĠP oll
ĠG ad
Ġ18 13
84 19
Ġret orted
45 12
Ġadv ise
Ġplac ing
Ġprint ing
Ġspl it
Ġcliff s
B L
Ġto ps
Ġhe m
Ġover fl
Ġind irect
88 0
Ġhast y
Ġdr own
Ġresem blance
Comp arative
Ġw olf
Ġag ents
91 50
Ġsick ness
Ġmal ice
Ġ-------------------------------- --------------------
J ud
he th
ĠM ax
ĠP ublic
Ġman s
ag an
Ġpart ner
Ġsw am
atch ing
ĠJud as
AD Y
co pe
Ġadj o
ĠMont barry
Ġbord ering
Ġattend ing
territ ory
p han
Ġf ren
Ġp aw
ĠT op
ci us
ĠWhat ever
58 24
Ġconv ince
Ġliter ally
ac ant
la u
Ġgl owing
Ġchild ish
Ġ17 91
ĠRoman s
Ġin sect
Ġdo ings
Ġ18 02
Ġun su
Ġj olly
Ġqu itted
03 81
Ġco inc
Ġve xed
ustri ous
Ġgas ped
989 6
Ġincred ible
Ġincor por
Ġg reed
ct ica
Ġwe ird
ĠB udd
10 61
ĠSt ubb
Ġbelie ving
42 14
39 85
Ġcivil ized
ĠComp are
Ġconcern s
Ġdism al
ĠUrs ula
% _
Ġ_ %_
Ġconv uls
ĠVer de
Ġvel vet
m ust
r ades
Ġc el
ĠM IT
Ġr ational
Ġsha n
Ġra gs
ott a
Ġsim ult
Ġprop riety
Ġcirc uit
ĠInde pendent
Ġrad i
Ġspr ings
Ġprosper ous
Ġforbid den
Ġbough s
Ġbehavi our
S p
Ġb er
ud der
Ġfl ies
Ġind uce
44 65
Ġbre ed
Ġ17 97
Ġdra ught
68 14
Ġant i
ov a
ĠBur kina
us cript
89 9
io let
Ġsouth west
Ġtrib ute
Ġvig or
Ġlux ury
2 857
he art
Ġw agon
as per
Ġhe aled
Ġu mbre
Ġcha pel
43 2
Ġ17 95
Ġwid th
ĠFare brother
Ġt ut
Ġex ult
ott ing
Ġ17 99
Ġ17 98
Ġreal m
74 85
989 5
ĠBapt ist
le a
ĠC LE
Ġbene vol
ĠEm peror
ĠFare well
âĪĴ âĪĴ
5 872
| ,
in i
Ġb ou
Ġp ip
ĠC op
Ġal ert
Ġpo ly
Ġbr im
Ġins omuch
Ġfun ctions
Ġpure ly
ĠEC A
Ġveget ation
Ġcell s
ĠAlban ia
Ġcoax ial
X X
ĠG ran
ĠE t
ast e
Ġsha ft
Ġdis aster
63 20
96 03
40 83
Ġcolumn s
Ġwrit ings
onym ous
Ġw age
ĠT el
ĠT rist
ĠF ox
Ġsh ove
Ġsh rew
Ġsp ots
Ġcons ulate
77 62
Ġsl ipp
33 61
Ġcommand er
Ġcor ruption
Ġvar ied
ĠMad am
Ġvict or
ĠXX V
jol ras
Ġl ocks
ĠM ach
ĠN on
ĠR us
94 86
96 9
Ġlaw ful
Ġshad es
ĠHO USE
Ġcont empor
Ġdream ing
lo ad
Ġunre ason
5 244
P opulation
Ġc av
as ping
Ġre ception
Ġst u
ĠG ables
ĠO man
Ġ17 50
ĠTH AT
Ġreb u
Ġaffection ate
Ġdomin ion
I ES
Ġm ouse
Ġp ear
ĠT or
ĠG re
Ġhost ile
ĠGar land
Ġbewild ered
Ġab use
07 0
ĠBe yond
sh ire
iet ies
- (
b ers
Ġa ug
Ġw ig
Ġc ant
Ġhe el
Ġre verse
ĠO EC
Ġra iment
oc al
07 9
22 96
EN CE
47 28
Ġresult ed
Ġreven ue
ĠMiddle march
Ġanat om
Ġdelic acy
ĠEmp ire
Ġto m
ĠA ut
rom ise
ĠF ive
ĠE V
95 8
44 96
Ġter ribly
Ġ17 20
Ġinv ari
ĠAp pe
Ġsubm itted
Ġimper ial
ĠCamb ridge
writ ing
the ir
Ġsn atched
ĠCol umb
fashion ed
3 254
w ear
ĠC ove
Ġsp here
90 31
Ġmust n
ical s
Ġass igned
Ġlive th
Ġbar rier
Ġhorse men
Ġattempt ing
Ġdepend ed
ho ist
Ġhaz ard
Ġ177 0
ĠC at
Ġhar der
22 98
sh ot
ches s
ĠAll an
Ġprob ability
ĠSw iss
Ġspend ing
095 5
Ġawa iting
Ġm irth
ĠRic a
ct ures
Ġnot ions
ĠH az
Ġ4 00
20 51
Ġchan ced
ĠAf ro
76 27
Ġcop ra
Ġrock y
ĠFl or
Ġdemand s
nam ents
ĠFair fax
815 1
ĠUt ter
ĠCale b
Ġsovereig nty
m aking
ĠC ross
ran ium
45 99
ceiv es
Ġsin ister
Ġgate way
ĠChan nel
Ġrevol t
Ġvig orous
Ġrepent ance
Ġquant ities
Ġirres ist
R AC
ĠS la
19 83
Ġspe cially
Ġimmort al
b ad
ke ls
ĠF ederation
Ġor naments
ap le
Ġcar c
Ġconf eder
ON G
Ġcr ash
ĠSa o
ĠSch ool
Ġcultiv ation
Ġbund le
Ġm eth
Ġf angs
Ġ1 25
ain ty
Ġun natural
44 58
Ġ17 40
40 86
Ġaccount ed
Ġdev ices
Ġsorrow s
Ġexperien ces
Ġcontinu ing
Ġcir cles
Ġunwill ing
86 9
und i
45 6
47 54
Ġins ens
Ġed itor
Ġeager ness
Ġrecomm ended
Ġattrib uted
% .
Ġc yl
le ch
Ġth ieves
Ġk il
Ġsh rill
Ġun kind
88 71
ener y
ĠIsrael i
Ġsecond ary
31 02
ĠEn jolras
ĠCar ol
Ġpain ter
Te le
Ġdesir ous
Ty pe
h ole
p re
Ġe tern
ĠT ex
Ġint ol
67 1
Ġcar ved
Ġsy ll
Ġpublic ation
Ġmag net
IR D
Ġtransl ation
Ġcaut iously
w alk
all ing
Ġv oid
Ġend less
Ġphilosop her
n ut
n ame
v ior
Ġd ine
Ġl ung
âĢĻ ,
um m
Ġthere with
AN IO
ĠAll en
ĠAle ut
Ġcloud y
Ġveget able
ĠCount ess
Ġident ity
696 9
ĠSummer lee
c ame
Ġsp ared
87 81
Ġac ute
Ġhapp ily
Ġ16 90
Ġmem ories
ĠBO OK
ĠB ig
Ġfa re
Ġpap a
Ġsurpr ising
Ġloud ly
Ġlod ge
ĠJOH N
f are
Å Ń
at hetic
Ġhe red
Ġn ut
Ġn erve
st ead
ĠB EN
ĠG U
19 1
les iast
Ġrec overy
Ġdiff erences
Ġhard ware
ĠIC C
994 7
994 9
Ġabomin ations
ĠTz ÅŃ
Ġ1 20
ĠL ithuan
ild ren
15 68
96 8
79 94
Ġconqu est
Ġstoo ped
ps ed
18 94
Ġpret ended
Ġhur led
Ġdisgu ise
Ġconspic uous
5 634
h orn
Ġs outheast
Ġh inder
Ġan on
if ies
ĠD ON
Ġch rom
12 31
be k
ĠZ ambia
42 65
Ġgro an
ĠChurch ill
Ġdomin ated
Ġprophes y
Ġisol ated
u ate
w ord
ac ha
88 8
Ġtra gic
Ġproject s
Ġadmir able
pher ds
Ġanaly sis
Ġexchan ged
ĠGENTLE MAN
a um
st ra
id ers
Ġr ural
Ġex clamation
ĠSt ud
ER E
Ġreg ards
ĠLib rary
ambe au
ĠFij i
9 103
D i
w r
Ġs cept
es crib
Ġd arted
il ton
ĠE rik
un ce
ĠR ush
Ġcl ust
ial s
Ġ17 94
Ġref ining
30 80
Ġmess engers
113 0
Ġrespond ed
asso ci
s ac
it iz
ĠT ree
25 9
97 8
53 28
Ġopp ression
iqu es
Ġkey s
Ġexha ust
814 9
Ġdisd ain
Ġtrous ers
ĠC ra
ĠP enn
Ġsem i
ĠAv on
Ġconsol ation
3 274
H igh
a pped
it ively
Ġf anc
ld e
th irds
ĠW oe
vel ope
Ġstra it
che m
Ġsal ts
ĠChar l
Ġfurn ace
Ġcat hed
ĠAlexand ria
812 6
096 8
Ġdismiss ed
ĠM all
ĠC IT
os h
ĠJohn son
Ġprogra mm
Ġpack et
Ġpictures que
824 2
Ġfors aken
ĠSwe et
ĠF Y
19 00
IT E
Ġver d
Ġcatch ing
L ead
L AC
l ost
r usted
w anda
Ġs om
Ġp op
ĠC S
el ing
op hy
Ġal k
Ġal oft
Ġpe asant
Ġdisc rim
Ġdel icious
Ġmet all
Ġbest ow
60 9
ĠLe one
che lles
08 11
Ġrad iant
Ġeast ward
627 8
ĠSur in
Econom ic
Ġexerc ised
Ġstub born
Ġindepend ents
ly n
ĠF al
74 26
Ġbright ness
Ġsusp icious
Ġrub bed
col ored
0 83
ĠS ally
ĠM ine
44 2
ĠPh ile
4 037
9 857
b et
Ġb unch
Ġl akes
im ately
Ġat onement
ĠO IC
ĠR ub
Ġno stri
Ġsw itch
Ġhur ric
Ġrid ge
Ġencl osure
386 1
ĠTil ney
Ġnostri ls
h oe
Ġ1 670
Ġsupp osing
57 4
37 36
Ġprot ested
Ġinn umerable
ĠJama ica
s a
ĠM E
ĠG ambia
19 84
Ġintrodu ce
627 1
4 012
p ur
Ġm ons
ĠB us
ĠP H
Ġdo eth
Ġal b
Ġind escrib
Ġfirst born
Ġimp uls
Ġplan et
ĠQue equeg
Ġkingdom s
Ġcous ins
Ġsod ium
d ale
r own
Ġkn ot
ink ling
Ġfl ush
fe it
ĠMal awi
ED ER
ĠMaur itania
ĠBaron ess
nat ured
am ents
ĠN ort
ĠU pper
47 6
Ġhair y
ĠGuy ana
9 657
Y S
Ġt ub
en ormand
ĠC L
Ġall oy
Ġne utral
Ġbr on
Ġsy nt
45 5
ĠRe al
hold ers
Ġcro oked
Ex change
Ġforg iven
ĠAnt on
Ġdecided ly
Ġcoal ition
Ġbill s
314 5
ĠGent le
l an
ĠC hange
Ġsa iling
Ġpl ane
Ġgl ob
44 4
Ġearthqu akes
6 233
Ġthank ful
A m
B YEAR
C ertainly
re te
Ġb red
Ġm os
am eless
ĠHe wet
Ġkn itted
Ġtw ins
Ġsm itten
Ġatt raction
Ġright ly
Ġmoment ary
Ġlo ins
Ġview ed
Ġguard ian
ĠRos anna
553 7
H is
in ine
Ġo mn
ĠI van
Ġe h
ĠD isc
Ġint ensity
Ġqu art
Ġcol ony
ĠTe chn
Ġenjoy ing
P oor
ha ired
Ġc ate
ĠB oy
Ġtem ples
ĠFl ambeau
Ġbapt ized
2 904
3 445
5 250
7 676
8 111
? _
b ation
p on
in ating
es c
ĠC ensus
ĠH irst
qu er
ci le
Ġper ception
Ġco in
Ġgra mm
26 9
US T
Ġinf irm
Ġstraight way
Ġbull ock
Ġreflect ions
Ġcy cl
ĠKe ep
Ġparliament ary
ĠAbsal om
Ġc ush
Ġl il
OR US
Ġsc rib
Ġrep uls
Ġcontro vers
Ġreve al
Ġfrank ly
ĠAntar ctica
Ġon ward
Ġus ur
mer ald
Ġmin im
Ġconqu ered
Ġdre ary
3 921
6 633
C apital
W ARD
u ble
re a
ing ed
Ġl umber
ic les
ĠS ierra
ĠH and
Ġor g
Ġwould st
Ġexp ensive
az ar
Ġhard ened
Ġpay ment
ĠGR OW
Ġcou ch
Ġiniqu ities
******** **
Ġlat est
696 8
Ġpig s
Con stitution
Ġappare l
e ur
ĠL ar
ĠR and
ord inate
Ġtra ced
Ġext ending
Ġperson ality
ĠNor folk
Ġadj ust
Ġexhib ited
ĠLamb eth
Ġmathe matic
g ard
Ġprov iding
Ġcheer fully
2 935
7 841
L abor
is ms
Ġin cess
Ġg otten
ĠS ign
Ġkn ave
Ġro sy
ĠTh ird
ne ath
96 0
Ġcur ve
Ġamb ass
294 1
ĠCro at
Ġprejud ice
ĠGill enormand
Tele communications
1 63
3 056
f irst
l ings
Ġc amer
Ġp sych
est ial
Ġr uff
Ġpre ached
Ġold est
Ġbre ach
Ġho arse
OL K
ograph ical
Ġhonest y
ati ently
Ġ-------------------------------- --------------------------------
ĠW ed
od ia
yl van
ĠBel ize
6 029
8 078
i ol
ĠB ASE
ĠG ilead
ear ing
Ġen velope
ĠRe uben
Ġlord ship
Ġappro xim
314 0
345 6
Cur rency
ĠNorwe gian
if er
Ġman uscript
Ġcl er
Ġter med
Ġmil it
ues day
Ġcoast s
216 0
I K
la id
Ġsc old
47 3
Ġcompl icated
Ġseason al
Ġresem bled
Ġancest ors
3 437
4 043
4 252
d ist
ĠC reat
ĠH ard
th ought
Ġsl id
for mer
Ġaff irm
ĠDem ocr
Ġimpress ions
ĠSom alia
hum an
087 9
c at
Ġw oke
Ġm ute
ĠShe l
Ġcomp r
Ġspe ars
ark as
ON A
37 6
Ġdest ination
Ġflour ish
ĠNam ibia
Ġa venue
ha lf
Ġfl an
Ġappe aring
ĠGab on
Ġofficial s
ĠDes p
ĠHait i
4 658
4 660
6 261
7 832
F lag
Ġ **********
ver ing
Ġpart ially
Ġcomm end
Ġcomp ound
Ġsc ram
Ġer r
Ġtear ing
Ġsad ness
Ġgreet ed
Ġerect ed
Ġre appe
ĠP AGE
Ġall iance
ĠU z
iz ard
cript ions
Ġlam bs
Ġshudd ered
Ġsubl ime
ĠJourn al
t ell
Ġres id
,âĢĶ âĢľ
2 172
4 635
Ġa er
Ġsh ift
Ġgr otes
12 1
ĠSe y
Ġprop ortions
Ġimag in
ĠProgress ive
Ġted ious
ĠGROW TH
7 644
8 105
b ag
ĠD aguerre
Ġcons pir
ron ted
Ġphilosop h
Ġentertain ment
ot a
Ġevil s
ĠSm all
Ġcrown ed
Ġfol iage
Inde ed
4 024
F iscal
L egal
P orts
g ency
m o
ĠT oo
Ġcom rades
Ġso b
Ġall ey
ol is
out s
Ġcoll ap
omb re
Ġguard ed
Ġspread ing
AY EAR
ĠEs au
Ġash ore
ĠBah rain
b ility
h ur
ĠT arkas
ĠS ad
Ġj er
Ġear ned
Ġpres ume
Ġsym pt
Ġend ing
ask a
ĠBen in
Ġpurcha sed
3 870
5 258
6 655
7 673
8 261
M arch
a ute
g row
Ġo w
hat h
st ream
Ġ1 05
ĠA YEAR
Ġshe kels
Ġpl um
Ġ8 708
ĠK itt
rit z
ĠSe ven
Ġread ers
Ġpossess ions
Ġang les
Ġrail road
ĠBer lin
Ġbrief ly
Ġeth nic
Air ports
Ġy awn
ri v
ĠL ADY
Ġany how
64 1
Ġhead ed
Ġco b
ĠX I
Ġi ii
Ġfarm ers
Ġexec ute
Ġcontrib uted
Ġintent ions
D E
e ight
f ound
Ġper ished
b all
f ixed
Ġs iege
ĠA ber
Ġst ing
Ġst em
Ġst ake
ĠE dom
cl ing
ĠAl p
Ġmo v
ĠNor ris
Ġdev oured
Ġeffect ed
Ġdress es
ĠBr utus
Ġ292 2
ĠMount ains
919 9
Ġhaunt ed
Inde pendence
ĠBru ff
R elig
Ġc aval
Ġh ue
Ġr otten
ĠN ic
Ġey el
77 9
ĠAl most
45 0
Ġext ract
ĠChrist ina
Ġred d
Ġpet ty
Ġund oubtedly
Ġgriev ous
Ġpled ge
Ġprolong ed
Ġmagist rate
ĠR est
Ġcar s
53 0
Ġaddress es
Ġmyster ies
ĠVictor ia
Ġwip ed
2 868
5 180
8 943
U CH
W ould
c s
Ġj ail
Ġli king
Ġpo ets
ĠUn ity
ĠCon nect
Ex ecutive
Ġsacrif iced
sc ale
Ġsuperior ity
ĠFR I
Ġscr ut
A H
h our
ĠP ower
urn ing
Ġel b
ĠAp oll
Ġling ered
Ġribb on
! '
oun cing
ĠBot swana
4 653
8 169
it ic
Ġas cent
Ġv iv
el ed
Ġgl ancing
Ġbo iling
57 5
Ġexam ining
Ġfav ourable
Ġbeha vior
Ġtar ry
096 9
Ġrelie ve
Ġstam ped
364 1
Ġsket ch
Ġcann abis
Ġall eg
Ġag ency
Ġro ared
82 1
Ġdesol ation
Ġembarrass ment
Ġpilgr im
ut able
own er
Ġworld ly
Ġgorge ous
Ġo st
pt on
Ġcont end
EN A
Ġpur ity
Ġdec omp
Ġcontin uous
Ġsk illed
ots on
Ġenc ir
Ġwis er
ĠHigh ness
In fant
Ġpill ar
Ġbullet in
Elect ricity
Ġphosphat es
Ag riculture
ĠCove y
H er
t rees
ĠJ uan
ry n
Ġcan al
ĠY ORK
Ġcha riot
ĠJer oboam
Ġbirth day
Ġwealth y
Ġit ems
us al
ĠTh ir
Ġri ot
Ġspe eches
Ġcar ries
33 3
Ġass isted
Ġobs erver
Ġhousehold er
igne ur
0 841
3 999
S aint
f ish
Ġen force
95 9
06 1
Ġexp enses
30 9
ĠPar aguay
ĠTe eka
Ġharm less
Ġur ban
Ġble eding
Ġthreat ening
Ġstor ms
Ġspecim ens
ĠRush worth
Ġh ides
ĠK er
Ġimp atiently
Ġappro ve
Ġdread ed
ĠLiber ia
Ġpick ing
Ġpant ing
n els
Ġhe ated
om a
ĠE u
Ġun seen
me ads
The se
Ġtor ch
o en
Ġl ame
le te
Ġth umb
Ġwh ipped
ĠC ook
ĠB eg
ill ery
ĠW in
Ġhand ic
Ġdear ly
ĠNet work
Leg islative
ĠFur ther
Eth nic
Lead ers
h on
l orn
st ones
ĠF TP
Ġsh udder
Ġnorth ward
hor se
Ġfatig ue
ing ton
ĠP y
od ed
Ġam using
IG IN
B irth
_ ;
a ud
Ġbe ck
Ġsu ited
ĠG un
ol ves
ĠO s
Ġkn elt
Ġun ions
Ġdis order
ĠK ings
Ġres urrection
77 1
Ġfound ations
Ġsn ake
ĠHar ney
Ġattack s
ĠBra cy
ĠAk ut
ĠPhar ise
Relig ion
L anguage
Ġw reat
il ence
Ġhar bour
ĠCH ORUS
Ġacqu ire
ĠHar rison
Ġexped ient
88 9
ral tar
IT NET
Ġda res
Ġsurr ound
Ġobv iously
ĠAvon lea
L ondon
in qu
re al
Ġc age
ĠT uesday
ĠC RE
ĠB aker
ĠB YEAR
Ġsc or
Ġsl im
ug s
Ġinter m
ĠAr ist
amb a
Ġarg ued
zer bai
ĠSil as
Ġtight ly
Ġunb el
Ġcher ub
Ġadvert is
Ġst ately
Ġshe er
ĠG O
un ned
Ġcons ented
ĠEvery body
Ġconsult ed
ĠHind u
Pol itical
on ies
Ġd ash
Ġg w
ĠS oul
Ġcomm ence
93 1
47 2
Ġsuffer ings
ĠUk raine
B udget
b ishop
t ic
Ġs ow
Ġb oss
Ġc odes
id ity
ĠM axon
ul u
ĠW right
Ġun ique
ĠHis pan
cha d
Ġchar ms
Ġanim ated
Ġgrand mother
ĠPers ia
Ġnig gers
Un employment
Ġinfinite ly
ĠSlo ven
Ġfund ament
National ity
lev ard
Jud icial
Di plomatic
0 94
ĠB ack
un ks
ell ed
og ra
Ġrel ate
sh ips
gr ass
Ġsal oon
Ġcomfort ed
!_ âĢĿ
Ġw aking
Ġast ron
sk in
Ġencourage ment
Ġcanv as
L iteracy
M ember
S ay
p arty
ĠT aug
ĠM S
ĠM au
Ġher ds
os itions
Ġreturn s
66 2
Ġins ert
Ġhy mn
ĠSer b
Ind ustries
Ġminor ity
Ġsubsequ ently
Imp orts
Ġthrees core
Ġadjo ining
ĠCIT IZ
ĠT ru
ĠB ud
ĠP t
ac cess
Ġout line
Ġtrib ut
Ġgro ve
ĠAnge la
ĠU s
Ġfl aming
13 1
23 1
ĠUp meads
o ise
Ġhe ars
Ġsh ops
ĠJ ove
Ġout rage
me an
Ġbring eth
Ġdraw er
ĠBa ham
Ġentertain ed
Ġscream ed
Ġappropri ate
ĠFlore nce
Ġmunicip al
ĠPhile as
I OL
W A
Ġpro ced
Ġim itation
Ġla wn
ib ati
Ġdist ressed
ĠOr der
Ġfet ched
Ġess entially
ĠSar ah
it ched
ĠP ack
ĠSa hara
Ġneighbour ing
M S
S uff
b one
g ive
m aker
w art
Ġ \
in ers
cl ass
24 1
ss hip
Ġtran sship
de pendent
ĠHer od
Ex ports
Ġcommun icate
ĠLeg ree
Ġcit rus
ĠSpir its
IAN A
ĠLab an
ĠPhill otson
Ġcalam ity
g ings
ro c
Ġsu its
Ġche ese
Ġlevel s
Ġstret ching
add in
Ġappreci ate
Ġt ack
Ġri pe
18 1
ĠTH IRD
Ġcat alog
Ur ber
_ ,âĢĿ
Ġb ount
Ġst ool
Ġse est
bl i
Ġra gged
for ced
Ex ternal
sem ble
ĠQu ick
Ġhabit ation
Ġproc laim
Ġcord ial
Ġprivile ges
Or ganized
ĠCommon wealth
ĠMaced onia
ĠPoll ution
ĠS hang
Ġup ro
erv ation
pend ix
li er
Ġrequ is
AC T
Ġmel ted
ĠAng l
C ha
Ġt an
sel s
Ġrec re
Ġrel ating
ylvan ia
b ott
p ow
Ġb rig
Ġf um
Ġn ap
Ġn urs
ĠT ant
Ġu ranium
Ġre ef
Ġatt ic
ĠMar ine
ib o
47 4
Ġinv al
Ġstra ined
Ġsn uff
gan ese
Ġsol ic
gr own
Ġban quet
Ġopportun ities
Ġtrif ling
Ġrans om
ĠHispan ic
Ġp orts
ic ates
Ġst ack
ĠB os
os lo
Ġjust ly
30 8
Ġdep rived
ĠCar r
Ġaccept s
sha ped
Ġbell s
Ġprospect s
Ġcontempl ation
Ġempha sis
j ac
ear ch
97 9
ump ing
Ġpit iful
D oes
Ġt ricks
Ġc rescent
ri al
ast ed
ak a
55 4
ĠOn a
Ġbit uminous
Ġdevelop ing
In flation
Ġappre hend
Ġrob bed
Ġpist ol
Ġshrew d
Ġmons oon
Ġ---------------------------------------------------------------- ---------
A ny
c or
g own
ĠT IMON
ĠB oss
ĠF eder
ĠIn n
Ġsub d
ug al
Ġmer its
Ġdet ected
Ġban ished
ĠComm and
Ġod ds
B I
Ġw ink
Ġe man
la h
ĠLord s
ĠAb ove
ĠOcc upied
U P
Ġhe aps
Ġn ail
Ġ1 10
ĠP OL
ia e
Ġpast ure
IL IA
ĠUtter bol
ĠTex as
Ġgrotes que
Ġl ance
Ġall e
ĠMar shall
54 6
ĠRe f
Ġord ained
ĠBas il
Ġinterf ere
Ġachie ved
Ġprud ent
ĠS her
ĠE z
aw a
.âĢĻ âĢĿ
UC K
v ision
ĠT ogo
ĠC AP
Ġwe ighed
ĠF ritz
ast ard
47 0
Ġdec ay
Ġchar ter
Ġprom ising
iam i
Ġbig ger
Ġneighb oring
Ġaut om
Ind ustrial
Ġliqu or
ĠWeather bury
ĠTrist ram
Ġfor lorn
ell o
IT S
ĠOther s
ĠFar m
Ġconvey ed
OP AT
Ġl uminous
ĠO l
Ġra ft
87 9
ĠBe hind
ĠHy de
ĠUnt o
I DA
c ow
Ġc ass
ĠS ister
Ġple aded
Ġcol onel
Ġed ges
Ġmod esty
Ġsuccess fully
ĠCont iguous
Ġlod ged
Ġfierce ly
Åĵ uf
Elect ions
ĠGren ad
Ġst if
ĠK az
Ġvis iting
Ġsubst ances
Ġspect acles
Ġschol ar
Ġaccur ate
Ġaccord ance
ĠUnt il
b i
00 01
Ġcom rade
Ġcon ver
li hood
55 2
Ġdom ain
Ġpeculiar ly
ĠOR IGIN
Ġadvers ary
ĠStep hen
Ġs its
Ġs ombre
ou st
Ġc os
ri be
Ġhad st
ĠW ilt
Ġall owing
ph y
Ġthought fully
IN IUS
Ġcent imes
Ġstran g
ĠX II
Ġfra med
Ġinflu ences
Ġcand lest
Ġhes itate
Ġren ter
Ad ministrative
Ġfib res
Ġchick en
High ways
N ovember
Ġf ath
ĠC P
ĠD addy
Ġsh ores
pl ing
act ly
Ġsens ations
Ġtour ist
Ġborrow ed
Ġse rene
ĠR ACE
ĠAl ab
act ed
ern al
70 9
Ġconsider ations
Ġcurrent ly
Ġrequire ments
Ġresent ment
? '
n is
ic ism
ĠM ason
ĠF ORD
res ents
ust ry
un al
ig s
Ġinc idents
Ġext ension
Ġfear ing
Ġcol oured
Ġsn apped
ĠEst her
Ġvict ims
Ġtast ed
ĠHou ston
Ġelectron ics
Ġcathed ral
c ount
ĠO bs
Ġgo at
15 27
Ġdra matic
Ġaw fully
Ġoper a
OPAT RA
ĠS AL
ĠG il
Ġup wards
un ched
ru it
Ġcha l
Ġhur rying
Ġsole ly
e ves
Ġst aple
Ġse lling
Ġv ib
int ed
ĠMar ry
ĠSp ook
Ġyouth ful
Ġwheel ed
Ġrede emed
Ġanat omy
Ġnegot iations
ĠBlan che
Ġrand om
G erman
Ġha ts
st oke
Ġre new
ci ble
Ġbl ocks
96 1
Ġinf am
Ġthr ice
Ġstick s
ĠBur ma
Ġoath s
Ġaltern ative
ĠCLE OPATRA
r ator
ĠH o
........ .
................................................ ....
Ġingen ious
Ġtyp ical
) ......................................
s omething
Ġl ime
ĠA ction
ĠP ha
Ġso ap
ĠE ug
ol n
43 8
ĠAl addin
Ġstrong est
Ġcold ly
ipe lag
.-- -
Ġmerc ury
ĠPont ell
ĠSey chelles
ĠW ILL
act or
Ġobject ions
Ġobt aining
Ġe la
ĠF ull
Ġhon oured
amb i
ĠEd ith
ĠMAR GAR
............................................ ...
ĠEqu atorial
0 93
B Åĵuf
m un
in ement
Ġw ert
Ġc ats
ĠT ome
ill ings
Ġch oo
Ġgr um
land locked
Ġbu zz
ĠNo ah
Ġtrans it
Ġmet e
Ġcommand ing
clus ively
Ġimper t
Ġhyd rop
Ġtu be
RAC USE
w ich
an o
Ġse eds
ind e
Ġimp ass
37 5
........................................ .....
Ġconstit uted
Ġabst ract
tw enty
g or
ĠS OL
ile t
15 1
Ġgu ided
AT E
TER S
Ġbid ding
S hall
in ian
Ġc ough
Ġd agger
et he
ĠM iami
ĠP om
Ġex alt
ci pe
Ġdark ened
Ġsn iff
Ġvar ies
Ġrespect ed
Ġsend s
Ġburst ing
Ch rist
Par is
Ġambit ious
Suff rage
B ETH
p oss
Ġt uck
ĠT har
ĠK ATH
Ġpre aching
Ġrep et
33 4
Ġdef iance
che ster
Ġ200 5
ĠMal ta
Ġperiod s
Ġdecl aration
Ġcritic ism
Ġexpand ed
Ġoverth row
Ġvic inity
Ġlibr aries
Ġfold s
ĠPenn s
. ],
H AM
L P
Ġo le
Ġf ul
Ġd ainty
ĠH E
ĠG aza
Ġmy th
ĠJ ob
ric ted
ĠAs DB
ib us
53 2
Ġappe aled
Ġgrow led
Ġaw aken
Ġoblig ation
Ġaud ible
Ġmir acles
Ġbla ze
ĠSY RACUSE
Ġumbre lla
Ġtransship ment
as ha
Ġth rill
ĠL am
ĠD et
ang a
Ġend ured
Ġpal p
âĶĢâĶĢâĶĢâĶĢâĶĢâĶĢâĶĢâĶĢâĶĢâĶĢâĶĢâĶĢâĶĢâĶĢâĶĢâĶĢ âĶĢâĶĢâĶĢâĶĢâĶĢâĶĢâĶĢâĶĢâĶĢâĶĢâĶĢâĶĢâĶĢâĶĢâĶĢâĶĢ
Ġinvari ably
on et
ĠT ower
................ ......
57 14
Ġendeav oured
................................................ .
ĠHOUSE HOL
) .............................
r ons
Ġp ious
Ġn ails
ĠA st
ĠD ry
so oth
ew is
Ġrec ess
Ġmin es
ĠMary land
Ġpot ash
ruct ure
ĠSpe cified
Ġrejo iced
Ġelectric al
ĠSurin ame
es pecially
un it
Ġal as
Ġsp ur
iss ions
Ġem ig
Ġbound ed
Ġglad ness
ĠAtl anta
ĠMAC BETH
Ġelabor ate
Ġincap able
4 99
c ott
ĠH ook
ĠF reed
ĠR u
Ġcont racted
18 00
69 87
Ġembarrass ed
OUN T
Ġecst asy
Ġexpans ion
ĠHISPAN IC
c our
c orn
Ġh ord
Ġv ale
um pt
Ġcont iguous
Ġmind ed
uth or
ĠAr ctic
Ġ{ {
Ġder iv
ĠCla rence
Ġimpress ive
Ġheark ened
Ġattract ive
Ġfors ake
sch ool
ĠDam asc
Ġnois eless
Ġecc lesiast
ĠSupp ose
ĠTempl ar
ĠCS CE
ĠGrenad ines
c ond
t own
Ġg ulf
ĠT am
ĠW a
Ġare n
Ġun worthy
bl ack
Ġlet s
07 1
ĠEurope ans
Ġsevent een
Ġgreet ing
Ġdepos ited
Ġmam ma
ĠMARGAR ET
Ġ1 03
Ġsa ils
ĠN uclear
Ġra b
35 2
Ġpract ised
Ġsusp ense
Ġloyal ty
Ġembra ced
r ast
Ġn uts
st ill
ĠH ousing
ĠG er
ĠE arl
Ġup set
Ġrep resents
Ġexc laim
66 9
Ġhor ribly
37 3
37 4
................................ ....
Ġforget ting
Ġpos itively
Ġinstruct ed
ĠAtt end
ĠAntig ua
I FF
Ġs our
Ġp hant
ĠH app
ĠH ope
ĠHe ctor
57 6
Ġblack ness
ĠCH AR
Ġpray ing
Ġsweet ness
Ġtest ify
Ġfavor able
ĠEliz a
Ġshru b
Ġabomin able
ĠGrey stoke
k i
ĠD ra
Ġres ource
Ġprocess es
Ġmourn ful
o cious
u chad
Ġb ub
Ġd art
al o
Ġst ature
ĠH ars
ĠL IST
qu in
Ġman ganese
Ġpe as
Ġlight er
Ġcur led
Ġste aling
EL IA
Ġbow l
Ġmead ow
Ġsod a
ĠNeb uchad
ĠGi be
Ġappla use
0 90
y et
Ġt ip
ĠB ois
ĠW ales
Ġab brevi
ĠMar ija
55 8
Ġinde x
ex cept
Ġrequ ested
Ġmed itation
Ġamount s
ĠJack son
Ġnin ety
oir s
Ġo ra
Ġte am
45 4
ĠBr une
ĠCom or
ĠHouse holder
Ġtermin al
S outh
f ree
g am
l oe
on ent
âĢ ²
ĠT rib
ĠS ant
Ġab omination
Ġun equ
itt ered
Ġqu ivering
ile e
int o
Ġcons ume
Ġvis ions
ĠAd ams
Ġbra ce
ik a
Ġtender ly
Ġassoci ate
Ġpan ic
Ġfer ocious
Ġconstit u
Ġelder ly
Ġhered itary
Ġhandic raft
u ations
ĠL l
ade qu
Ġmar ching
Ġdra ma
Ġrul ing
IV E
ĠSand y
Ġtravell ers
in ous
is ons
ĠS end
ĠC ain
Ġoff spring
Ġsl ang
Ġins ign
Ġfow ls
D R
L ord
` `
d ou
Ġf its
ĠI ADB
ĠM iller
Ġsh o
ĠR wanda
Ġmay st
ĠAl g
Ġinter ven
ĠZ er
Ġlady ship
Ġjoy ous
Ġbow els
Ġsand y
Ġtor rent
Ġspect ators
Ġbla zing
ĠRoy all
ĠPontell ier
ĠDamasc us
Ġro bb
Ġtw ist
Ġcomp ens
Ġgu ar
Ġremark ably
Ġdim ly
Ġtrad itions
Ġhonest ly
Ġfulf il
ĠAndrew s
Ġawa ited
Ġmagaz ine
ĠL EAR
Ġ8 00
OR E
c ation
u its
Ġp ork
ĠS old
ĠB ob
ĠN OR
Ġra ven
Ġpossess es
Ġunconscious ly
Ġrebell ion
Ġgla re
Ġ1 04
ĠN athan
op y
be fore
AN US
47 8
Ġbo il
Ġswe eping
Ġexpl ore
Ġstart ling
Ġpet ition
app ing
Ġbreath less
about s
Ġwhist le
b ably
Ġs ire
ĠT E
ĠH ost
Ġor chard
Ġpo em
ĠBur undi
opp y
d a
d ro
} ).
Ġ ..
Ġl es
Ġl ain
Ġst alk
ĠF antine
ol i
ime lech
Ġca vern
az iland
Ġcustom ers
ĠBarb uda
Ġcam els
Ġfla v
ĠCard inal
ĠROSAL IND
Ġlung s
! --
n ia
Ġm arty
Ġass ign
Ġtre ason
rop he
Ġsoft ened
Ġfem inine
Ġflag s
Ġobsc urity
19 77
Ġimp osed
84 64
Ġwit hered
ĠCRE ON
ĠPenns ylvania
0 92
O TH
l it
ĠD arn
Ġle aping
Ġrec ur
Ġhigh lands
Ġtri vial
Ġappro val
nes day
Ġreb uke
Ġdimin ished
Ġcere mon
Ġdescrib ing
Ġammon ia
ĠMans field
Ġnort heast
Ġp arson
Ġg ait
et ies
ĠM oor
âĢĶ _
Ġro le
be ing
Ġgener osity
Ġfact ory
Ġintim acy
Ġecho ed
ĠTal bot
Ġman ual
33 7
2 99
r ide
Ġp es
ir man
ile y
ĠV enn
67 44
Ġname ly
Ġnat ures
Ġmon aster
Ġdep ression
atic an
ĠChrist ians
Ġdirect or
Ġcharacter istics
Ġbank ing
Ġproud ly
Ġpour ing
Ġsust ained
Ġdialect s
it als
ĠM old
ac it
ĠJ ek
Ġposs ibilities
ĠAd vent
ĠBar ry
Ġallow ance
ĠOper a
Ġp omp
Ġtw ent
Ġwhisper ing
2 24
j e
o ors
or g
Ġl ump
ĠH aley
em on
Ġpl us
33 5
Ġinv ite
Ġpar lour
Ġstri kes
Ġalt ars
Ġlab ore
ĠHel ena
Ġpolic eman
mat ical
ĠStar buck
Ġsoot hing
associ ate
Ġhydrop ower
id ences
ĠS ag
ĠB essie
il a
ĠShe eta
Ġac adem
Ġsw ine
Ġopp ose
Ġver ge
Ġgau nt
Ġvary ing
ĠLes otho
R C
Ã ª
19 40
U G
c ap
f ood
Ġm ule
as ingly
ic on
ĠA zerbai
ĠS ave
ĠP ress
ĠD oth
Ġsh rank
Ġman hood
Ġrem onst
ins ula
ene y
Ġser geant
Ġoper ated
ĠArab ian
su pp
Ġcat ast
Ġult imately
Ġchick ens
ĠBart ley
0 84
Ġin adequ
66 8
ĠTur ks
Ġpun ct
Ġbe es
Ġwr ist
Ġhum bly
Ġhusband s
B ranches
r ong
Ġc ran
ic ut
Ġno bility
Ġkn itting
end ar
Ġunder neath
sh ould
Ġwa iter
Ġtalk s
ĠMay be
ĠMont en
ĠEC LAC
ĠCla ud
Ġpron ounce
Ġadapt ed
Ġeyeb rows
ĠAnton io
Ġt ies
ill o
ĠF ut
Ġar bit
ru p
Ġfl owed
Ġcar riages
Ġserv ing
Ġperson ally
Ġprop osition
ĠX IV
Ġtop ic
Ġdign ified
ĠFour th
Ġpier ced
ĠSERV ANT
h ut
ic ide
im ed
Ġfe ud
Ġret rie
room s
F rance
c ised
es ch
ĠT erence
Ġcon verse
Ġman power
Ġ" '
Ġsc hed
Ġbr ist
Ġwant on
ĠInd ustry
Ġsur f
Ġext ends
Ġpat iently
ĠAnt io
Ġbott les
Ġtar get
Ġcryst all
Ġpreserv ation
ĠAmaz on
Ġmultipl ied
ĠRus sell
ĠHars any
Ġc iv
ul ent
Ġpro ver
Ġdis li
Ġco ats
Ġdebt s
Ġgovern ed
Ġdescri pt
Ġplun ge
Ġcolon ies
Ġjack et
ĠCzech oslo
0 85
ap or
og en
ĠMiss ion
Ġpolic ies
ĠInst itute
ĠGreen land
Ġmultip ly
T was
Ġa th
Ġw ist
Ġg alley
Ġmar quis
Ġexp osure
Ġref rain
Ġleg it
ĠX L
Ġwest ward
Ġclo ister
sm ith
Ġtranqu il
Ġnegl igible
3 50
on ents
ĠT ita
Ġy arn
ab ilities
ĠR ose
Ġbl ot
Ġrep aired
Ġround ed
28 13
54 2
ĠSh ir
Ġcomfort ably
Ġident ical
Ġoverwhel med
Ġtransp arent
ĠS cience
Ġtax es
u bs
ĠS ection
ĠM b
ĠG a
ac ies
-- âĢľ
Ġpe aks
Ġgl ist
Ġsw ing
Ġdiff er
Ġbu ying
ĠQ atar
Ġsight s
ĠConstitution al
Ġphys i
Ġadmir alty
ĠEm ily
Ġpursu ing
Ġterrif ic
Ġiod ine
Ġmaxim um
Ġelb ows
Ġfundament al
re hens
ĠT imes
Ġover head
65 1
Ġgl ances
47 65
Ġquar re
Ġapart ments
Ġcamer a
l as
he nt
Ġst ages
ri ff
ĠL inc
ĠE arly
Ġbreak s
Ġcal f
Ġhate ful
t em
it o
at hing
Ġbe am
ĠS ie
Ġsh ocked
Ġper se
Ġimp ud
ĠCh loe
Ġfew er
37 2
ĠAm or
Ġsuper fl
Ġsqu ire
ĠLu cia
Ġgar ret
Ġtrad ing
________ ________
Ġelev ated
Pr ime
ĠCITIZ EN
F rom
w s
Ġe cl
ĠT IT
ĠS k
pe ll
Ġout l
Ġsin ners
Ġjoy ful
Ġplan ning
Ġencoura ging
Ġannoy ed
Ġirresist ible
i our
ĠD ais
Ġwithd rawn
m us
Ġt il
Ġm are
Ġv ows
ag ne
Ġam ate
ER O
Ġforth with
Ġtest ified
ĠAh med
Ġtravel ers
Ġendeav our
Ġstum bled
Ġwag gon
Ġperple xed
Ġcontrad ict
Ġpeop les
Ġdiam eter
ĠUz bek
or ce
ic le
ĠT ay
Ġmen u
Ġimp et
Ġhum ility
su ing
ĠDon ald
Ġpack ing
ĠLook ing
Ġcrack ed
Ġded icated
ĠMethod ist
unci ation
Ġintol erable
ĠT itania
il ia
Ġref res
Ġdev ote
gra m
ĠCamb odia
E P
d ri
Ġw ider
it ching
Ġre ins
ĠM ight
il ion
ĠF ound
Ġex asper
Ġam ber
Ġcl inging
Ġra ms
Ġri pp
ĠWh oso
Ġspeak eth
Ġhon ours
medi ate
ĠMon te
Ġsymp athetic
Ġlod gings
Ã¨ re
Ġstag gered
ĠWed nesday
Ġp iled
at ers
ve red
ĠB orn
ĠF ind
ft ed
Ġwhere on
25 1
Ġcommon place
Ġspecim en
ad vant
ĠGold en
ĠAlab ama
ĠLinc oln
H CR
M onsieur
W ICK
is ance
Ġhe al
Ġ1 44
ul ph
âĢĶ âĢĶâĢĿ
ject ed
Ġkeep er
empt ion
Ġval ued
Ġfre ight
Ġbeha ve
Ġpos itions
ĠConf eder
Ġflood s
Ġ292 1
Ġsyn ag
Ġdur st
Ġstrengthen ed
Ġske leton
ĠIsh ma
ĠPharise es
it ches
is ive
ĠT W
ra ged
ĠP ed
pl us
ount able
Ġhapp ening
Ġsle eve
Ġsorrow ful
Ġrang es
Ġfund s
Ġg hast
Ġun aw
Ġpre text
ĠBarb ados
T ON
f ey
ĠT s
ĠS low
ĠC LA
ĠC OUNT
Ġde pendence
Ġno ises
ass ed
33 6
Ġexpl osion
Ġconc rete
Ġ200 7
ĠX III
Ġsad d
ien na
Ġlab ours
Ġpubl ish
ĠBaham as
ĠO L
ble m
05 49
43 0
ret urn
06 88
ĠBe ast
ĠFrench man
Ġimag inary
ĠHar ris
Ġwise ly
ĠRog ers
Ġpil ot
Ġcas ual
1 16
A b
I ET
i astic
y ers
Ġs que
Ġto ol
Ġcorrespond ence
ĠFort une
ĠDais y
G R
i antly
Ġc ert
ĠS age
Ġsh illings
Ġli eth
Ġbl unt
ĠK ad
ĠIs sus
ĠMar ino
Ġcount ies
Ġca using
Ġhalf way
35 8
Ġprov oked
Ġpat hetic
Ġrespect ive
Ġcommun ities
Ġlie ge
Ġgod dess
Ġrain fall
Ġrapid ity
Ġarg ue
Ġstro ve
Ġble m
Ġdism ay
Ġretreat ed
Ġmonst ers
Ġpenet rated
Ġclimb ing
Ġinvol unt
Ġuncomm on
ĠHot el
ĠConnect icut
fey rac
m ic
Ġa pert
st ers
Ġre ceives
Ġgo al
Ġsee ks
Ġoff ensive
Ġres igned
Ġheart y
06 23
Ġfin er
Ġsuccess ive
Ġpost ed
K e
S ERV
ĠE nt
ĠIn f
Ġsk irts
ump kin
Ġcommun icated
ĠST R
C ivil
m ere
it ness
ĠI d
ĠA S
id ly
Ġcon vert
Ġj et
av an
Ġla zy
Ġmo or
Ġmus k
Ġdi ver
Ġfalse hood
ĠRow ena
ĠPal estine
Ġsanct ified
Ġjar gon
ĠAntio ch
Ġ1 02
Ġcon clude
ĠF oster
19 81
Ġbr ushed
Ġart ists
IS H
Ġwarm ly
Ġdesign s
hand ed
Ġrout es
Ġtyran ny
A nt
Ġ1 06
ĠR at
AN CE
olog ist
Ġlif et
ĠLie utenant
ĠHum an
u atu
Ġg at
ĠM es
if ting
os ha
19 82
Ġch ival
Ġro g
Ġgra ves
ret te
Ġins cription
min ister
Ġsqu ee
Ġur ge
Ġhes itating
Ġsuspic ions
Ġovert ake
Ġbrand y
Ġoverse as
Ġphenomen on
Ġsimult aneously
ĠOEC D
ĠDemocr ats
Urber ville
ĠIshma el
ac ent
ĠF amily
01 83
Ġam end
per m
Ġres ident
Ġsl opes
Ġhead long
55 6
Ġinv asion
Ġpat riot
ĠPro ject
Ġang rily
Ġaccept ance
Ġarri ving
ĠAng lo
Ġconstit ute
Ġphr ases
ange red
Ġult imate
Ġarchitect ure
Ġdefin ition
G et
f ran
s by
ĠW olf
op ard
ĠR el
ĠU se
ĠV ar
ĠBe aum
Ġresult ing
s ay
Ã §
Ġ >
Ġt iger
Ġb ureau
ve lled
Ġre e
ab a
Ġinto x
ĠK an
Ġgl oss
Ġrel ent
Ġdisc oura
Ġart istic
Ġdra gon
Ġconv ict
Ġeight h
Ġgro aned
Ġinher ited
Ġstock ings
Ġhero ic
Ġbrave ly
Ġgle aming
ĠMaj or
Ġsust ain
Ġhospital ity
Ġlou der
Ġthorn s
Ġindescrib able
Ġt ires
ĠS anta
ĠM om
Ġdef iled
Ġperson age
ten stein
Ġadm ission
ĠAct s
Ġbenef its
Ġaccur sed
Ġremo ving
D F
il ation
ous in
Ġev al
Ġproc ure
ĠMongol ia
h ol
l ic
Ġs land
Ġbe ams
ĠE BRD
Ġex clusively
Ġdo omed
Ġbl ushed
Ġwork man
con st
Ġsupp ressed
Ġrest rict
Ġdra gging
Ġsent ences
Ġsk irt
Ġfr antic
ĠCour feyrac
Ġcrown s
Ġbeha ved
Ġnerv ously
ĠVer ily
Ġtur f
Ġlegisl ation
ĠAbd ul
Ġrasc al
ĠWAR WICK
3 60
il ized
Ġfoot ing
ĠNep al
Ġscra p
ĠKir ibati
Ġrevel ation
ĠJek yll
Ġsha wl
ap es
ĠPe qu
Ġdust y
Ġdrift ed
Ġga ily
ĠED WARD
ĠHaw ai
F C
p ose
Ġthe ft
Ġs ine
Ġc ul
Ġha w
ĠM un
ĠC ord
ĠB ened
ĠP AND
ĠD irect
ĠHe nd
Ġcl enched
---- "
26 61
Ġter race
Ġter rors
Ġaccount ing
Ġcapt ives
Ġinflu enced
Ġsubs id
Ġcoc aine
ĠANT IP
ĠPri or
Ġinterf erence
Ġenterpr ises
Ġdilig ently
Ġdetect ive
Af ric
Ġinconven ience
Ġorg ans
ĠHarsany i
A fter
Ġa is
Ġ1 12
ĠM Y
ĠB uk
ĠY ear
Ġhow ling
Ġgra pe
97 15
Ġconf ronted
Ġdet est
ĠLa os
Ġshout s
Ġbal con
gl as
Ġge omet
Ġf ern
ĠTh ings
Ġed ited
Ġremember ing
Ġpubl isher
Ġghast ly
p pe
p ool
Ġa f
Ġa le
ĠP ent
Ġcon cept
19 01
ish ly
Ġhand writing
65 58
Ġsc ow
Ġdon or
Ġreg ulations
Ġadv is
Ġsle eves
73 67
Ġhair s
Ġaim ed
ĠDep uties
ĠMil an
Ġtoler ably
Ġdefinite ly
ĠCarl os
Ġgran ite
Ġcarpent er
Ġs hat
ch tenstein
ab el
57 3
Ġinf ernal
98 1
Ġpet t
rid ges
Ġcontempl ated
Ġdatab ases
Ġupro ar
Ġrobb ers
m ates
v ous
Ġsc ope
Ġcar n
ott o
Ġpluck ed
Ġdeb ate
2 12
p ath
Ġm oth
or gan
ĠF if
ĠF ord
ĠSt rip
Ġserv es
Ġmin istry
ĠDe c
Ġconf erences
ĠZ eb
Ġser mon
54 85
ĠUN HCR
Ġwonder fully
Ġsav our
ĠMic r
rim p
ĠMex ican
Ġencl osed
Ġreserv ations
Gu ilbert
HOL US
Ġcrou ched
Commun ists
Man power
Ġecclesiast ical
ĠANTIP HOLUS
r ich
Ġt ended
Ġl ag
ur se
ment ed
oy d
Ġstr ings
ĠTH ES
Ġpen alty
Ã© e
ĠBel arus
Ġcig are
Ġcryst al
ĠFe ather
Ġfacult ies
Ġdisple asure
Ġpir ates
ĠKaz akh
Ġg oose
35 6
Ġprec ision
ĠBed ford
J une
Ġf uss
Ġfa ction
pl ain
Ġshould est
Ġsec re
ple te
Ġwar med
45 2
Ġrest ricted
AT O
Ġdisp ersed
Ġutter ance
Ġced ar
Ġlandl ord
ĠJeho i
Ġmans ion
Ġfren zy
g arde
Ġl av
ĠC ou
ĠF ield
ĠD er
Ġsh orter
Ġab yss
ĠK a
Ġhar bor
Ġcour ty
Ġreg istered
Ġsuff ice
ĠConf erence
ĠShir ley
re rs
Ġ1 000
Ġex ile
55 0
57 8
Ġwin ning
ĠMount ain
n as
Ġs ar
Ġf ishes
Ġp ic
Ġd iet
ro lled
ra ll
ĠH ur
Ġme als
Ġal um
Ġri f
Ġeven ings
Ġind ist
97 1
den e
act ive
Ġexc iting
Ġbur ial
Ġty ph
Ġwrong s
Ġid iot
Ġcook ing
ĠANTON IO
ĠGur th
Ġkins man
6 65
b age
le ase
Ġnot or
Ġch orus
ĠY or
Ġdist rust
Ġexp ose
Ġinter ruption
Ġcle ans
Ġprop ag
Ġdifferent ly
Ġlack ing
ĠSwed ish
Ġnavig ation
Ġcigare tte
2 14
G ive
ĠM ale
ĠL uther
ight s
Ġdis advant
65 86
TU RE
ĠGib raltar
ĠPequ od
- _
g age
Ġt aketh
Ġp uls
Ġg rip
ĠS it
ĠM eth
Ġse wer
ĠL yle
ant in
Ġper ceiving
Ġrep lace
87 44
27 9
Ġcour te
har m
Ġbeaut ifully
Ġrev ived
iod iversity
ĠNe vis
Ġpra ises
Ġsav ages
Ġsingular ly
Ġsubm ission
ij ah
Ġdiscover ies
ĠPrin cipe
Ġkneel ing
ĠEM ILIA
Ġsepulch re
Ġburd ens
Ġeyel ids
ĠEug en
Ġl ined
ĠA thel
ĠM AL
od ar
Ġfear fully
men garde
ĠSh ort
Ġsuper f
with out
ĠProt ection
ĠDaw es
EDER AL
M ore
c ular
nd s
et ing
Ġ2 50
ĠO riental
ater n
Ġwr ites
ĠAl aska
Ġlo v
Ġamaz ing
Ġvers es
Ġvolunt ary
O ur
l oo
Ġh ogs
ĠA ble
Ġst ained
ĠC ooperation
pe ople
ac a
Ġso oth
Ġsha ped
Ġwor ried
Ġper chance
ĠTh urs
Ġfl uct
ĠV ir
Ġap ron
Ġac ids
Ġfore most
Ġart illery
Ġdisp uted
ĠJer ry
ĠMal ay
Ġ85 01
Ġimpro per
Ġcontro ls
ĠRome o
Ġtrave led
Ġabol ition
ĠEver dene
Ġcocon uts
Ġener get
Ġvener able
Ġblasp he
L a
Ġwe eds
am ph
Ġk ick
ĠF EDERAL
Ġman ly
Ġsha m
Ġimp ed
act ions
Ġhast en
Ġschool master
Ġaccept able
Ġprincip ally
Ġreflect ing
ĠCamp bell
intend ent
2 23
n ings
Ġg er
ist ent
Ġ_ âĢľ
ph in
27 1
IN S
U RE
| ;
Ġm att
at ra
ĠW ITH
ĠP O
ime on
ber lost
Ġpart ition
Ġbefore hand
ĠBe au
Ġdec re
ten burg
Ġpal is
Ġhy ster
Ġlog ic
boy s
Ġperf ume
Ġpref erence
Ġhandicraft s
ĠTHES EUS
ĠThurs day
Ġs ly
Ġd uel
st ane
ad ays
Ġwere n
ian ces
Ġcomp act
og y
Ġseem ingly
Ġend owed
ĠLu cius
sc ar
Ġexpress ions
book s
Ġdem ocratic
ĠFlat land
ĠBrune i
2 67
c as
p ri
v ings
in ished
Ġb ang
Ġd ol
om med
se ven
Ġan k
ĠF re
ĠD od
Ġsh oe
Ġ6 204
Ġpe an
Ġcont rived
Ġra mp
Ġsw are
Ġass ented
Ġdef icit
gg y
Ġadm on
ĠPar adise
Ġfem ales
Ġtext s
ĠSw aziland
Ġstat ues
Ġtemper ament
Ġharm on
ĠEC E
ĠJac ques
Ġtum bled
aj ik
Ġreward ed
Ġanticip ated
Ġattent ions
ĠLim berlost
Ġbatter y
Ġhaught y
ĠPom pe
ĠCLA UD
F ather
Ġre forms
ĠN ar
ĠD ave
ĠK ate
Ġref resh
ĠAr ise
Ġdeep est
Ġelect ricity
ocr ates
Ġattend ance
Ġstro kes
Ġrebell ious
ĠEr mengarde
ĠIvan hoe
7 49
C Y
ĠH ay
ĠP olly
ĠG ene
Ġle agues
Ġbeg u
Ġdeliver ance
h ill
Ġa y
Ġd ow
ĠA F
Ġst y
Ġ( _
ĠP ETR
os is
bl est
Ġra ging
Ġback ed
most ly
Ġmon k
57 03
ĠAr med
Ġdep ressed
37 8
ĠPh oen
Ġmis er
32 18
Ġquestion ing
Ġcoll e
Ġtou ches
Ġmist akes
ĠWest gate
Ġlink ed
Ġdoct ors
Ġprovin cial
Ġrust y
ĠHeb ron
ĠJeh osha
Ġanchor age
ĠThor pe
D U
st ood
ld er
la ve
Ġam iss
65 76
Ġhum orous
Ġpleas antly
Ġsleep y
Ġsouth ward
Ġbull s
ĠDou glas
Ġdus ky
Ġa ust
Ġre aches
Ġwr inkled
53 9
Ġmo ves
Ġsubject ed
ĠGu iana
Ġdischar ged
Ġextravag ant
ĠPolynes ia
Ġela psed
Ġinsign ific
Ġtwent ieth
C US
P C
l ist
t led
on ing
Ġp add
ĠA haz
ĠS imeon
ĠE re
Ġpro ves
Ġres ol
Ġind oors
ĠAt hen
53 12
Ġrest aur
ĠUn less
Ġread iness
Ġhor rors
ob ody
Ġclose t
Ġvar iation
Ġsol icit
Ġstri pped
Ġmembers hip
Ġyield ing
col oured
Ġestim ation
Ġshru gged
ĠMah ommed
Ġmant le
ĠCirc le
Ġrever ie
Ġrevere nd
H as
m ine
Ġo ars
Ġb ail
it ably
Ġf res
Ġst ress
Ġch op
67 31
Ġco vers
pend icular
73 04
head s
wor ld
ĠMus g
Ġsolemn ity
Ġfellows hip
ĠCass y
isha ble
Ġard ent
ĠCham p
ryn ne
ĠPt arth
ĠF le
ĠD at
Ġsp ies
Ġlo ath
Ġdiss ip
Ġlifet ime
M ad
k ers
Ġt ame
in ch
ot ent
ĠA U
ro ying
ich o
Ġsh ifted
ak eney
Ġfl ows
Ġpo pe
Ġacc use
Ġacc idents
ĠFor um
up iter
Ġass ent
Ġbuild ed
Ġpain fully
Ġsuccess or
ĠFair y
Ġvig il
Ġpreced ed
Ġcompet ition
Ġharp oon
ĠOt tenburg
Ġapost les
ĠBad en
Ġetern ity
t ion
Ġg ild
al so
ĠP rynne
Ġall ows
pl ate
Ġcont est
Ġdec ade
Ġconnect ions
Ġunfortun ately
Ġexcess ive
f erence
ad ation
ĠP hys
ĠCons ular
c oll
i at
v oc
Ġb rom
om ous
ĠT all
ri us
ĠC e
ĠB iodiversity
Ġ2 915
ĠP ross
ĠP AL
ĠP ED
Ġv ines
94 92
mer ing
Ġco il
Ġexc urs
Ġbes ie
ĠCha lde
iction ary
Ġrich ly
Ġgrass es
Ġgrad ual
ĠJo han
car go
Ġlat itude
Ġspark ling
Ġprophes ied
ĠGal ilee
Ġchamp ion
atisf ied
Ġillumin ated
D ay
h ot
Ġon to
Ġhand ling
Ġra cial
Ġcour ses
66 11
Ġwear iness
Ġimpl ied
Ġundert aking
Ġconject ure
OME O
Ġcourty ard
f orts
ave ndar
Ġrepe ating
Ġcurrent s
quest ion
s ized
Ã ¼
Ġs ultan
Ġb icy
Ġp earl
Ġh ier
qu iet
ĠD og
Ġpl aint
Ġsay est
ious ness
Ġsl ugg
AR US
EN IUS
47 9
Ġdisp osal
Ġcut s
ĠAnt illes
bo at
Ġesc aping
AB EL
Ġmechan ically
ĠEli jah
Ġbol t
ĠBrand on
Ġdisappear ance
Ġeloqu ent
ĠShel by
ĠAngl ican
p us
r ise
Ġc akes
ĠC hat
us ive
ĠN ant
os ph
Ġqu oted
." ]
Ġlove th
Ġcharacter ized
ĠMon aco
Ġtit les
Ġnaked ness
B rit
Ġe jac
se igneur
ad le
ac re
ĠD us
85 1
Ġcountry men
Ġsupport ing
Ġdegr adation
hut an
Ġf iring
Ġ1 40
ĠH OR
ĠB ass
ke eping
Ġv icious
Ġpro se
ĠJ or
ĠJ ond
ass ium
Ġch oked
Ġad minister
Ġtw ain
ps hire
con c
33 8
Ġmon ks
Ġequ ality
Ġpar as
Ġstri pes
Ġfra il
Ġmem orial
Ġfut ile
Ġgrie ve
ĠApp arent
Ġprejud ices
Ġwholes ome
ĠAzerbai jan
ĠJehosha phat
b red
et een
ĠH us
ĠP E
Ġun ite
Ġj un
Ġown s
ĠGod s
Ġste pping
ĠOr thodox
Ġdread fully
Ġod or
Ġsmo ked
Ġwel com
Ġscream ing
Ġnovel ty
Ġassert ed
Ġremo val
ĠRich mond
ĠAthel stane
E l
Ġw har
Ġas p
ĠM iff
ĠB ag
ĠL an
ast on
Ġcol oss
Ġstri ve
AC K
Ġoffic ially
ĠPl ain
ĠFar mer
ĠFin n
Ġemp hat
3 15
I vo
Q ue
he res
Ġh ood
ĠB BS
Ġse lection
ĠW amba
Ġro ds
Ġfound er
Ġac re
Ġcare lessly
Ġbes ought
ĠBl akeney
ĠOct av
Ġindul ged
ĠBuck ingham
Ġenlight ened
Ġcraw led
Ġsympt oms
Ivo ire
or ia
Ġg ains
ut ers
Ġr attle
ĠN at
ĠE ither
ĠR OMEO
Ġrest s
Ġem inent
Ġmain land
Ġprophe cy
Ġaspect s
Ġobst acle
ĠPoor grass
Ġadvers aries
Ġrela x
Ġex ecut
Ġ13 5
Ġmet ap
ĠRe form
AD E
Ġball s
AV E
o ire
Ġs own
Ġp ulse
ve ying
ĠS IL
ĠB ates
ĠL ore
us ions
Ġso bbing
ren ched
Ġdis reg
Ġwhere upon
ĠAs a
Ġpal aces
Ġweak er
Ġattend ant
Ġdig est
Ġassist ant
Ġmoder ated
Ġfrag ment
Ġinteg rity
Ġprodig ious
ĠMonten egro
ĠSlow ly
ĠCLAUD IO
Ġg aining
ĠA SC
ro d
Ġse izing
Ġcont ing
ign ant
45 17
Ġdark er
Ġring ing
aunt ed
ĠArm and
Ġunreason able
ĠCzechoslo vakia
id or
ro ken
ĠC ay
ĠW AS
Ġcount ing
ĠS in
ad i
ĠB all
Ġbut cher
ĠD in
ĠR aj
Ġpl ent
Ġcomp osure
iss ipp
Ġdel ayed
aven ed
68 23
Ġlow lands
Ġproper ties
Ġfort ress
Ġhorse back
Ġthick et
Ġappl ications
EM ONA
Ġroll s
Ġcord s
Ġrecon cil
Ġnin th
Ġperil ous
ĠAdmir al
Ġindisp ens
ESD EMONA
h in
ĠL I
ĠF em
res pect
19 39
Ġag gra
Ġmo ons
ĠCol or
Ġknock ing
Ġshoot ing
Ġexh ort
ĠLl oyd
Ġapert ure
f it
g reat
m uch
at an
ĠW itch
ĠV atican
ĠUn ix
ĠMon seigneur
J ohn
c ision
h u
m ered
t ra
in cludes
Ġst ored
00 69
ĠL av
ĠD ROM
ĠD ESDEMONA
Ġal ms
Ġhand led
Ġins urrection
Ġpar cel
Ġdro oping
ster dam
Ġthick ness
aff les
Ġintense ly
ĠMos cow
Ġenqu ire
Ġantiqu ity
ĠRub y
ĠTant or
ĠDROM IO
Ġt ough
Ġt angled
nd ed
ll o
ĠS l
end er
Ġnor m
79 92
Ġtro op
BER T
Ġrece ipt
Ġsoj ourn
ĠOL IV
T om
ou pe
ĠM A
Ġ2 25
ĠL avendar
od ay
ĠSpe cial
ĠHam ilton
A ye
Y PE
e enth
w ent
at en
Ġha mm
ĠA ege
im er
ĠS ac
ĠB ene
Ġv t
Ġv ag
ĠAnd or
ĠJ upiter
Ġam ph
03 30
ret ty
Ġsupp osition
Ġmo le
ĠMiss issipp
ĠUN T
Ġdest ruct
Ġfood s
Ġfig ured
Ġsal ute
ĠEd in
Ġinqu iring
rest rial
UN D
ĠBet ter
Ġhun ter
Ġrejo icing
Ġghost s
Ġnovel s
ĠSlo vakia
ĠMEN ENIUS
Ġperplex ity
2 18
E ng
ce ler
ge bra
96 69
ob ed
cha nd
Ġsou p
Ġmonot on
ĠH ild
ren chant
ER Y
ks hire
Ġpar aly
ĠGren ada
ĠMiff lin
3 25
on zo
Ġd ing
Ġd ub
Ġg al
Ġ1 01
ĠT onga
ur bed
Ġsh rimp
Ġli ver
Ġpre cept
Ġind isc
45 8
Ġev olution
Ġass es
Ġprov oke
Ġprof itable
che th
umb ers
umb ered
Ġheight s
Ġident ified
Ġinstinct ively
Ġblank ets
ĠBay nes
Ġdescrib es
Ġprost rate
ĠCarol ina
Ġbron ze
ĠHend erson
Ġl ash
Ġg ust
ĠT RO
05 76
ĠBe aut
gr ant
t oo
ĠH ann
ick er
57 2
ĠSu ite
b ish
ĠA j
ro it
ĠS od
ol er
Ġun ity
ect or
93 28
AN O
Ġste ward
Ġtrans formed
Ġconc ur
ĠAngel o
Ġthreat en
ĠFri ar
Ġped est
Ġphosphat e
2 17
Ġwh ir
ĠC RESS
ĠB read
ru its
Ġla unched
ĠAn th
Ġinc om
60 88
56 97
Ġtravel s
Ġobst inate
2 01
V OL
ind a
87 1
Ġvar ieties
Ġsqu ir
Ġearnest ness
Ġaccur acy
Ġeloqu ence
f ly
p read
u ctor
st ricken
ĠA RE
ĠT reat
Ġst agger
Ġ2 918
ĠR oss
Ġpe er
Ġdist racted
Ġbre eding
Ġdra in
54 23
Ġsn are
Ġbar rel
IC OM
36 23
Ġ200 4
Ġpal ms
ĠSha d
Ġneck s
Ġreb el
Ġlog ical
OW NE
Ġrelations hip
ĠSay ing
ĠAC CT
Ġdial ogue
ĠAbyss inia
Ġdecor ated
Ġdeserv es
ĠKitt s
Ġblem ish
ABEL LA
ĠMississipp i
P ro
er vers
Ġf f
ra its
Ġun int
64 42
Ġhead quarters
54 07
ĠLe e
ĠAb el
Ġindign ant
Ġgir dle
ĠLIST SERV
ĠFEDERAL IST
Ġ1 15
ĠL in
97 09
Ġpar adise
Ġunb roken
ĠMob ile
r in
r ite
z ig
Ġb in
Ġf iction
ĠS pring
Ġan throp
ĠF und
Ġso ckets
Ġv otes
Ġpl aster
Ġmay or
ĠIs le
24 21
Ġsur geon
Ġgu y
Ġinter mediate
Ġins piration
Ġsound ing
Ġdest roying
go vern
Ġund one
Ġaston ishing
Ġdise ases
Ġindul gence
ĠXV III
ĠBER OWNE
ĠHart field
Ġtransg ression
Ġextingu ished
ĠASC II
2 90
Ġor phan
Ġsp orts
Ġper pendicular
Ġpass over
Ġcount less
AR T
ĠDe ep
Ġprof ane
Ġhyp othes
ĠCRESS IDA
e cess
ĠH at
ĠF r
Ġhead ing
95 1
ĠDe ad
Ġins urg
gra ve
Ġshr ink
A p
e au
m ity
Ġwe ars
Ġan te
ĠE lf
um sy
Ġsh ower
itt y
Ġper verse
cess ion
ger y
37 0
Ġcent ers
Ġred dle
ĠPr uss
ĠAb u
Ġpossess ing
Ġpen it
clus ions
Ġaut on
Ġbreast s
Ġox y
Ġobst in
Ġunus ually
ĠCart on
Ġenlar ged
Ġinterpre ted
UCH IO
5 45
7 60
d ers
s aw
Ġh uts
ĠB ord
Ġcon form
Ġpre lim
Ġapp les
Ġaw ait
49 63
Ġkiss es
sha l
Ġstro de
ĠXV I
Ġnegro es
ĠPAR T
Ġfow l
Ġcaval ry
2 88
ĠT ry
os c
ĠJ eddak
Ġatt orney
ib al
ĠSo ft
86 1
Ġsweet est
Ġfaith fully
ĠTr uth
eel ing
Ġexert ion
ĠHawai i
4 10
5 20
E Y
P lease
b ug
l is
Ġc ore
Ġp harm
Ġd ar
Ġl onel
Ġth igh
ad vent
her ic
il k
Ġso ph
ab s
bl ood
Ġla unch
Ġtra v
Ġwar fare
55 71
Ġbu cket
57 19
54 21
Ġpublic ly
ca ution
Ġmed ia
Ġvict ual
Ġmood s
Ġirrit ation
Ġautomatic ally
Ġcove t
Ġau ction
Ġcatast rophe
ĠJond rette
ur ous
ĠC ott
Ġv ind
Ġsha bby
ĠPr ice
Ġstri ving
ING S
Ġfaire st
Ġoverlook ed
Ġcontrovers y
? --
c use
Ġfe at
C our
S G
f ed
p ot
r iment
Â °
est ab
ĠN ation
Ġsh ipping
ĠO pp
un ity
ĠSt one
Ġhow l
Ġreg ime
Ġfin ance
42 26
Ġmis under
ĠCha irman
ĠMan ette
Ġkiss ing
Ġfright en
Ġexpress ing
Ġcouncil s
ĠAch illes
Ġpersist ent
Ġadul ter
Ġadorn ed
Ġuneas iness
ĠPETR UCHIO
4 24
Ġb og
ou ched
Ġm ul
pe ction
ĠL ane
Ġdis l
Ġlaw yers
Ġproject ed
Ġrob es
ĠANT IG
Ġexhib ition
Ġrecon c
Ġuncertain ty
Ġdisgu ised
Ġalle ged
Ġbeg ging
Ġmem orable
Ġeduc ational
Ġta vern
ĠDomin ica
Ġtranqu ill
8 65
B er
i ants
o ks
p ence
u be
Ġw ides
Ġha gg
Ġ1 24
ĠT ir
ĠS V
ĠC ote
am en
ĠL is
ĠN ord
Ġab bot
Ġthere after
Ġun se
Ġfl att
Ġra ck
Ġcar b
amb o
Ġmot ions
Ġtreat ise
Ġtast es
Ġ54 07
Ġrub bing
Ġuns us
ĠBro ok
164 0
Ġdun geon
ĠFore st
ĠLow ick
0 91
Ġb ot
im per
Ġre he
Ġan ew
ĠH osp
el and
ĠJ ones
Ġgl aring
Ġext inct
Ġass ail
75 6
56 12
ĠMay or
ĠLat via
Ġep is
Ġexhib it
Ġsurv ive
Ġrepet ition
E PH
m ate
ĠM useum
33 72
35 10
Ġpriv acy
Ġdescend ants
adel oupe
W ait
Ġh oof
ĠT imon
ill on
ĠP ORT
Ġab bey
Ġfa iling
Ġcl umsy
Ġpe ered
Ġcomp ounds
Ġra g
ĠSt ay
Ġtra ins
ĠAl t
Ġter restrial
66 1
ĠEx cept
rop ical
ING HAM
esh ip
ĠPers on
Ġdecl ining
Ġresem bling
Ġfil thy
ĠTurk men
Ġsignific ance
Ġtoler able
Ġrepeat ers
Ġswell ing
Ġol ives
Ġdisple ased
ĠVan uatu
Ġphenomen a
Ġdyn asty
Ġbalcon y
ĠAble white
Ġwides pread
Ġm and
is en
ĠT a
et ary
la v
89 98
Ġrel ish
30 98
ĠWhere in
Ġfruit ful
Ġroof s
ĠAch met
ĠLie chtenstein
ĠSaw yer
Ġfug itive
Ġnewsg roup
C ESS
g il
Ġ Â
ĠA w
ĠC AL
Ġso bs
Ġfl ing
Ġkeen ly
Ġling ering
Ġcel estial
s ame
w ave
it ory
Ġm az
ar iah
Ġd itch
Ġre ap
ĠH ark
Ġsa ll
ĠD ost
ist a
os ce
Ġun av
Ġpl ank
Ġres isted
Ġra p
Ġgra ven
Ġhel m
Ġspo on
ĠRe union
Ġexcept ions
OU T
Ġjo ining
ĠDor a
Ġcoun sell
Ġexpress ive
ĠBet hel
cer ity
ĠInst antly
Ġendeav or
Ġhurried ly
Ġdesper ately
Ġirrit ated
ĠHO ST
Ġsymb ols
Ġabol ished
Commun ist
Ġcass ava
l en
ĠW are
Ġcom forts
ĠF ate
ĠD ark
we ed
Ġsc rat
Ġco als
ans as
ĠX odar
Ġacqu ies
Ġsucceed ing
Ġfro ck
Ġrese ar
Ġment ally
Ġwreat h
Ġinadequ ate
0 82
v itch
ri ah
ĠW ord
Ġv ot
ceiv able
34 6
Ġpred ecess
Ġwhist ling
P h
Ġt iss
Ġt ails
Ġb omb
Ġc ud
Ġp ouch
ĠS ina
ur ation
ĠC AN
Ġk icked
ak i
Ġch illed
ian cy
ĠTh orn
oll e
Ġrep ented
Ġchan nels
Ġrest raint
28 11
Ġfire place
Ġsin ner
Ġdig ging
Ġlog s
Ġhun ters
Ġprotect or
Ġlan es
Ġdrought s
iy ah
Ġpest ilence
Ġproced ure
b urn
c ou
Ġ1 18
ĠS ax
Ġse wing
91 49
ES US
Ġins pection
Ġgent leness
Ġsever ity
Ġrespect ively
Ġmem or
Ġdomin ant
ĠLouis a
Ġnin eteen
ĠVAL ENT
Ġpear ls
Ġconspir acy
âĢ ¦
Ġnot able
ĠG az
han ging
Ġout st
Ġim pe
Ġreg ained
Ġmaint enance
815 9
2 95
it arian
or ters
Ġp sal
Ġsu ms
ĠG om
Ġsh ivering
Ġsay ings
Ġfl or
Ġlast ing
44 1
Ġref usal
Ġcr ust
Ġsin cerity
Ġbull ets
Ġtrad es
ĠHead er
Ġlack ed
Ġmultip le
ĠEle azar
Ġscr atch
ĠNi oche
Ġfertiliz er
ĠLithuan ia
Ġsecre cy
ĠAege an
0 86
u er
Ġf ists
ĠT our
ĠM ord
ĠM ER
ĠC aval
ĠO b
os a
Ġcr ush
Ġsk ilful
Wh ich
ĠEd gar
Ġbless ings
Ġpresident ial
Ġreck less
Ġtravel ing
Ġobed ient
Ġattent ive
Ġtun nel
Ġmarvel ous
Ġimprison ment
Ġannounce ment
ĠAppe al
Ġprover b
4 43
A W
T ION
en c
Ġlad en
cast le
Ġspecul ation
B l
b ound
Ġw ot
Ġc ripp
or ph
Ġ1 07
Ġher mit
ke red
Ġcon clusions
ĠR affles
ag ain
Ġlight ing
57 0
Ġins uff
Ġhome ly
Ġperson nel
Ġcreat ing
Ġdem on
Ġmeas uring
Ġrecogn ised
ĠTO BY
Ġimpl ies
Ġascend ing
Ġgest ures
ĠPRO T
ĠLUC IUS
Ġresign ation
Ġscrib es
Ġgw ine
4 93
f ull
ĠC AM
ĠH olland
ĠB omb
ĠW u
Ġall ies
ĠD oc
ĠIn stitution
ert on
44 9
Ġdou bled
ĠAb bey
Ġrad iance
ĠElect ronic
udd led
ĠScot ch
Ġecc ent
Ġbloss oms
ĠCOR IOL
Ġsurre nder
ĠTay lor
ĠCORIOL ANUS
er set
en cing
Ġas yl
Ġsp acious
Ġgl ided
Ġ16 0
Ġbright ly
ĠPaul vitch
2 85
Ġs ession
Ġw ail
Ġm it
Ġm onsieur
Ġm uffled
Ġl ac
Ġhe ave
Ġn un
Ġbe et
il ess
oo le
ĠW ald
Ġex it
Ġdo d
Ġint r
Ġcan e
Ġpl ough
ĠShe ik
Ġpre caution
Ġcons cient
for ward
ĠWe ym
Ġlo af
73 60
irc um
Ġ200 2
Ġtend s
cons cious
ih n
ĠNap les
Ġdeliber ate
Ġpenet rate
FA F
ĠCAR ICOM
Ġgn aw
ĠTow ards
itiz ens
ĠChalde ans
ĠWeym outh
D OS
U K
l ittle
ĠH ans
ĠF BI
Ġup l
Ġthem e
ĠSt e
43 28
36 19
Ġappear ances
Ġmaj estic
Ġcompl iments
ĠKen ned
W est
Ġ1 45
Ġinfl icted
ĠSh ip
ĠSom erset
S en
m od
Ġe ther
ĠM ort
Ġ2 010
Ġdo ve
Ġover board
ĠV ienna
Ġear l
Ġco ating
ĠMar quis
Ġhome ward
Ġbelie ves
ĠCha g
Ġhot els
ai res
Ġincre ases
Ġobl iv
Ġpot ent
Ġimm ig
Ġrepublic an
Ġinterp osed
Ġfix ing
Ġdilig ence
Ġenqu ired
Ġfest ival
ĠHEL ENA
Ġstu pe
ĠFlor ida
Ġful ness
Ġindispens able
d ling
Ġg ap
ĠA ri
th ose
if ice
ĠR en
Ġint rud
ĠAs k
44 16
Ġworld s
ĠZ ek
Ġgrand eur
Ġexcell ence
Ġwear ied
Ġenthus iastic
ĠM ug
ĠC her
Ġoccur rence
Ġvan qu
Ġcheer fulness
ĠComor os
b ihn
c ur
on ce
Ġit em
Ġan oint
ĠH un
Ġsu icide
ab leness
Ġint rig
Ġj am
Ġwork men
Ġwar like
Ġrest rain
Ġred ou
ĠAb ram
Ġsign ature
Ġfr owned
Ġdisp atch
ĠJer icho
Ġpract ices
ĠTy re
Ġpot assium
ĠCons ervative
Ġvain ly
Ġpassion ately
Ġprofound ly
Ġloo sed
Ġvir uses
ĠRight s
Ġrhy th
ĠAmor ites
ĠEdin burgh
Ġb achel
it ives
se ts
Ġst ricken
ĠK abul
ES AR
AT ES
Ġport raits
ĠSy n
Ġrepeated ly
Ġsan ction
ĠPal mer
Ġprompt ed
812 8
ĠHom er
ĠMold ova
Ġs ciences
ĠC R
el ine
alk land
33 0
ĠWell ington
ĠPart s
ĠSoul sby
5 06
C ol
g ory
in us
Ġw are
ha i
Ġfor k
ĠB ear
ĠW ait
ĠR ox
19 05
ĠU zz
Ġimp osing
Ġwr oth
45 09
ĠLe ave
Ġbeaut ies
Ġ200 6
ĠAm sterdam
ĠCons ider
Ġdim ensions
Ġterrit ories
Ġalar ming
Ġpersu asion
ĠJon ah
Ġwretched ness
Ġens ued
Ġreserv es
Ġvap or
ĠSel ah
Ġwhirl wind
Ġpoo rest
Ġunsu ccess
Ġgramm ar
osce les
2 15
ĠP D
ol itan
ue ville
orn ing
Ġdisc ord
AT R
Ġ200 3
Ġobject ed
Ġclass ical
ĠMor land
Ġmaint ains
Ġsigh s
Ġstuff ed
LA V
Ġenlar ge
t ake
54 1
Ġmult itudes
sha d
B el
C A
p at
Ġp av
se as
gh um
Ġfor sooth
Ġas ks
ri ft
ch lor
Ġshe pherds
Ġkn ives
Ġsp out
mer ie
Ġap ology
ĠAl c
Ġfore see
Ġcur sing
Ġ10 8
Ġeff icient
Ġdri pping
Ġdet ailed
Ġprofess ed
Ġtreas ury
Ġstick ing
Ġrob in
ĠBer m
ĠThan ks
Ġrout ine
Ġcompanions hip
Ġobst acles
Ġpier cing
Ġthirst y
Ġvel ocity
Ġflatter ing
Ġswim ming
Ġflu id
Ġtreacher ous
Ġenlight en
ĠStan ley
ĠDarn ay
endar merie
VOL IO
ĠPROT EUS
b as
n ine
o ken
ĠA u
ĠB our
ĠB IS
ĠF ortun
Ġper v
ĠK ant
Ġsl ide
omet imes
54 82
ĠMal d
ĠSee ing
Ġsumm ons
Ġtro dden
Ġqual ified
Ġpilgrim age
ĠKazakh stan
Ġmonoton ous
ĠVALENT INE
ĠKenned y
M e
h ips
l ove
Ġb aff
Ġan onymous
ĠH orse
Ġform at
Ġpost erity
Ġcopy right
Ġwaist coat
Ġconfident ial
6 843
b ased
c ence
i ors
o ine
Ġ .âĢĿ
Ġt as
in ently
Ġw ipe
Ġp ony
Ġn ook
ion e
ĠT ig
ĠH umph
ĠW oven
art e
Ġsp ed
Ġam ended
Ġqu iver
bl anc
Ġhar b
Ġexc ite
Ġwa xed
Ġsing ers
Ġed itions
IT Y
Ġbright er
bey field
othe red
Ġstro lled
Ġlux ur
ĠArmen ia
Ġpulp it
Ġinspect or
ĠSerb ia
ĠFeather stone
Ġsar cast
Ġpean uts
4 64
Y M
b est
Ġw ither
id ious
se at
ĠO wn
Ġnow adays
Ġpe ering
Ġent ers
Ġsystem atic
ĠCon vention
gy z
Ġve he
Ġpit ied
Ġlower ing
Ġmor als
Ġshadow y
ĠApoll o
Ġreconc iled
h igh
Ġc em
ig ation
ĠR un
ens ively
Ġdev ised
Ġreason ably
Ġmeet s
Ġexpress ly
Ġpack age
van gel
6 144
f if
Ġf oll
Ġf ainted
Ġp upp
Ġre ared
ĠB and
ĠB UCK
Ġk et
ĠG ON
ĠE g
ck er
ian g
Ġcomp romise
Ġsub ter
54 8
Ġinv olve
ĠAb imelech
oud a
ĠAg ricultural
Ġsal es
medi ately
fl ies
Ġincre asingly
Ġlad s
ĠMal bihn
Ġfle x
Ġdwell eth
Ġkey board
Ġcost ume
key s
Ġaffect ing
Ġpolit eness
Ġvine yards
Ġhyp ocr
Ġhydro gen
amil itary
Ġtick et
ĠLE ON
Ġsuperst itious
Ġmol ten
Ġanatom ical
at ible
ĠS EN
ĠC oc
ĠC aled
ĠH op
ĠN aval
ĠF itz
ĠO NE
Ġsp ar
ĠShe ep
ĠShe pherd
Ġ9 00
Ġsur pass
Ġgu ides
Ġvis age
Ġvirt ually
Ġdiscuss ing
Ġbab e
ĠLong ueville
Ġadvert ising
Ġprud ence
ĠSU FF
Ġrequis ite
N e
r ound
Ġf itting
Ġlab ou
ĠTit us
3 234
4 250
< <
w estern
Ġs ane
it age
ĠT ran
Ġfor cing
ro gen
Ġal gebra
Ġun le
pl an
Ġper ched
ĠK al
Ġshould st
Ġind ication
eg es
ĠZ ara
Ġchar med
Ġfin ishing
Ġpar ag
Ġfur iously
che t
ĠCan al
AM ON
Ġmor bid
Ġbab ies
ĠHam pshire
Ġlit ter
ĠDou g
ĠCass io
Ġstoo ping
Ġstum bling
ĠWater loo
Ġcrou ching
Ġvex ation
Ġfoc us
ĠSie ppe
ĠPAND ARUS
ĠPompe y
ĠColor ado
Ġreddle man
2 77
6 90
s op
ĠT oday
id o
ĠS i
if erous
ĠN av
Ġex terior
Ġun rest
AR B
Ġcap s
Ġinter l
min ation
Ġill usion
Ġph osph
Ġjoy s
Ġdeli very
Ġgrass y
Ġattend ants
St op
Ġengine er
Ġsettle ments
Ġunexpected ly
yr gyz
G H
ĠT ajik
ra b
ĠC ustom
ant ing
Ġincl ine
Ġval ues
Ġrev ised
ĠTe xt
Ġappreci ation
ĠSE X
2 63
3 831
7 925
R ail
s ar
Ġw i
Ġb oo
Ġm es
Ġm art
as a
Ġg inger
Ġg opher
et ers
ĠS inton
am m
Ġv oc
ort e
Ġj ug
Ġcan on
Ġsc roll
Ġsomet ime
ĠBe at
AL LOW
OL A
Ġmag ician
Ġshut ting
Ġemer gency
lar gest
Ġblank et
ĠPet ers
Ġneat ly
idel ity
Ġbloss om
ĠDur beyfield
girl s
Ġshrie ked
ĠBudd hist
Ġmetall ic
ĠEu ph
Ġunequ al
Ġlegit imate
Ġsuperfl uous
Ġindist inct
-_ -_
ĠBUCK INGHAM
2 03
Ġd row
ĠS ib
ĠS ocrates
Ġr im
Ġv iolet
Ġun he
Ġref ers
isc op
Ġut ility
Ġoper ator
Ġabund antly
Ġgrin ned
Ġsway ing
ĠS O
Ġas under
ĠW oo
53 8
35 4
IC A
Ġcontempor ary
# |
6 637
b en
m ined
s in
w ife
| !
Ġthe ories
Ġbe re
id ance
ĠThe od
Ġde pl
ĠG endarmerie
Ġpe b
Ġsc enery
ale k
ang o
Ġac ademy
Ġhum iliation
ĠZ ed
Ġdef ended
Ġbus hel
Ġshort ages
ĠLe blanc
Ġmer cies
by ter
'' ;
ĠCent re
Ġfashion able
Ġphilosop hers
Ġess ence
Ġendure th
Ġsect ors
bu ilding
ĠEve lyn
Ġsor ghum
imp osed
Ġpip es
Ġwelcom ed
advent ure
P O
V M
b od
on ation
ith met
ĠH ug
ĠL ear
Ġun pro
Ġcha sed
iss a
Ġhouse keeper
43 1
ative ly
rit es
Ġrel atives
Ġconst rained
Ġalong side
Ġexpl aining
Ġpay s
Ġax is
new s
ĠFri end
amil iar
Ġrecover ing
Ġvir us
Ġrela xed
ĠRob in
Ġmagnet ic
Ġglob al
ĠFreed om
d og
Ġsp an
ĠU P
Ġrevolution ary
Ġdrift ing
Ġshat tered
4 07
5 948
e em
Ġa cet
Ġs urn
Ġto es
Ġp ots
Ġl id
Ġbe ware
Ġth rall
ce ae
ri um
ĠB road
Ġsa ge
Ġsu nd
ĠD om
Ġman e
Ġthere to
Ġun anim
Ġam mun
Ġbl ushing
Ġcha nt
ĠSt ri
Ġadv ances
Ġsol ar
isc illa
ĠCommun ity
Ġeng ines
ien ces
Ġ38 23
ĠSuff olk
Ġuns peak
Ġaffl ict
Ġsplend or
Ġchat tering
Ġcla pped
Ġtroubles ome
Ġattrib ute
Ġwhit eness
Ġclut ched
Ġbefall en
Mer chant
interest ed
Ġambass ador
Ġree lected
5 073
an se
Ġun god
ĠInd ies
Ġbu oy
Ġheav ier
Ġcompet ent
ĠCA ESAR
m are
Ġs ings
ĠB hutan
all ow
ĠCom mer
Ġundert ook
Ġregret ted
ĠNich olas
Ġfaire r
ĠIv ory
0 80
8 137
et rius
ĠS pr
ĠC D
ĠC are
Ġr he
ord ered
Ġhand maid
Ġimp enet
cha e
ham med
Ġfoot wear
Ġfac ility
Ġlabor atory
ien ne
Ġvan ish
Ġcustom er
Ġsubst it
Ġthreat s
Ġproc ured
hem la
Ġproof s
Ġlap se
Ġeste emed
Ġmoist ure
Ġdazz ling
Ġunacc ountable
Ġsyll able
ogra pher
ipelag o
rast ructure
ĠPED RO
Ġlonel iness
Ġammun ition
2 19
b eth
u ber
Ġw ires
Ġall usion
ab y
ĠR ud
Ġkn it
pend ing
Ġside walk
de f
pr ot
Ġunc anny
Ġtop ics
Ġstat istics
Ġadj acent
ĠSy rian
Ġfasc inated
Ġearthqu ake
Ġsoci eties
Ġunin habited
Ġresolute ly
ĠMald ives
Ġd ated
st ad
ĠA LE
ĠU sed
Ġdis obed
ĠK n
ĠWor ks
7 132
9 93
G L
P D
o one
w ire
ut ter
ĠS ure
Ġnot icing
Ġcom ments
ĠN SA
ig o
ear th
Ġsp it
Ġres ume
Ġgl ove
Ġsec urely
Ġdisc reet
Ġinv ested
Ġred emption
Ġmount ing
Ġobs ervers
Ġve in
Ġsweet ly
Ġinfl ict
ĠDem etrius
Ġ84 19
Ġaccept ing
Ġtreat ies
Ġlen gthen
Ġsubst itute
Ġspring ing
Ġpubl ishing
Ġhabit ual
Ġempt ied
ĠMid ian
Ġcontrib utes
Ġpoll uted
Ġshel ves
ĠPAR OL
foot ed
ĠHack ers
ĠTest ament
Ġrecomp ense
Ġmonaster y
ĠPAL AMON
Ġoxy gen
ĠZara hemla
4 970
5 05
G EN
N H
c ross
d les
Ġa ye
le vel
ĠS perm
AN C
Ġmet rop
Ġprof ile
Ġfold ing
Ġstor age
Ġdyn am
Ġvehe ment
p oor
ll s
ĠT aking
ĠT renchant
ĠC ousin
ĠN aur
Ġcur ls
33 2
Ġair s
Ġfine ly
cul es
ete enth
0 97
5 272
D isputes
g au
Ġp i
Ġbe ads
ĠT ang
Ġwh iles
Ġher bs
Ġr ider
ĠN ab
op per
ine as
bl eness
ach ment
Ġear ners
ĠAl ready
Ġreg ulation
cha l
ĠSp ani
uc le
Ġve ter
ĠOcean ia
Ġsuper natural
Ġwrong ed
Ġjudge ment
Ġstream ing
Ġsand s
Ġgrat ified
Ġhonor able
Ġglor ified
Ġrender ing
ĠJul ius
ĠBo hem
Ġfo am
Ġsche mes
ĠBalt ic
Ġweigh ing
Ġpilgr ims
Ġwhore dom
Ġvigor ously
Ġcyl inder
ĠCroat ia
Ġphilosoph ical
Ġmete or
ĠAttend ants
ĠPAROL LES
C om
V I
u ence
Ġthe ore
Ġv ouch
ĠR om
Ġpe rem
Ġtr unks
Ġconf ine
Ġel im
hold ing
Ġfra grant
Ġflo at
Ġvers ions
Ġpin ch
Ġcollect ions
Ġentreat ed
Ġmock ing
whe ther
Ġsincere ly
Ġmathematic s
ĠAnth ony
Ġperem pt
Ġher itage
Ġ2 10
op en
ĠR ick
ag g
ult ure
ps es
Ġundert aken
Ġlic ense
Ġillust rated
7 034
7 896
B RO
M AD
b read
v il
w ana
Ġs itt
Ġw ate
Ġb ung
at ical
Ġd io
st en
Ġre ed
ad ab
ĠC ame
ul ing
ĠL og
ĠG ide
ĠG oth
Ġint ending
Ġdis ciple
ĠShe chem
ip zig
aut ions
Ġdiv iding
Ġchar ging
Ġsign ify
Ġpret ending
Ġappro bation
Ġsqu at
Ġant ique
Ġcou rier
Ġconce it
Ġyield s
Ġdiscover ing
Ġnod ding
Ġfil m
ĠSH ALLOW
ithe e
Ġalumin ium
Ġbrisk ly
ĠFerr ari
ĠSloven ia
ĠKATH ER
ĠSUFF OLK
Rail roads
2 25
3 07
M L
e lect
Ġt acit
Ġb ored
Ġp amph
Ġ1 30
ĠM UR
ĠN O
ĠE vangel
ong s
Ġbig gest
ask ets
Ġprogramm ing
Brit ish
c ry
Ġg em
ĠB ureau
Ġri p
cy cl
Ġalt itude
Ġstern ly
ĠAmb rose
ĠMug ambi
! )
3 87
5 229
8 650
c omb
t eth
Ġo ats
Ġm ac
Ġm oust
Ġc ad
Ġd ined
Ġd orm
Ġd uly
an throp
ĠT AL
Ġst aves
ĠP to
Ġun st
wn y
Ġpr ithee
Ġfl ashing
Ġimp act
ors hip
Ġac he
Ġexp orter
ĠSe venth
Ġ10 9
55 1
Ġfact ories
ĠPr iscilla
ĠAb ner
Ġdev ise
ĠEl isha
Ġstart s
Ġpriv at
Ġfra m
Ġproceed s
Ġhol iness
Ġslave holders
Ġod ious
Ġadmir ing
umber land
ĠAR C
Ġshield s
Ġsimpl est
Ġshell s
Ġdisturb ance
Ġpolite ly
Ġfrown ing
Ġcomplaint s
Ġgru nt
357 9
ĠAff iliation
Ġimprison ed
Ġapproxim ately
ĠDesp ite
ĠUzbek istan
ĠFem ale
2 84
F P
Ġhe aling
Ġ1 13
Ġre cl
ĠC ru
ĠC hem
ĠThe bes
el a
Ġac celer
ins on
Ġmer chand
Ġexcept ional
Ġsitu ations
ĠPl an
Ġsnow y
Ġresem ble
Ġestim ates
Ġattent ively
Ġdisli ked
ĠYor kshire
Ġnorm ally
Ġn ets
ut or
et ery
Ġar ising
ĠIn s
rit able
AR Y
Ġsat in
55 9
sp read
yd ney
Ġtail or
0 909
7 886
l ie
m id
o i
v acant
or o
ar in
al most
Ġr ites
ĠE PH
ag ged
Ġro pes
Ġcl ue
Ġdist ances
Ġgrow ling
Ġinf rastructure
Ġdel ir
Ġdef ile
Ġinv aded
Ġsn ug
Ġgard ener
Ġinhabit ant
Ġpir ate
Ġcandid ate
Qu ite
ĠArmen ian
ĠCASS IUS
Ġinsect s
Ġdiscrim ination
Ġhurric anes
Ġdiscoura ged
b able
t r
Ġg ib
ĠM omb
ul ously
Ġ2 65
Ġal oof
Ġen umer
ĠK in
ĠAN G
Ġviol in
Ġmagn itude
Ġfeast s
Ġsurv ived
Ġscan ning
Ġmarty r
Ġcoloss al
g room
Ġl ull
ĠCha p
Ġign ored
AND ER
ĠBul an
Ġrab bit
ĠHild a
4 073
g as
Ġa qu
Ġm ates
Ġc ogn
Ġd y
Ġd erv
Ġbe ets
ur i
ĠB oul
pe cial
Ġsh iver
Ġpro d
ru ck
Ġen veloped
iz able
Ġri bs
Ġsc ales
ject ion
Ġcur ved
Ġgu idance
Ġass uming
Ġstr ay
Ġins ane
Ġdef er
min ent
de en
ĠSc ript
ĠAm alek
Ġsqu ad
Ġbow ing
Ġcost ly
Ġgen ial
Ġsanct ify
Ġlament ation
Ġprecip it
Ġdiscern ed
ĠWH ICH
Ġprec autions
str ong
ĠÃ Ĩ
Ġsack cloth
ĠAlb any
Ġnurs ery
Ġchoo sing
ĠClaud io
ĠEugen ia
ĠEPH ESUS
R ead
S w
t les
Ġ --------
Ġa ft
Ġto ilet
im ble
Ġex cluded
Ġun gr
Ġbr utes
ark s
ĠMar iana
AT OR
Ġfirm ness
Ġsuppl ication
Ġlil ies
ĠFeder ated
Ġsuperf icial
ĠG ate
ĠD um
ĠGu ide
Ġasyl um
. ];
j ar
Ġt et
he e
Ġb a
ar ians
Ġh ull
Ġha iled
ĠB ala
Ġse eth
ĠF O
Ġso bbed
um en
ĠO S
ĠO u
ak im
Ġun h
ack s
Ġhand y
Ġra ced
ang ular
Ġco ins
ace ut
Ġgra ces
Ġhum ili
lt ered
Ġann ih
Ġver itable
spect or
Ġdisapp oint
Ġcontrib ute
Ġflour ished
Un ited
Ġloo s
ĠJan et
Ġmant el
Ġlou ng
Ġtreacher y
Ġdiscont ent
ĠThur id
Ġadvoc ate
ĠLay er
Ġcollap se
Ġsolic itude
3 01
I AM
s im
Ġ2 15
Ġr ats
ĠF all
ĠD over
Ġor che
Ġfl attered
be en
73 6
Ġdi pped
ĠMore au
Ġspec ified
Ġmaint aining
ĠSund ays
Ġemer ging
Ġcu ps
ĠANTIG ONE
w orn
ĠC el
Ġrest rained
ĠMed lock
Ġhero es
Ġhint s
3 55
b oth
t i
} ;
Ġm ature
Ġy o
Ġst ony
ĠP U
ĠL ys
ĠE U
ĠY u
me as
Ġpat ent
Ġoccup ies
Ġrespect ful
Ġsett ling
ĠFl ushing
uls ion
Ġcompl ained
Ġgar rison
ĠMor gan
ĠSol id
Ġdecl aring
Ġredu ction
Ġhom age
Ġdoct r
Ġpant her
Ġcryst als
Ġfasc inating
Ġtel net
ĠOz one
char min
ĠPur itan
ĠEz ra
Ġcandlest ick
ĠMb onga
Ġparag raph
ĠZed ekiah
5 95
M other
g us
Ġhe n
Ġhe aped
Ġbe e
Ġsa fer
ĠR ather
und ered
Ġinst all
Ġform ula
Ġcr adle
ĠAr ras
Ġcollect ing
Ġsuperst ition
ĠGard en
Ġsurround ings
yrgyz stan
E K
ĠS PE
Ġper ils
Ġcr ushing
Ġill ustrious
ĠThan k
ĠRes earch
0 89
3 05
8 93
T ur
p erson
Ġt ant
âĢĻ .
Ġst ocks
Ġk ern
Ġse w
ke e
Ġle ctures
Ġ5 208
ĠK o
oy en
ug ar
IN T
Ġinde bted
ĠHow beit
ĠAd on
68 1
Ġill egal
Ġbehold ing
Ġcra wl
ĠScott ish
AB LE
Ġmill s
Ġestablish ing
Ġperform ing
Ġassoci ations
Ġ95 06
bur st
Ġinit ial
ĠBO Y
Ġprem ises
Ġther m
ĠWall is
Ġantagon ist
ĠCad wall
ĠBEN ED
ĠMicr onesia
5 85
E ven
m ill
m ons
or i
Ġn asty
Ġ1 33
Ġst unned
ag n
Ġdis in
Ġra cing
Ġhapp iest
Ġhard ness
aw ai
Ġpat ches
Ġtrib al
Ġtrad er
Ġacquaint ances
Ġech oes
Ġfasc ination
Ġrud dy
ĠTIT US
Ġinsignific ant
ĠTreat y
F OR
il ated
Ġjud ging
73 2
Ġdri ves
ĠQu ite
ĠSol a
Ġtranquill ity
c ro
p a
u et
Ġthe ology
is an
Ġd ensity
ĠA ouda
ĠT us
âĢĻ âĢĶ
am ped
ĠP owers
Ġr ouse
ort ing
19 03
ell ing
ran ces
ide o
pl ay
te ch
Ġop ens
Ġside ways
Ġexc av
Ġstr at
ĠAr c
Ġdr ums
ĠNot withstanding
Ġfast en
Ġoblig ations
Ġ| #|
ĠHam let
Ġpor ters
ĠOff ic
Ġharp oone
Ġinvol ving
Ġaven ge
Ġmeth inks
Ġdestruct ive
Ġm ak
is y
ĠS ydney
Ġqu ot
ĠV OL
Ġsl ipping
Ġve nd
Ġrespect ing
Ġforg iveness
Ġsqu ares
Ġdesert s
ĠQu ar
ĠPl ant
Ġmock ery
Ġnewsg roups
ĠMusg rove
F R
v re
ĠE merald
ĠMus ic
Ġnin eteenth
Ġchal k
" ;
3 93
I EL
s ight
Ġo min
Ġw ailing
is eth
Ġth o
Ġst er
ap a
Ġfa ils
Ġper cept
Ġpl ight
Ġrem ot
Ġimp ly
Ġhere to
ĠWh ilst
Ġbo iled
Ġhel met
Ġpoor ly
Ġpleas es
over seas
Ġexcept ing
Ġoper ate
Ġstat ements
Ġstar ve
ĠIS ABELLA
Ġfil th
ĠConst antin
Ġoverth rown
Ġbarbar ous
ĠDa ae
ĠCra ven
Ġguar ant
Ġpalis ade
ĠCadwall ader
O ther
s l
Ġm oths
ĠF RE
Ġpl ump
Ġpe pper
Ġsupp lement
Ġappro aches
Ġcop ied
Ġund ulating
work ing
Ġutter most
Ġpursu its
Ġimprove ments
Ġstoo p
Ġwing ed
Ġrevere nt
Ġpha se
ĠJUL IET
re ement
Ġto e
Ġre ced
ĠC row
Ġ2 75
ĠL ily
ĠGu adeloupe
Ġgovern ors
ĠSen ator
Ġaccur ately
Ġsurvey ed
Ġascertain ed
ĠPH IL
Ġora cle
2 92
3 16
A X
z b
Ġt ire
Ġt int
in als
Ġs arc
ou g
Ġm ason
es p
Ġd ome
id en
ĠB rian
Ġher ald
Ġsa p
Ġsa kes
Ġare na
Ġsha ggy
Ġar ched
ber ries
ĠTh ing
Ġ6 104
ne zzar
Ġhar den
ug ging
Ġrest oration
AN AL
ĠUn ions
Ġ13 6
ĠRe h
Ġproduct ive
'' ),
74 6
Ġclear ness
Ġshad ed
ighb ury
Ġutter ing
sc ore
Ġur gent
ĠAND RE
Ġaccident ally
ĠWhe never
Ġsul phat
Ġpattern s
Ġdemonst rated
ĠNebuchad nezzar
ĠARC ITE
4 94
b ath
u ing
v ice
ll e
ĠP oss
ĠR id
ĠZ od
Ġair y
Ġsn ap
Ġfac il
Ġperiod ic
Ġsubs cribe
Ġunp re
An ne
ĠWil f
ĠDie go
Ġpeep ed
an zib
Ġ1 17
ĠS A
ĠW OR
ĠN ine
Ġsha res
att ing
AS TER
Ġblind ed
Ġcaut ious
Ġvictor ious
Ġusur p
3 13
3 80
I MO
g ated
p in
w omen
x ter
Ġc ust
en cer
Ġg ems
al ds
Ġ1 47
ĠA in
Ġre ly
il er
ĠF il
ak y
Ġsp ont
Ġsp erm
Ġgl owed
ER D
Ġ9 65
ĠCh ildren
Ġrel inqu
Ġmed itated
Ġguard ians
Ġder ision
ĠMon charmin
UN IX
Ġpopular ity
Ġaffl ictions
Ġcart ridges
Ġric her
Ġlun ar
Ġinteg ration
Ġbust le
Ġdishon our
Ġencir cled
Ġreef s
rehens ible
Ġhagg ard
ĠChag ny
ĠHumph rey
Ġrhe um
ĠBENED ICK
2 86
3 04
ri que
Ġsa g
pe ls
us er
Ġall uded
ĠO scar
ĠEnglish men
Ġmus cle
IL US
rupt ed
fortun ately
ĠJos iah
ĠHung arian
Ġresc ued
Ġshr inking
ĠTRO ILUS
" --
# #
Ġha ze
et ry
ĠHer o
ĠEst onia
Ġcem etery
4 77
5 64
A Z
C ong
m ake
Ġb aw
Ġb astard
Ġd otted
Ġ1 16
ra ville
ĠM and
ĠH OL
Ġwill ow
Ġj obs
Ġad ored
end a
ons o
oll ey
ĠV icar
ph one
Ġmo an
Ġsun rise
Ġunc overed
Ġexpect ations
Ġsol ve
Ġsuper imposed
Ġpract ise
vere nd
Ġsens ibility
Ġshut ters
Ġbank er
ĠMont raville
Ġep it
Ġcard inal
Ġmanif ested
Ġtort ured
ĠWhe at
Ġengine ering
Ġcla use
Ġga iety
ĠLE ONT
Ġjoint s
Ġsway ed
Ġalumin um
ĠArist ot
Ġdescript ions
Ġpharm aceut
Ġunle avened
ĠBala am
Ġhereto fore
3 95
T wo
it ter
Ġhe ating
al ized
ĠT able
ĠM aston
Ġr ue
res o
Ġbl under
Ġpl ast
ĠAn at
Ġtru ck
Ġdog ged
Ġgall ows
Ġestablish ments
spe ak
Ġinsp ire
ĠYugosla v
Ġscan ned
Ġpett ico
4 18
S H
ĠA uthor
Ġent ries
ĠChrist minster
field s
ĠAngel s
ĠWel come
* ;
2 87
3 43
4 25
5 18
T rue
i ative
z i
Ġo ven
Ġc law
Ġc laws
Ġto y
Ġn ameless
ĠI l
ĠA ge
Ġwe ed
ĠH ighbury
Ġ2 60
Ġ2 32
ĠP un
ĠP IST
ĠF ire
Ġall ied
Ġar ter
ci um
Ġdis se
ĠTh r
ĠV as
Ġsur plus
Ġem blem
Ġins criptions
EL O
34 8
Ġbar red
Ġrequ iring
Ġer ad
Ġver b
Ġforeign ers
Ġid leness
Ġbold ness
Ġcup board
ĠSun ni
Ġrecon st
Ġmud dy
Ġchlor ine
Ġannoy ance
Ġeleg ance
Ġfir ms
Ġgy ps
Ġtransgress ions
Ġanalog y
Ġinval id
Ġgalley s
Ġrif les
ĠPORT IA
ĠGide on
7 07
9 65
c al
n ected
al ways
Ġse ren
Th ose
ogg le
Ġta pe
Ġinward ly
Ġalter ation
2 97
âĢĿ ,
ĠIs n
Ġcra m
Ġfal tered
Ġconsist ent
Ġswell ed
Ġimpart ial
ĠBeaum ont
2 13
5 13
f ro
l ene
Ġb iting
Ġm ice
or ig
Ġg able
ly mp
th ings
nt on
Ġso ils
Ġcont ention
ph on
Ġbeg g
Ġest ates
ĠAn na
Ġins urance
Ġtrans mit
de al
Ġmer rily
right eous
Ġunc ircum
Ġpa using
sp ir
Ġfort ified
Ġled ge
iment ary
ĠPhil ander
Ġchurch yard
ĠMa har
Ġfashion ed
As semble
Ġsentiment al
ĠKir k
gain st
Ġdegr aded
Ġdefect s
Ġcondemn ation
ĠHig gins
Ġgraph ics
ĠFal staff
Ġow es
7 04
I AL
Ġin asmuch
Ġn om
ĠC ry
ĠW az
ĠK at
Ġdes iring
18 90
Ġsub ordinate
Ġdec isions
Ġund o
Ġsick ly
Ġmor sel
Ġstealth ily
Ġshrub bery
B O
Ġm useum
Ġ1 43
ĠF ew
Ġsp aces
rou ble
36 9
Ġtour ists
ĠCount y
Ġconnect ing
Ġmathe matical
**************** ****************
Ġdiscl osed
ĠProp het
anzib ar
4 83
A bout
M ac
P ray
p ace
Ġs ous
ou ri
Ġm uff
Ġc ured
Ġl ones
Ġn ick
Ġg ird
ir s
Ġme ll
ĠN EW
Ġout come
Ġper for
Ġcha ff
Ġra ins
Ġpo ems
Ġmar sh
Ġmin i
Ġel astic
Ġ14 8
ĠFran co
Ġshort wave
ĠHer z
Ġdest itute
Ġhus h
Ġeat eth
Ġmad ly
Ġhost ess
ĠBr un
Ġspot ted
Ġproject ing
Ġfamiliar ity
ĠIm mediately
Ġsen ate
ĠOR LAND
Ġvolunt arily
Ġopt ical
Ġconceal ment
ĠThor nton
Ġpropriet or
Ġadul tery
Ġimpenet rable
ĠPto le
ĠORLAND O
8 02
ĠP rom
ate ful
Ġsh roud
od s
ĠK urt
Ġinst alled
Ġfore seen
Ġlive lihood
IC LES
Ġast ray
Ġdwell ings
Ġlab ors
Ġhang s
Ġscru ple
Ġtyran n
Ġinsens ible
ĠHosp ital
Ġungod ly
ing es
ĠF ile
Ġvar iations
Ġpra ir
UR Y
ĠJo an
Ġentertain ing
Ġvap our
9 02
N one
Y et
f ers
or ient
ĠS IC
ur ate
ĠM att
ĠB ast
ĠP ad
ich te
ĠD raw
Ġsh uff
un sch
Ġab er
Ġout break
Ġim b
Ġbl amed
ĠK ul
Ġcont ext
oll en
18 92
pect ive
ĠAl ar
Ġass umption
Ġbro oding
Ġcle ave
Ġprin ter
.âĢĶ âĢľ
ĠCommun aute
Ġer a
ĠSy rians
ĠSm ur
Ġleaders hip
ĠPl ato
Ġrail ways
ici ary
fortun es
ĠMess enger
Ġenchant ed
Ġadopt ion
Ġcav ity
Ġcherub ims
ĠSina i
2 83
5 04
D r
p ol
y ne
ic he
ĠB urn
ĠR ap
reat ed
Ġyear ly
53 1
Ġexp anse
ual ity
gra zing
ĠPer se
Ġhall s
ĠProt ocol
ĠMag ic
Ġhistor ian
ĠSub ject
ĠScar ce
Ġbenevol ent
ĠThar k
ĠBuk awai
C K
g ies
Ġexpl icit
Ġlux urious
Ġopt im
Que en
3 40
5 16
7 85
C FAF
H orse
S ON
d ad
k o
n ance
p rodu
s i
t el
Ġb ases
or th
or ms
Ġh ove
Ġ2 97
ĠL anc
Ġshe ltered
ĠD est
Ġor b
ol ulu
Ġpro l
Ġab ound
,âĢĿ âĢĶ
Ġj oc
ĠK h
Ġcomp ressed
Ġsc ur
Ġback wards
Ġdec isive
Ġ13 4
Ġser ver
ĠMiss is
Ġcond uctor
Ġmer cil
ring e
Ġwat ches
zz a
Ġcomb inations
riet ta
ĠCy p
Ġshock ing
Ġhint ed
ĠHon olulu
asion ally
ĠStra ight
ĠFerr ars
Ġembro idered
Ġcarc ass
Ġincess antly
Ġresid ue
access ible
ĠLEONT ES
Ġmercil ess
Ġ ----------------
ĠB AR
rom atic
Ġcon ced
ell ig
Ġch oir
Ġspe ck
ĠV e
Ġind icates
Ġkind er
cha k
Ġmechan ism
ĠApp le
ĠRu pert
Ġcleans ed
Ġprelim inary
Ġmerchand ise
st ant
ĠC ir
ĠO k
ĠJ ar
47 1
Ġsk ies
ĠBl ue
Ġrid dle
Ġric hest
Ġindul ge
ĠWH AT
Ġcomprehens ive
Ġminim um
2 10
5 40
8 90
g re
i oc
t alk
Ġb ids
is bury
Ġc ooper
Ġp agan
st ep
ĠB rom
Ġcom pel
ĠF ood
ight ing
Ġv owed
Ġun sc
Ġch ocol
urn al
Ġgr asping
Ġsm oot
Ġsc re
Ġimp reg
Ġrep ay
Ġtr ot
Ġneed ful
Ġprop os
Ġes pecial
Ġbelieve th
Ġeffect ually
ĠJohn ny
Ġquick ened
ĠAm ph
isc hen
Ġjo kes
Ġchem istry
ĠSam son
Ġwha ling
Ġarch bishop
ĠSpe ar
Ġcalm ness
ĠVen et
Ġbag gage
Ġchat ter
ĠPRO SP
ĠSP C
Ġdur ation
ĠLuc ie
Ġtelegra m
ĠBE ATR
ĠSic ily
ĠTop sy
Ġpeas ants
ĠThorn bury
Ġwate red
ĠPIST OL
2 65
2 89
Ġb ully
ot te
ĠS L
Ġab used
ord in
45 9
Ġgu ile
Ġdesp ond
Ġrid ges
Ġcott ages
ĠCal iph
Ġsem blance
amil ies
ĠNant uck
Ġbachel or
ĠFortun ately
Ġ1 11
ĠC O
ĠC ond
ĠG ener
ric ate
Ġmis fortunes
Ġclass ic
Ġdemonst ration
Ġdares ay
Ġeman cip
6 80
7 33
C har
s un
s ub
Ġo be
Ġw oes
is che
Ġp ang
Ġin herent
ĠS outheast
Ġher b
Ġpro clamation
Ġgo est
Ġen mity
Ġcl atter
Ġra bb
ater p
Ġcons umm
Ġtr oth
Ġpresent ation
73 4
Ġplay ers
ec ai
Ġpret ence
Ġsol ved
IT ES
Ġorigin ated
Ġmad ame
ĠLu ker
yn ch
ĠMo hammed
Ġcompass ed
Ġprotect ing
ĠCr own
Ġstam mered
Ġhydro chlor
Ġanticip ation
ĠHast ings
ĠRh ine
Ġglac ier
Ġratt ling
Ġom itted
Ġconfer red
ĠLar ge
Ġrog ue
ĠConstantin ople
ĠSmur FF
) --
5 27
6 19
6 03
G eneral
H en
H old
S D
Ġn oses
ĠT EN
ĠT ham
id d
og ues
Ġhum bled
ĠZ ad
Ġdef erence
Ġneed y
Ġprev ailing
Ġmyst ic
Ġbride groom
Ġaccus ation
Ġscrat ched
n ie
ha ms
ĠP umpkin
ER T
Ġimpro ving
Ġscant y
Ġscrut in
4 95
5 19
M aj
m ad
on ial
Ġp ins
le ments
ĠH ort
and o
Ġde uce
ĠN er
Ġv olley
un ct
Ġar ises
ĠK oh
ĠK ENT
Ġunder go
omet ers
Ġcar p
Ġnew com
Ġref using
45 1
Ġmon itor
ung sten
iet a
ĠAb bot
Ġlow ly
Ġsol utions
Ġtruth s
Ġund e
port ant
ĠBel ieve
ĠBel mont
Ġid ly
Ġarran ging
Ġarch ie
ĠSal isbury
Ġrub bish
Ġbrill iancy
Ġtoss ing
ĠAmb ul
Ġaccompany ing
ĠPil ate
Ġfanc ies
Ġcush ions
ĠSOL D
Ġsched uled
Ġamate ur
ĠAndor ra
ĠMord ecai
Ġvanqu ished
2 27
Y N
Ġ1 14
ĠT alk
Ġ2 35
ĠP aper
ac s
Ġ3 33
Ġsp ade
Ġfore f
ĠUS ENET
57 9
kn ife
rem acy
Ġdig its
Ġredd ish
Ġgild ed
Ġ1 27
ĠN ame
Ġlong est
ĠSt rong
olog ists
rem ier
ĠSav iour
ĠMau le
' ]
. ].
6 10
S urely
h ish
Ġt ips
Ġp ite
Ġp oppy
Ġha in
Ġe b
am on
Ġan ci
ĠB ard
ĠB EL
ul us
Ġ2 903
ĠW unsch
ĠP ole
Ġsh ipped
pp ings
od ge
ie ft
ĠJ ub
Ġsp asm
Ġover heard
Ġdis interested
ath y
Ġcont ended
Ġimp rud
Ġrun way
Ġcur ses
ern ation
Ġinter im
Ġinter cept
Ġcle arer
Ġfact o
Ġdev out
go vernment
ĠAm al
Ġsense less
Ġsal uted
Ġstay s
Ġdraw ers
Ġtreat ing
mes dale
Ġmir ac
Ġobst ruct
Ġmat rim
Ġimmense ly
May be
ĠXV II
Ġtempor arily
Ġpier ce
Ġunm ist
Ġassert ion
Ġjump ing
Ġrecip roc
ĠBeth le
Ġnois y
ĠDim mesdale
ĠList en
Ġcoo lly
Ġincorpor ated
Afric an
Ġbicy cle
Ġslugg ish
N O
Ġwith stand
ig an
ĠR ound
Ġ7 00
ip se
ĠWh ither
Ġadd s
Ġbes et
Ġrev ive
Ġdi pl
Ġmusic ian
there al
Ġmal icious
Ġswear ing
ĠChin aman
3 17
5 15
5 44
T w
p ie
Ġcor rection
ivers ary
OU LD
Ġspr inkled
Ġgle amed
Ġmat ches
ĠEdu cation
ĠWalk er
5 25
8 04
in um
Ġw oven
Ġb athed
ĠM iz
ĠB est
ĠP ell
ĠP oole
ĠE den
ĠD ian
Ġsh ivered
ĠAnd es
Ġal ighted
ig i
ud ing
Ġag encies
Ġen forced
ĠIn spector
oll s
Ġbr ink
Ġsw oon
sw ord
Ġbo ar
Ġequ ipped
Ġpresent ing
ĠLe hi
Ġspir ited
Ġmis le
Ġsn atch
Ġprof its
Ġtele communications
Ġstud io
Ġoccup ying
ĠPres byter
Ġtrem ulous
ĠHel p
Ġmel ody
ĠBes ide
Ġflour ishing
ĠIMO GEN
ĠMiddle ton
Ġreckon ing
Ġexerc ises
ĠRet urn
Re ally
Ġsam ple
Ġtub es
ĠAlg iers
ĠGene va
Ġreconcil iation
ĠAj ax
ĠEuph rates
ĠGoth ic
8 27
f il
f ellow
h ung
n uts
v ar
is a
Ġf oss
st reet
ĠM ich
ĠW y
ĠW AT
un es
ect ual
Ġoff ense
Ġcur ves
Ġtrans formation
Ġir ony
ma ids
Ġjourney ed
UC P
ĠCor por
Ġfoolish ness
Ġbapt ism
Ġinev itably
ĠTurn ing
Ġbutt ons
ĠPER ICLES
Ġmilit ia
ĠCaval iere
ĠWaz iri
4 13
ĠG E
ĠF alkland
Ġcha ritable
Ġey ed
Ġapp rent
28 1
Ġboard ing
ĠCON TR
L ist
n an
s or
nd ing
Ġm ocked
is se
Ġf ables
an ity
ic hael
st ate
ĠH AVE
Ġ2 34
ĠN ac
Ġbut ler
ĠJ av
ran ged
Ġro ast
ĠK han
Ġfl irt
iz ers
Ġsc ribe
Ġcons ervative
Ġatt itudes
ition al
Ġla ud
Ġelect ro
Ġpat ri
Ġhusband ry
ĠAm elia
Ġcoll eges
Ġsin ful
ĠHar v
Ġdelight s
Ġlif eless
Ġfrequ ency
ae a
Ġprince ly
Ġstorm y
Ġaccident al
Ġcook ed
Ġinstinct s
Ġren own
Ġovert ook
Ġlust re
Ġancest or
Ġcorrid ors
Ġunlike ly
Ġaccommod ation
Ġfug itives
ĠElf onzo
Ġunsuccess ful
ĠLEON ATO
ĠBethle hem
0 99
4 97
t old
in f
Ġp airs
Ġn a
Ġg ale
ĠB ow
Ġ( $
Ġover grazing
Ġri ve
ĠAugust us
UM BER
ĠBas han
Ġrust ling
spe aking
ĠMartin ique
Ġcoward ly
Ġcens ure
Ġaggra v
ĠBomb ay
6 02
8 63
T E
d d
n ets
Ġhe areth
ud ding
xt on
ĠDe f
ĠTen nes
Ġgla red
3 19
5 43
M al
T ha
c ot
Ġo unce
Ġf ract
Ġd ances
Ġre eds
Ġfor sw
Ġhis sing
ra ment
Ġde xter
ĠW ol
el on
ĠR ivers
ĠJ am
Ġper ceptible
Ġdis ast
Ġim minent
ĠY an
ĠK ala
Ġatt ire
Ġconst ernation
ommun ication
Ġpar able
Ġdisp ose
ĠAg atha
br ush
Ġdi agon
Ġder ive
Ġesc ort
Ġgro ans
ĠSpe cies
Ġintellig ible
Ġgrief s
Ġcounsel s
Ġendeav ouring
Ġgrim ly
ĠOp en
sell er
Ġappar ition
Ġzeal ous
ĠOcc asionally
Ġlandl ady
serv ant
ĠKent ucky
Ġchival ry
Ġunmist ak
' ;
5 77
on er
it ual
Ġp ines
Ġ2 20
qu ite
Ġdo le
ĠSt ock
ater nal
Ġte ch
Ġdep rec
Ġtem pered
Ġpost ure
ĠIr ving
ĠServ ant
Ad am
B r
âĢĿ --
ĠMark et
ĠNaur u
ĠPumpkin head
9 01
M ed
x x
Ġo wl
Ġw olves
re f
Ġb attered
Ġm alt
Ġf idelity
Ġd anc
Ġ( ``
ĠD al
ol ent
Ġsh ifting
Ġar ches
Ġpre fect
Ġcha os
ĠAl ph
Ġinf erence
ĠZ en
Ġhel ps
Ġreal ization
Ġill um
Ġsweet heart
Ġund ist
Ġinqu is
Ġcru elly
Ġaut hent
Ġdiss olution
Ġresem bles
Ġtax ation
ĠJul iet
Ġstupid ity
Ġcam el
Ġiv y
Ġstum ble
Ġemot ional
Ġpersec ution
Ġrecommend ation
ĠPolynes ian
ĠAber deen
ĠAlp ine
Ġbeck oned
Ġbesie ged
ĠPU BL
ĠAmbul inia
c ock
f amily
ĠS out
ĠC rus
ĠD y
Ġun res
Ġar id
Ġro oted
Ġtw inkling
bl ue
cl othes
og a
Ġsl ate
Ġnight mare
Ġmet er
Ġbed side
uss ion
Ġdraw s
Ġworth less
Ġmed itative
OU P
Ġmurm uring
Ġcorrect ly
Ġsup remacy
Ġexplo it
Ġinex pl
Ġgy mn
Ġfel icity
Ġfern s
Ġdisadvant age
Ġorche stra
ĠB at
ĠL ost
ĠG lor
ĠMar ried
Ġform ally
Ġlay er
ob i
TH OR
ĠCor inth
ii i
ĠPass age
4 19
4 80
E Z
K I
S ure
S upp
p res
w am
Ġt ang
Ġa kin
ha k
Ġm ire
Ġf enced
id ian
ur ated
Ġ2 40
ĠL or
ĠF ish
ĠF resh
ab ad
Ġor ator
ĠO lymp
un c
Ġpro g
19 02
Ġsp raw
Ġch ieft
Ġpart ake
Ġcons ul
Ġrep ug
Ġcap ric
Ġkind le
Ġplac id
het ically
Ġpost er
Ġoccasion ed
Ġattack ing
Is lam
Ġsuggest ions
Ġcourage ous
Ġdu chess
Ġstead fast
Ġhero in
Ġexcited ly
Ġcalcul ations
ĠAustri an
ĠEli as
Ġrece ivers
Ġexagger ated
Ġexhaust ion
ĠBus iness
Ġnoiseless ly
Ġtyph oons
Ġpav ilion
ARB US
ĠSPE ED
zb ieta
3 27
K ing
d one
Ġ icy
le gged
ĠC ab
th rough
em per
ist ance
Ġman agers
Ġj eddak
Ġqu ote
Ġnight fall
Ġche ered
Ġsal ary
Ġlim p
Ġfav oured
Ġanim ation
ipp er
Ġmaid ens
Ġrefer ring
Ġrecon cile
Ġloo p
ĠSecret ary
Ġselfish ness
ĠKer chak
ĠHop kins
iscop al
ĠMomb i
6 07
Ġde mean
ĠP it
Ġli ly
ern sey
ĠSc he
46 9
Ġspeed y
isp here
Ġaccess ible
ĠNay land
ĠEp hes
ĠALE X
ĠTennes see
a el
d ress
e z
p ents
t an
w ords
Ġt ense
Ġt ipt
Ġa ux
Ġb isc
Ġm uzz
Ġf ade
Ġp end
Ġl b
ow e
im us
Ġst ump
ĠC ertain
ch o
ter m
Ġ2 905
Ġv it
ol ite
Ġsh ots
ig a
ĠJ r
Ġno ct
Ġch ina
ph od
ang es
Ġple a
Ġnear by
Ġexpl os
Ġpar amilitary
ĠJes se
Ġban ish
Ġdepend ing
Ġemer ge
Ġtum bling
Ġsmooth ly
ĠCr un
Ġ853 6
Ġinsult ed
ĠJeh u
Ġbury ing
Ġwip ing
ĠBou levard
Ġsulphur ic
ĠFut una
Ġcourte ous
Ġenerget ic
ĠANG ELO
Ġsulphat e
ĠSIC INIUS
6 85
6 17
Ġs edu
re ak
Ġd ir
Ġde leg
ĠP ardon
ĠD arling
ard o
Ġar ithmet
ĠAt oll
33 1
Ġwater y
Ġpat ients
Ġeng ross
Ġrad ical
Ġtro d
ĠFR OM
Ġens ure
Ġbind ing
ĠPRIN CESS
ĠDu chess
Ġgri pped
ĠWel sh
Ġunl ucky
Ġindirect ly
Ġupl ifted
2 64
S uch
Ġp its
ĠM ill
el come
ĠJ oy
so le
ĠSt range
Ġsil very
35 9
ID E
ĠDid n
Ġoverwhel ming
Ġepis ode
Ġoutst retched
6 20
b ard
d oes
g le
i ens
p ipe
s outh
t were
Ġt aunt
on gh
or um
Ġto ys
Ġp ump
an ter
Ġre pt
Ġre versed
Ġwas ting
ro ach
ĠS um
ĠC IS
Ġat om
Ġ2 90
art a
âĢĶ âĢĻ
Ġ3 19
Ġj ub
Ġen ig
ile th
ĠV ill
ick ering
mer cy
Ġbel ike
ON IUS
Ġsk im
ron ym
Ġwall ed
ĠGu ards
Ġhill y
Ġforward s
Ġdeg ener
Ġdrink s
Ġemploy ing
Ġdepend ency
Ġappl iances
Ġur ging
lim ited
ĠRos al
Ġsup ersed
ANT US
Ġshru bs
ĠVI OLA
Ġindifferent ly
Ġmultip arty
Ġcir cling
Ġingen uity
ĠDim ensions
Ġpled ged
ĠTro ilus
ĠTow ard
Ġexult ation
ĠQuick ly
ĠLav inia
Ġeccent ric
Ġdoctr ines
5 87
t ops
Ġ1 23
ĠT ao
Ġ4 88
Ġpl ung
sw er
ner able
37 9
75 8
ĠAg es
Ġcomple tion
sequ ently
Ġwhis pers
Ġdw ind
Ġsore ly
ĠDiv ine
ĠSold iers
ĠMUR DER
ĠKurt z
M ENT
P T
ĠP ast
ĠF isher
ĠD EM
Ġcl ing
Ġacc ents
Ġpar ad
Ġcomb ine
Ġcool er
ĠHist or
Ġvig our
Ġglim pses
8 91
Ġg av
se ed
ir ates
ĠB ly
Ġ2 02
ĠD au
Ġsh illing
Ġ3 60
ĠR FC
Ġgo in
Ġli k
Ġli ar
ang er
Ġret aining
Ġsw arm
Ġhigh ness
Ġdef y
Ġtrans cend
Ġhope ful
Ġfree zing
ĠAg ripp
Ġchief s
sp oken
Ġmed dle
ĠTHE Y
Ġmad man
EM A
Ġ54 02
Ġdu pl
Ġox ide
Ġrang ed
Ġfever ish
Ġsubstant ially
ĠCanaan ites
Ġprem ature
OB ARBUS
Ġcraw ling
ĠExt ended
Ġtact ics
ĠGran nis
Ġrepuls ive
Ġunbel ie
Ġconstitu ents
ĠSIL V
ĠTurkmen istan
Ġmoust ache
List en
ĠCrun cher
E h
m ers
is ional
ĠP a
ĠD EC
Ġ3 10
ran e
Ġar c
int osh
erv atory
Ġ12 9
IT T
Ġsumm on
ĠMac au
ĠJon as
Ġenv ious
ĠTill ie
ĠOt t
Ġpla us
Ġowners hip
Ġchronic les
Ġcler ks
Ġtribut ary
; _
Ġm otto
Ġre li
ĠâĢ Ķ
ĠM ail
ĠH ab
ĠK N
ĠWh it
ĠOn line
ĠZ anzibar
98 64
ham pton
Ġphys ically
ĠTw enty
3 53
4 04
6 04
6 05
P al
U B
d r
n est
n eth
p age
s il
Ġw ench
re mes
Ġc ot
Ġc aves
an or
Ġl ick
om ens
ut ors
et ic
ĠM ol
ĠL au
ge ons
Ġshe kel
Ġex cluding
Ġv ices
Ġman ip
âĢĶ âĢĺ
ĠJ UST
ĠHe llen
Ġj unction
Ġim itate
Ġdown wards
Ġpre val
so ft
ew ork
Ġcar case
Ġconf ound
Ġmon op
Ġinter change
Ġgrow l
Ġexc used
Ġhum ane
54 9
Ġfact or
Ġhope lessly
Ġperman ently
ĠChar ge
Ġmort als
Ġdi verse
Ġobl ige
Ġpath way
Ġpun ch
ĠQu est
ĠAL B
Ġdevil ish
Ġmagn ified
Ġmission ary
Ġconsult ing
Ġrebell ed
Ġ847 9
Ġbug gy
ĠEnd angered
Ġtransm ission
Ġoverse er
Ġglac iers
bro ke
dep th
Ġcycl ones
Ġalleg iance
Ġlabore rs
ĠZeb ul
Ġhypothes is
ĠRick field
Ġderv ish
ĠAristot le
ĠBast ille
ĠPROSP ERO
ĠSOLD IER
3 94
6 92
Ġas pir
Ġpres cribed
Ġ12 8
Ġtri als
ĠCl ass
Ġpict ured
cell aneous
Ġmut ton
ĠZe us
Ġreluct ance
ĠBos nia
Ġfeud al
Ġungr ateful
h n
Ġp aced
ĠC air
row ing
ĠAp pendix
Ġupper most
ION S
UN T
Ġflo ors
ĠVict ory
ĠBerm uda
4 12
7 80
R em
c ity
s ense
t ically
u ating
Ġa h
Ġhe y
ĠC ant
Ġout lines
Ġun man
Ġun righteous
Ġsp arse
Ġper ch
Ġtw in
Ġpe w
ink les
Ġfl int
Ġrem itt
Ġsc ound
Ġsw ollen
Ġho b
Ġhigh ways
AT IO
Ġchar t
Ġill ustration
ĠEl zbieta
Ġeffect ual
Ġquick er
Ex actly
Ġcomput ing
Ġdet ained
Ġnorth west
Ġstar ved
sing ular
Ġamount ed
Ġnice ly
Ġfer ocity
Ġgrat ification
Ġbag s
Ġconsult ation
ĠKore an
Ġcalcul ation
ĠLUC IO
Ġwoo llen
Ġcocon ut
Ġreappe ared
Ġhord e
Ġais le
Ġcud gel
Ġsubter ranean
h ou
w id
z ona
es cope
Ġp iety
ĠM ain
ch t
ĠL ower
Ġshe ath
ant ime
ĠO CC
Ġli ed
con f
Ġreg ain
Ġple ading
Ġed ifice
Ġnecess ities
Ġspeech less
Ġdespair ing
Ġexperiment al
sla very
ĠGr ound
7 97
ke ley
ĠN ah
ĠN ik
Ġun question
ĠAr g
Ġreal ities
ĠRe ad
ĠOh io
elf th
ĠDaguerre otype
6 15
H ad
O ct
c overed
g led
Ġt attered
Ġw izard
Ġc od
Ġp ard
at io
an iah
al iah
ir am
ĠC het
Ġag greg
Ġdis sect
Ġpr ick
ĠSt ry
ĠSt eve
ĠYou th
Ġspo ils
Ġpol ish
ĠAd minist
Ġinv iting
Ġmid day
Ġsubject ion
Ġdirect ing
Ġpublic ations
Ġorder ly
Ġhat ch
Ġfresh ness
Ġholid ays
Ġinj ure
Ġstates man
Ġcolour ing
Ġpant ed
rep resent
Ġpenet rating
Ġbi bli
Ġfertiliz ers
ĠCharl otta
ĠAdvent ist
Ġglist ening
ĠHOR ATIO
ĠSod om
govern ing
Ġsoph ist
ĠWoo la
aterp ill
3 18
A ust
B ITNET
Ġha re
ĠE ternal
ĠK yrgyzstan
Ġ7 07
Ġsm elt
37 1
AL D
Ġcirc ulation
Ġimag ining
Ġshad y
Ġstraight ened
Ġchap ters
Ġcoach man
ĠBart on
Ġunfold ed
Ġastron om
4 88
G reat
ha w
Ġspe lling
Ġinf ancy
co al
Ġgall eries
Ġtrail er
?_ âĢĿ
3 23
3 96
; )
H ey
S ince
b earing
f act
er us
Ġd ashing
Ġl ens
ĠA ccess
ĠH aman
ĠB or
il ian
ain te
Ġpro xim
ĠJ eb
Ġthere upon
ber ing
Ġqu ivered
ren n
Ġ7 50
Ġsc ut
Ġcons p
Ġste ed
gg ling
Ġed ged
Ġreason ed
56 9
Ġvar iable
ĠX IX
ĠSh il
Ġquar ry
ĠBl anc
Ġtrust ing
Ġmention ing
Ġorgan ic
Ġmail box
Ġunf air
Ġdisapp ro
Ġcontent ment
ĠFair way
ĠNap ht
ĠPri est
Ġinsol ent
Ġmagaz ines
ĠCASS IO
Ġsurf aces
ĠWilf red
Ġhydrochlor ic
9 77
m or
Ġb ass
Ġin ve
im al
ess ed
Ġcl amb
ĠK apor
cl ad
min ate
Ġsuper b
Ġimpl ored
Ġordin ance
Ġspin ning
ĠOLIV IA
ĠCaled onia
3 10
d est
s ign
t urned
19 04
ĠK ansas
ĠUn its
OW ER
ĠQU AR
acha ble
3 66
4 20
4 87
5 10
6 01
o an
is ans
an us
ic us
Ġg iants
Ġwe e
ĠB ir
Ġr ick
ĠN ancy
ĠJ ab
Ġle ased
ag a
Ġcl os
Ġgr udge
Ġfl ank
Ġmen acing
Ġent angled
Ġfri vol
Ġpers pective
Ġste er
Ġjud icious
ĠPro gram
Ġgas p
Ġlab oured
Ġweak ened
Ġpeculiar ity
sec ond
Ġbal anced
mark et
Ġloose ly
ĠLA W
ĠPri v
Ġsteam ers
Ġmour ned
Ġgrin ning
Ġtorment ed
ĠEv idently
Ġcere als
Ġcontrad iction
Ġbloom ing
Ġdiscont ented
Ġcorps es
ĠSign ior
grow th
Ġinterven ing
ĠZad ok
2 26
l og
s we
ith s
ill ot
Ġ3 20
ang ani
Ġhar lot
75 9
Ġprot ocol
Ġce as
ĠMat ai
Ġaccum ulated
Ġsequ ence
Ġrehe ars
Ġ1 63
ĠS ong
ĠC au
ĠB ax
ĠP au
ire ctor
ĠV acant
OR Y
oss ible
ĠAr k
Ġcontrib uting
ĠDou bt
ĠInter ior
2 96
3 12
3 44
5 92
g ener
u ent
~ ~
Ġa ce
Ġs ill
Ġg ilt
ĠT ub
Ġfor fe
Ġhis s
ĠB right
ĠB wana
Ġ2 12
pe lling
ge e
Ġr het
em ar
ĠO par
od a
Ġint ens
Ġle apt
Ġun aff
Ġcl ient
Ġfl ier
be c
Ġret ro
Ġsec uring
Ġreg ulated
Ġext remes
57 1
Ġinf all
Ġdef ine
Ġdiv ides
Ġmis chie
OL PH
Ġlist ed
ĠSh ime
val u
off ice
Ġemploy er
Ġemb od
Ġbank rupt
Ġimposs ibility
Ġgall op
Ġloss es
Ġrepro of
ĠVen us
Ġnur sing
Ġinvestig ations
Ġcher ished
ĠSlo ane
ĠLove lock
ĠAD R
Ġhed ges
Ġdece ased
Ġdivers ified
ĠSE B
ĠEN OBARBUS
Ġcorrupt ed
ĠAld en
ĠJUL IA
sa fe
Ġimagin ative
Ġabbrevi ated
Ġaf resh
Ġtrav ail
Ġfram ework
ĠSpear man
l on
Ġh uddled
ĠC old
ĠC hes
ĠW ay
ĠL ives
ĠHe ard
Ġ4 83
ĠU UCP
Ġrem ed
Ġdist ract
ĠUn fortunately
Ġeconom ies
Ġmus lin
Ġmus cular
Ġprot rud
ĠLeg ion
ĠCo al
Ġsubs ided
Ġcontempl ate
ĠM aine
ĠC ow
ĠC ec
ĠD ata
Ġ7 97
OR A
ĠGl inda
Ġisol ation
ĠSystem s
requ ently
âĪĴâĪĴ âĪĴâĪĴ
ĠAU THOR
2 80
A ff
b ons
c re
e eship
p rop
x ide
Ġa ided
Ġa fe
Ġo ri
Ġp acing
Ġhe aved
Ġ1 53
id on
âĢĿ .
ĠP OM
ĠG esch
Ġ3 30
Ġ3 920
Ġwho ever
la ge
Ġsp ices
ag os
Ġch oking
iz zy
Ġwhere abouts
Ġimp lements
Ġwr ung
Ġinter face
IN K
rib ution
Ġread s
Ġaff right
Ġcent im
Ġbar riers
Ġleg ally
Ġconc ub
Ġquar rels
Ġden ying
Ġsepar ately
Ġbull ocks
ĠCom be
ĠMor ison
mon th
Ġwid ows
Ġinj uries
Ġ293 7
Ġsex es
ĠEle anor
Ġpredomin antly
Ġtransm itted
Ġimmort ality
ĠLest rade
Ġviz ir
ĠScar let
Ġscept re
ĠGO OD
Ġfath oms
ĠFound ation
ĠBened ict
Ġexcurs ion
ĠOctav ius
ĠBene ath
Ġpharmaceut icals
Ġimpreg n
5 14
t in
Ġt ries
Ġg rop
st ed
ir ation
Ġst ale
ĠD ru
Ġar gu
Ġsm ok
ĠPro bably
br own
Ġcra ve
Ġrock ing
Ġwis est
Ġrend ers
Ġta pped
Ġarray ed
ĠTel net
Ġclamb ered
ĠJ u
ĠDe b
Ġfr ust
amb oat
ĠCON ST
ĠDoc ument
Ġlones ome
4 92
4 96
5 90
5 23
5 97
7 26
B ar
C ons
H a
J apan
W P
m ie
t ry
Ġb askets
it iveness
Ġc reek
al p
al an
Ġe phod
Ġth rive
ra ms
ĠB AST
Ġ2 13
Ġde als
ĠP el
Ġmy ri
Ġsh ines
ĠO w
Ġkn ots
Ġout burst
Ġad ore
Ġen han
Ġgr ating
Ġcomm otion
Ġcont riv
Ġcar ing
Ġtr ay
ĠAn cient
Ġconf ront
Ġdiv orce
Ġarm chair
Ġsol uble
Ġdream y
fl owers
ĠSha h
Ġkill s
ĠMer c
Ġoblig ing
Ġunf it
Ġadmir al
do ctor
Ġsuggest s
Ġredu cing
Ġpan els
Ġfer ry
Ġconstit utions
Ġscream s
Ġdepos it
Ġflee ing
Ġpoison ous
ĠCommission er
Ġrapt ure
Ġpuff ed
ĠPra ise
Ġciv ility
Ġsynag ogue
Ġtiss ue
Ġrhyth m
Ġdisast rous
3 03
4 02
4 14
7 03
8 19
B ug
b ration
ve land
ĠS ons
Ġwh im
ĠE agle
ĠR ally
ĠV ic
Ġ9 018
Ġlove liness
Ġappe als
Ġmon uments
........................ ....
Ġobl iter
ĠFl ask
Ġmonth ly
Ġdiss olve
Ġcool ness
Ġsigh ing
lar ge
Ġappreci ated
Ġoft ener
ĠConc erning
Ġinexpl icable
Ġcorrect ed
Ġcommence ment
ĠTajik istan
3 88
c un
d i
o iled
at ile
Ġd ens
Ġd uc
as i
ĠI EA
le k
ut ive
ĠT ong
Ġu l
Ġnot ably
ch i
th us
Ġse clusion
ĠP lym
all e
Ġcon gress
ĠN E
Ġmy r
Ġall y
Ġex empl
Ġab d
Ġno bler
Ġam ir
Ġdis quiet
Ġcl ubs
ĠV ale
Ġpass ive
Ġsl iding
Ġpres umption
Ġco pe
ace ae
Ġever more
Ġgener ated
Ġser pents
Ġvis ibly
Ġprom oted
ĠHer m
ham a
Ġfur t
Ġten ant
Ġshow ers
fe eling
ĠAfric aine
Ġpay ments
ĠTom orrow
ĠAp ost
Ġoccur ring
Ġprofess ors
ĠMart ius
Ġgro ves
ĠCont ents
Ġmel ting
Ġ293 4
Ġmurd erers
Ġstret ches
Ġren owned
Ġretreat ing
ĠCass ius
Ġpy ram
Ġflut tering
ĠDar ius
ĠThur an
Ġbourgeois ie
Ġpopul ace
Ġpic nic
Ġbrom ine
ĠÂ §
ĠBEATR ICE
ĠChet t
3 97
4 66
ri x
Ġ2 01
ĠW oggle
ĠD ix
Ġsha ring
ĠJ ed
ĠJ un
Ġ5 10
Ġra ined
ĠV is
Ġmin st
Ġdisc om
olog ies
gr ade
ĠGR OUP
Ġweek ly
rict ion
rel ated
Ġunf amiliar
ĠXX I
Ġdistress ing
Ġindign antly
Ġheir s
Ġretire ment
Ġafore said
ĠSpace land
ĠTham es
Ġhum ming
Ġste amboat
ĠPro c
Ġhistor ic
Ġrecre ational
atern ity
3 24
3 84
B ur
N obody
U pon
b orough
c ers
c od
n ost
Ġa z
Ġw ager
Ġb at
Ġin accessible
al us
et ter
Ġ2 17
ĠW omens
ĠP ye
ĠD ial
Ġor thodox
Ġv ase
un less
Ġ4 30
Ġch oler
Ġbl ades
Ġcl own
Ġra iling
Ġsc off
Ġsc ourge
Ġimp orter
Ġcons ulates
Ġla z
ace ous
Ġdist illed
Ġreg istry
Ġdisc ourage
Ġstr ongh
Ġreal ised
Ġide als
Ġmus ing
Ġmist y
Ġz en
Ġregard less
Ġslave holder
Ġgrace fully
Ġmusic ians
Ġexceed ed
ĠJe z
Ġreb els
Ġgrad uated
Ġrob ust
ĠReg ion
Ye ah
Ġinex press
Ġscru ples
ĠMos iah
TR AM
Ġdeserv ing
Ġgreed y
Ġautom ob
Ġbrist ling
Ġmiser ably
Ġdisreg ard
Ġchocol ate
ĠSmurFF s
Ġstrongh old
3 90
3 68
5 67
7 10
7 63
F irst
n one
n amed
ĠN in
ĠF OUR
Ġab ilities
own ess
Ġun att
Ġdis o
ĠTh irty
Ġgl ut
AR A
Ġdef ic
ĠNo ble
Ġund ef
Ġdiscuss ions
Ġrob ber
Ġdw ar
ĠMe antime
Ġpond ered
Ġengage ments
ĠCreat or
cou ple
7 90
R S
73 8
ĠGu am
ĠTra vel
4 53
6 83
7 67
S omething
g ical
w on
x es
Ġ ****
Ġb ait
Ġp angs
at is
Ġd ot
Ġg um
ĠA ha
ir o
am ar
Ġse als
Ġ2 22
ĠW ars
ĠP DP
ĠG rose
la p
Ġag gress
Ġch ron
Ġbl ouse
Ġpe renn
Ġday break
Ġcomp ression
Ġye oman
hes is
Ġsl owed
Ġfather less
me aning
Ġ15 8
Ġcur ate
Ġdisc omfort
Ġbro od
Ġdra per
Ġins in
Ġfact ions
Ġmod es
ĠSp encer
ĠCl ose
Ġrespect fully
Ġpract icable
Ġfast ing
Ġund es
Ġmater nal
Ġrid ers
In land
Ġcrow ding
Ġtest imon
ĠLa unce
Ġ37 02
Ġ03 03
ĠAugust ine
Ġfail ures
Ġep istle
Ġamb ush
Ġpin n
Ġinvestig ate
rep ared
ĠLA ES
Ġpuzz le
Ġpoison ed
Ġdimin ish
Ġlur king
Ġphotograph s
ĠWeather staff
Ġflut tered
ĠAdmir alty
Ġbail iff
ĠEg don
Ġunspeak able
ĠBard olph
ĠBAST ARD
3 65
3 85
4 15
G r
N R
f amilies
p o
w reck
ĠE ss
un ches
og ene
Ġsl oping
Ġ13 2
de ad
Ġsuff iced
Ġpar ap
........................................ ......
ĠPhil osop
Ġoper ators
Ġfaint est
Ġsex ual
ĠPet rie
ĠTw ice
Ġflatter y
Ġconfirm ation
Ġfid get
Ġoutl ined
Ġtires ome
ĠCONTR ACT
4 62
ĠR EG
Ġ4 43
ĠAl ways
not es
ĠPro du
ca id
Ġdepart ing
ĠSer pent
Ġcher ry
Ġmourn fully
4 05
M on
p aper
Ġt ungsten
Ġs es
Ġb ared
on ge
Ġp ent
ĠI zz
ic ia
ce ls
Ġwas tes
Ġwith hold
Ġwe ave
Ġ2 28
ĠF ell
Ġex ter
ĠO g
un uch
Ġint u
itt ance
Ġar rog
Ġam ends
Ġbl est
ĠK om
Ġfl ashes
Ġcome ly
Ġsm ashed
Ġye h
Ġapp alling
ĠMar shal
Ġho e
Ġinc ur
Ġkeep eth
Ġshort age
pr in
Ġexpl ored
Ġstru ct
Ġstop s
Ġstri ps
Ġcal cium
Ġmed itate
ĠGerman s
Ġbright ened
MO G
Ġplant ations
Ġhack ing
rif ice
UL ET
Ġcredit ors
Ġunex pl
Ġpercent age
Ġcontempl ating
Ġunclean ness
Ġstrate gy
ĠAccording ly
Ġtap est
âĢĶâĢĶ âĢĶâĢĶ
Ġincomp rehensible
ĠBER TRAM
Ġwig wam
Ġscram bled
Ġadvertis ements
ĠPed ro
Ġvictual s
Ph il
ĠTour ism
Ġomin ous
Ġremitt ances
ĠNapht ali
ĠSEB AST
C ON
E ve
l at
p icious
se ud
am ine
ĠB ITNET
Ġ2 70
ĠD ak
Ġad verse
Ġover laid
Ġcl over
Ġpe ak
Ġcha ined
Ġunder gone
Ġpres umed
Ġ13 7
oon er
Ġbra very
74 8
ĠMan ufact
Al as
Ġbrid ges
Ġcoinc idence
ĠS leep
ĠH OT
................ .....
LE Y
Ġcrit ics
ĠIsa iah
ĠValent ine
Ġbol ted
ĠKa ol
4 17
4 60
N C
b ster
n igh
Ġs ord
Ġo o
ar io
Ġl atch
Ġh ound
Ġe unuch
ĠA ven
ĠT ol
ĠT ibo
Ġst ur
ĠC ELIA
Ġsa uce
Ġcom ic
ĠG ed
Ġdo ck
op old
Ġno blest
Ġle ase
Ġle pro
Ġdis eng
Ġen raged
Ġpl under
ĠK ha
Ġnight gown
Ġhor rified
ĠRe verend
Ġmaster y
apt ain
let ter
Ġenc amped
Ġpen ance
ĠAnt oine
ĠWest minster
Ġdin ar
Ġprofess ions
Ġunf av
EM ANTUS
Ġgro aning
Ġfirm ament
do ors
Ġrepro ached
ari at
cont rol
ĠAR MAD
Ġavoid ing
ĠAP EMANTUS
ĠLA F
ache th
Ġlun atic
Ġextrem ities
Ġdaz ed
ĠCle op
ĠUk rain
ĠIv ar
bers pace
Ġsynt hetic
pow ered
Ġsland er
ĠShort ly
ĠPeters burg
Ġanci ents
ĠNac ional
ĠStry ver
ĠSEBAST IAN
' )
3 06
5 80
c ern
r t
Ġt ing
on na
Ġf ading
ĠS ound
Ġas cribed
ul ity
us c
Ġ3 32
ĠR O
Ġch o
Ġcomp ose
16 00
ans w
Ġdra ft
Ġsk ip
75 1
Ġru pe
Ġsuccess ively
Ġacqu is
Ġnarrow ly
ĠAust in
Ġident ify
Ġbenevol ence
Ġtuck ed
Ġphant om
ĠAri zona
B N
is ement
Ġ1 65
ĠL ock
Ġsc aff
eg u
........................ .......
Ġbook seller
ĠSh ow
................................ .......
ĠPol ish
ĠIndian a
CH O
Ġmut tering
Ġstiff ly
Ġexert ions
Ġflut ter
Ġscaff old
3 22
4 26
5 84
5 47
7 24
C ould
c reat
d isc
u y
he im
in able
er am
Ġb ricks
Ġm aps
Ġc ork
Ġd ye
Ġn ucle
ĠA CH
ent e
ĠT hern
ro be
ĠM ak
ĠM ors
ĠC DB
ĠH unt
Ġ2 72
ĠP OST
pp ers
ĠJ ared
ĠJ opp
Ġle e
Ġover power
Ġdes c
li ver
eg ov
Ġass ailed
82 19
76 9
Ġcast les
olog ically
Ġfre ck
Ġwatch ful
Ġfav ored
Ġauthor ized
ĠAN NE
Ġ84 13
Ġ84 83
Th ink
Ġgrand son
Ġcamp us
Ġstar ving
ov able
ĠEnvironment al
Ġflood ing
Ġtar ried
Ġ292 4
alog y
PE Y
ĠOP ANAL
ĠAz ariah
Ġinvol ves
Ġther ns
ĠVAL UE
Ġnegl ig
Ġshrie ks
Ġincess ant
ĠDod o
Ġcovet ous
ĠMahar s
ĠMURDER ER
ĠAgripp a
ĠARMAD O
) ............................
7 94
a ic
m ag
s hed
Ġthe ological
ĠT YPE
ĠW ast
Ġsp un
18 85
ty pe
Ġ17 6
Ġz ero
LO T
Ġunivers ally
Ġfortun ately
Ġspark s
Ġassem ble
ĠIm ag
Ġcher ish
Ġbutter flies
Ġconj unction
Ġdazz led
Ġconsec rated
ĠTru ly
ĠCommer ce
M ost
ĠEx per
Ġexpl oration
................................................ .....
ĠAG E
, ,
7 45
9 80
P ut
j or
j un
r ising
u let
Ġb ps
Ġb inary
Ġb acon
or an
Ġd ip
ic ero
Ġ1 22
ĠT ert
Ġfor ged
ĠH itt
th ood
Ġr ushes
ust ic
ĠJ ep
Ġwould est
Ġgo ings
Ġwor ms
Ġqu ench
av ian
18 99
ign y
Ġgl iding
ere nd
Ġwr inkles
Ġcar le
ĠWhen ce
Ġsil ken
ern on
Ġblack smith
Ġeas iest
Ġexpendit ure
Ġvol upt
Ġsatisf ying
ĠLi ver
Ġmort ification
Ġunivers ities
ARD OLPH
Ġdomin ions
ĠServ ices
Ġfan atic
ĠPhilip pe
aret tes
Ġvolcan o
ĠLeban ese
Ġfors ook
ĠED GAR
Ġtel escope
Ġbewild er
Ġscholars hip
Ġbef ell
Ġfanc iful
Ġimpuls es
Ġinfam y
ĠNOR TH
Ġacadem ic
ĠJehoi ada
conc ert
Ġgyps um
orient ed
ĠPOM PEY
Ġlepro sy
4 63
5 63
7 37
P RO
Ġha n
.. ."
se par
Ġan ten
and um
Ġ2 05
ong ru
Ġpro let
Ġ3 50
ĠR ENT
ĠY ours
ĠY ears
Ġpr one
ĠTo ky
Ġdel ive
Ġmis cellaneous
Ġloc ust
IS S
do zen
mark s
Ġjer ked
ĠThir teen
Ġemphat ically
ĠOwn er
ĠToky o
73 9
ĠRep ort
Ġridic ule
ĠCair o
3 83
5 93
5 60
B OT
B URY
M E
Ġb aker
Ġc ited
Ġp ell
Ġh og
ay e
ĠM OTH
ĠB ARDOLPH
Ġk en
Ġ2 914
ĠW id
ĠL ud
ĠD ow
un ces
ie val
iv ated
Ġle v
Ġ8 207
av os
ps on
Ġmight ily
Ġtra vers
Ġsupp ress
Ġrel ays
Ġtru ce
Ġfour score
ĠRe view
Ġ23 8
Ġloc om
Ġyell ed
Ġlab yr
umb ent
Ġthick ly
Ġjourney s
UR N
Ġbul w
Ġdiss ent
Ġmel od
Ġing red
Ġlegisl atures
Ġrat io
Ġcontinu ation
Ġexpand ing
ĠSim ilar
Ġribb ons
mach inery
Ġshove l
ĠWhoso ever
ĠRat ign
ĠMeth inks
ĠHerz egov
ĠPresbyter ian
d el
j ur
Ã ¢
ĠS elf
ĠW OL
ĠP imper
Ġr ug
ĠD AU
ĠAnd ers
ack ed
Ġen l
Ġcomm itt
Ġsub mer
und ers
Ġser mons
Ġsuggest ive
Ġmagn anim
Ġadvance ment
ĠLaw s
Ġovert aken
Ġscra pe
ĠBu ilding
ĠKnow ing
Ġdelic ately
ĠTechn ology
Ġnotor ious
ĠChap man
Ġt ag
Ġde le
ĠR enter
ell i
ĠTh ought
AN G
ĠHer cules
ĠSa f
Ġaim s
ĠOut side
Ġshudd ering
5 17
P uerto
r ings
Ġ }
nd ered
is ation
ed uc
en in
Ġd izzy
ĠA ru
id eth
ad ors
ĠC lear
am per
ĠH aj
ĠL YS
ĠN UR
ĠF ab
ĠD ugal
Ġdo se
Ġover coat
Ġover hanging
................ .......
Ġcl ang
Ġcha ste
Ġimp arted
Ġrep ast
Ġconf inement
Ġtrans form
Ġpol ar
Ġwood ed
ĠCl ar
Ġdeep ened
Ġbar rels
Ġav ar
Ġmed i
Ġ84 14
Ġemploy ees
wor ked
ĠFl int
Ġcloud ed
ĠSa ff
Ġcrow ds
Ġdiss im
Ġthrust ing
ev il
Ġwed ded
Ġcounter feit
tes se
Ġschol arly
ĠBas que
Ġprecip ice
Ġnaught y
Ġelephant s
Ġpist ols
Ġfisher man
ĠDist rict
Ġtut or
Ġunbel ief
Ġapprehend ed
const ruction
Ġresear ches
ĠANDRE W
Ġmini ature
ĠHarv ard
Aust ral
ĠChett am
ĠUkrain ian
6 14
8 17
U PAN
g ran
in ois
Ġl ug
Ġ1 26
ut t
ĠThe e
ĠN az
Ġpass ers
ĠFor th
Ġpers piration
Ġext ant
Ġbus ied
Ġsing er
Ġmis eries
Ġban ner
Ġtransport ed
Ġcult ural
Ġhy per
Ġinj urious
Ġaccess ion
Ġmat ron
ĠHOUSEHOL DER
ido Net
ĠPimper nel
UPAN CY
W estern
ĠM ouse
Ġ2 23
ĠD I
ip us
Ġmult if
iqu ette
Ġming le
................................................ ...
ym ph
ĠVol ta
Ġrefres hed
ĠCay man
Ġparad ox
3 20
6 77
D en
R ight
V er
i atic
m ember
s and
Ġo unces
Ġc um
Ġf ences
at ism
Ġn oo
ĠI an
Ġg ene
al and
st ar
ad minist
ĠH ang
ĠB ild
ul i
ul k
Ġ2 74
ĠP ant
ĠF Z
Ġex pelled
Ġpro ving
ĠR ot
Ġ4 80
Ġsp ray
Ġen acted
Ġcl asp
Ġrem in
erv ing
Ġback bone
Ġsl ower
atter s
Ġlo omed
Ġneed less
Ġlay s
Ġjud iciary
Ġten or
ĠPe pper
Ġcross es
Ġprocess ed
Ġdesp atched
Ġpen n
ED A
Ġign ore
Ġblind ly
asse th
ĠJo ash
Ġafford s
Ġodd ly
ĠPen insula
Ġthanks giving
Ġben ches
Ġtal ons
Ġdisturb ing
Ġpersec uted
Ġmam m
Ġpall id
Ġchuck led
Ġslipp ers
Ġcyl ind
Ġenforce ment
ĠCAP ULET
Ġsniff ed
ĠGibe ah
ĠCOUNT ESS
Ġrestaur ant
ĠApparent ly
ĠKant os
Ġguarant ee
ĠCleop atra
5 88
6 87
7 88
ar re
an gel
ĠI L
ĠT rouble
id ated
ĠM ig
ĠG rad
um bed
ĠO rigin
Ġno bly
Ġcont ag
Ġinc ongru
Ġ12 1
Ġlead en
aw s
iar id
Ġscar f
Ġda is
Ġdism ayed
Ġune ven
Ġsem iarid
rels au
Ġvolunt e
ĠSab bath
Ġinsert ed
ĠHOUSEHOL DS
ĠTEN URE
ĠOCC UPANCY
H ar
ĠS IM
ĠR ental
18 93
ĠUN ITS
Ġmor ality
Ġstrugg les
Ġconvin cing
Ġtermin ated
3 89
4 89
6 26
7 92
9 10
9 67
l ass
n orm
p ay
Ġm im
ing broke
Ġl as
Ġhe wn
ot us
Ġre cept
Ġst ability
ĠC uth
ĠC OC
am i
am ount
ĠL em
ab ol
ig u
Ġun limited
Ġar isen
ĠSt ory
Ġjust ification
ĠThen ce
Ġter ra
me e
ĠSe ek
Ġrel ics
unt il
Ġmorn ings
ĠPh ot
Ġoper ates
Ġobl ique
Ġinn ov
Is n
IG N
look ed
Ġcontrib ution
Ġcart ridge
mond s
ige ons
Ġtel co
ĠÃ ī
ATION S
Ġquad rant
Ġtransg ressed
Ġuneas ily
Ġsubd ue
Ġimpud ent
ĠFind ing
Ġding y
ĠNation ale
gau ge
Aff aires
ĠLAF EW
3 47
6 91
7 25
9 86
M P
k ens
m ong
Ġw ield
ĠA CC
Ġwh ims
il oqu
Ġ2 917
op ic
ĠR AM
ud ged
ĠIn v
ĠK y
18 88
ĠSt relsau
Ġact or
Ġstran gest
Ġden omin
Ġeight eenth
ik es
ĠLaw rence
Ġdistrib ute
ĠIll inois
ĠYOU R
Ġlun cheon
ĠCle veland
abul ary
ĠNon family
ĠPerse us
ĠQUAR TERS
) ..........................
) .........................
Ġo ption
Ġcon sole
Ġres orted
ĠHome owner
. -
4 91
5 02
] !
m ain
Ġa foot
Ġs angu
Ġin ert
Ġre vers
ĠM orm
Ġ( "
Ġse er
ĠW ess
ac ao
ĠF la
Ġdo est
Ġal g
Ġ3 75
Ġ4 50
Ġun locked
Ġsp urs
Ġbl and
Ġbl ond
Ġday time
Ġimp erson
Ġmin istered
eg a
Ġinc arn
Ġstr ides
Ġpol es
eter mined
Ġir ons
ney s
oura bly
Ġpurp osed
ĠHen rietta
Ġrev ival
Ġdevelop ments
cient ific
In ternational
Ġcou pled
Ġseek eth
Ġdam aged
set tled
Ġdesign ated
Ġpeculiar ities
pet roleum
Ġbid den
Ġrum our
Ġprecip itate
Ġleis urely
Ġcomprehend ed
sla ve
Ġhook s
Ġtumult uous
Ġstamp ing
Ġtribut aries
Ġawaken ing
Ġobliv ion
BRO KE
Ġbung al
ĠKin caid
ĠFranco is
Ġundist urbed
Ġsord id
ĠNUR SE
5 82
A IS
st orm
ĠThe ss
ĠE rit
Ġch ir
av our
ip her
act s
Ġdef ault
Ġtrans ient
Ġfour teenth
Ġvar n
sy stem
ĠXX II
Ġ52 10
Ġenv ied
Ġrecoll ected
Ġsen ior
Ġstam ps
Ġdisg usted
Ġblast ed
ĠFore ign
Ġcorpor ate
ĠFollow ing
Ġgloss y
ĠInstitution alized
S U
Ġ 000
Ġm use
ĠB RO
Ġimp ose
Ġswe eter
IS P
ĠDr isc
UC TURE
Ġplag ues
wa ite
Ġappoint ments
ĠSTR UCTURE
6 25
6 67
8 26
A F
C al
b ear
y on
Ġ ++++++++++++++++++++++++++++++++
Ġt angle
Ġa us
Ġw il
re el
Ġc uck
Ġc ensus
Ġp ac
Ġp au
at ches
Ġl oses
Ġg room
id ation
ĠM uda
Ġis les
ĠC andy
ĠG iry
Ġsh un
ĠJ em
Ġab b
Ġle ver
Ġ6 05
Ġimp ract
ens ible
Ġref inement
ĠNA TO
Ġlo aves
Ġinter vention
Ġsure ty
Ġopp osing
Ġcirc us
Ġsoft ness
Ġ84 18
Ġcircum ference
Ġwhis kers
Ġcru cified
Ġcand y
Ġsimilar ly
Ġblind ness
com be
Ġthro ats
Ġfil aments
Ġtur b
Ġtradition ally
ĠAc adem
ĠJos ie
ĠMaur ice
riot ic
Ġinterf ered
Ġwhist led
SP UR
Ġwag ons
ĠBol ingbroke
Ã¨ s
Ġornament ed
ĠAE thel
Ġreluct ant
Ġincons ider
++++++++++++++++++++++++++++++++ ++++++++
Ġprett iest
Ġoverfl ow
Ġbou levard
Ġaug ment
ĠGentle men
Ġadjust ment
ĠReh oboam
Ġnoct urnal
Ġproxim ity
Ġ++++++++++++++++++++++++++++++++ ++++++++++++++++++++++++++++++++++++++++
4 86
8 06
r ather
Ġa ward
ri ving
Ġwe b
ch ild
ĠF ra
ĠE ight
Ġappe aling
Ġround s
Ġsk ir
gra nd
Ġsn akes
Ġsn arling
Ġsleep s
Ġeng aging
Ġcre ed
ĠRed mond
Ġcontrib utions
ĠSwed e
Ġcontinu ance
Ġhind ered
Ġsurm ounted
ĠColumb ia
Ġwhir led
Ġbaff led
ĠM ind
Ġ2 24
ĠP ubl
ĠAnd re
19 06
ĠMin or
Ġillust rate
Ġtil ted
2 91
3 99
A ng
S I
v ian
w orm
Ġ q
Ġt ension
Ġthe ater
on ius
it ol
es cend
Ġn ull
Ġwh ipping
ct ive
Ġan ec
ess im
ĠP and
Ġar sen
Ġover came
Ġoff ences
be arer
Ġtra verse
Ġcur l
ĠNA CC
Ġinter rog
Ġexc uses
35 1
Ġtri g
Ġsign als
Ġstri pe
Ġcra v
IT IES
Ġdet ain
Ġvill a
Ġclot he
Ġ84 81
Th ree
Ġintrodu cing
Ġadmir ably
Ġphil anthrop
Ġsubs cription
Ġdistinct ions
Ġ93 9
ĠJude a
ĠSand wich
Ġmild ly
Ġghost ly
Ġglim mer
Ġfrag rance
Ġcolon ial
Ġdivers ion
Ġtimid ly
Ġdilig ent
Ġmagist rates
Ġtrif les
Ġfisher men
Ġaccommod ate
dep art
abe uf
Ġadvertis ement
Ġceremon ies
tem pered
Ġdelir ium
Ġuncircum cised
ĠBly the
Oct ober
ĠHOT SPUR
Ġanec d
7 55
Ġ âĶĢâĶĢâĶĢâĶĢâĶĢâĶĢâĶĢâĶĢâĶĢâĶĢâĶĢâĶĢâĶĢâĶĢâĶĢâĶĢâĶĢâĶĢâĶĢâĶĢâĶĢâĶĢâĶĢâĶĢâĶĢâĶĢâĶĢâĶĢâĶĢâĶĢâĶĢâĶĢ
ĠT on
ĠT oto
ĠM ONT
ĠH ipp
Ġex empt
ers ion
ĠO UT
Ġim pending
Ġtw elfth
man y
ĠNo va
Ġfear less
Ġmod ems
day s
Ġlangu id
ĠPl ate
ĠCor ps
ĠMac intosh
Ġinstinct ive
ĠPRO V
Ġbeard ed
Ġling er
Ġboast ed
Ġleaf y
ĠIT S
Ġcompens ation
ĠVOL UM
Ġseren ity
5 96
Ġo ar
Ġe bb
ĠP ow
ĠG reg
ĠChrist opher
ĠGu ernsey
ĠFRI END
ĠCir cles
8 64
9 83
m oy
o ves
Ġt ested
Ġa fl
Ġo ct
Ġw an
at ist
Ġd ung
Ġl ids
Ġhe mp
Ġe art
ĠT art
ur ia
ĠM aker
ĠC rom
ĠH av
Ġ2 82
ĠL ewis
ĠG io
ĠN EA
ol o
ĠAnd y
ort ment
Ġ3 204
Ġag on
Ġag ility
Ġsp ider
Ġcan als
Ġ6 20
Ġind ustrious
Ġimp ost
ĠFor mer
Ġbeg et
ced ented
Ġgra pp
AR R
Ġfell er
Ġgener als
Ġcr us
Ġneed les
ones ian
Ġopp onent
Ġboy hood
Ġdev ast
Ġdem ons
Ġ85 16
Ġnet her
ĠHel aman
Ġphys icians
Ġ73 04
anc iere
Ġbill i
Ġaccompl ishment
Ġtum ble
Ġcub it
Ġdawn ing
ĠSom ali
erk ow
Ġgrate fully
Ġexplo ited
Ġbutter fly
Ġperpet ually
Ġincor rect
Ġbug s
Ġscript ures
Ġpha ses
ĠNear ly
Ġslipp ery
ĠFRI AR
Ġderiv atives
Ġalum ina
estab lished
ĠHun ter
ĠSolid arity
ĠPell ucid
ĠJez reel
ĠSaff ir
ĠCOC OM
M ary
s n
ou p
Ġ1 67
ĠW ife
ĠP arson
Ġshe riff
Ġpe al
ink er
ĠSt rat
Ġcount en
Ġret ra
Ġ13 8
Ġdi vert
Ġadj usted
ĠDes ert
Ġlegend s
ĠXXX V
Ġscript ure
Ġreluct antly
Ġener gies
Ġprohib ited
Ġsquat ted
Ġplung ing
ĠT ogether
ĠS ame
ĠN Y
Ġqu itting
az ine
AP H
Ġfill s
Ġtermin ation
keep ers
OUN D
Ġrever ber
Ġverd ict
ĠHapp y
ĠHat chard
5 91
6 24
7 83
7 53
P ipelines
b ast
Ġo val
Ġb ide
on n
Ġin human
Ġhe aving
ĠI mm
ĠI RC
Ġbe ak
id ery
Ġre wards
ĠS int
Ġst ung
ĠC itizens
ĠB id
Ġ2 916
ĠP iz
el p
art en
Ġsh it
ĠR ou
iv a
Ġle ak
Ġam pl
ru ly
Ġad ieu
Ġdis ordered
Ġmen ace
Ġsl am
ang les
ĠThere with
Ġlast ly
Ġ17 5
Ġsur veying
Ġche aper
Ġpri es
Ġsent in
min ated
ĠLe opold
Ġprom otion
Ġoccup ations
Ġtend ing
Ġjo vial
Ġrad ios
ĠCo le
ĠComm ons
pro of
Ġaccess ories
Ġspect ator
ĠFin anciere
Ġhandsome ly
Ġmurd ers
ĠFront ier
Ġsus ceptible
ĠIm per
Ġcig arettes
Ġfla x
Ġthres hing
Ġtimid ity
Ġornament al
Ġbud s
Ġdiscont in
Ġmas cul
ĠCarm el
Ġhurric ane
Ġstif led
Ġpalp able
Ġexclaim ing
Ġinvolunt ary
ĠDin ah
Ġprecept s
ĠEphes us
Ġmuzz le
Ġafe ard
H am
s ighted
Ġa ching
Ġw al
Ġp iles
al on
Ġ1 64
Ġ2 43
Ġ2 45
ĠL XX
red ited
ĠG row
ĠD ream
Ġbl ur
Ġbl ocked
Ġ6 04
ĠV oice
Ġhead ache
Ġsight ed
Ġobject ive
Ġjour n
ĠJac obs
Ġcool ing
,âĢĻ âĢĿ
ĠWal den
Ġgallant ry
Ġcomprehens ion
ĠTW O
ĠBeaut y
ĠÃĨ sop
ĠNantuck et
illot ine
B E
ĠM ut
ĠC oun
ĠW atch
ag re
ĠV o
AN Y
gra ph
Ġfr inge
go v
ĠXX III
ĠInt erest
ĠHO PE
ĠDrisc oll
0 81
4 65
5 01
6 98
8 18
8 67
9 63
H or
V EN
f ruits
g un
h oles
m u
Ġt ens
Ġo y
Ġo int
Ġw ick
Ġto iled
Ġp ail
ĠI le
ĠT ab
ver ness
Ġfor n
ĠM ens
ĠM me
ĠM abeuf
Ġme mb
Ġ2 33
Ġout let
Ġ5 15
Ġen jo
Ġbl ameless
Ġfl ute
Ġfl ickering
Ġunder going
Ġsm ash
Ġsc ores
18 96
Ġrep ress
Ġcur b
ner y
Ġlo an
Ġdef ensive
Ġcent avos
Ġeff ic
Ġtele vision
Ġten ants
Ġexper ts
Ġpa wn
Ġrespect ability
Ġcommun icating
Ġschool room
Ġver and
Ġang ular
Ġden ial
Ġhat es
ĠNorth umberland
Ġhall owed
Ġreign s
Ġbord ered
see ing
Ġclean se
cher y
Ġdig ged
Ġconstit utes
Ġge ographical
Ġvine gar
Ġcultiv ate
Ġmoder ation
Ġcy cle
ĠSue z
Ġvolcan oes
ili ary
ili ated
Ġsurv iv
clam ations
Ġsen ators
Ġnit rogen
Ġclut ches
ĠChin moy
Ġreass ured
pow der
Ġdart ing
ĠTheod ore
ĠRid ley
ĠLanc aster
ĠDau phin
Ġmischie vous
Ġlabyr inth
ĠRatign olle
ĠHerzegov ina
Ġbungal ow
Ġ++++++++++++++++++++++++++++++++++++++++++++++++++++++++++++++++++++++++ +
Ġpries thood
! !
5 07
7 01
7 27
g ths
Ġo ce
Ġc yn
Ġp ens
Ġe thereal
Ġ2 44
ĠL ive
ĠN eg
Ġsh oved
ĠO bed
ĠO LD
Ġal ac
ĠJ A
19 75
Ġ6 10
Ġtra itors
Ġfort itude
Ġconvers ing
ĠHar per
Ġship wreck
Ġfle ets
Ġtechn iques
Ġassoci ates
Ġren ounce
Ġincons istent
Ġecl ipse
Ġdist orted
Ġneck lace
Ġconcent ration
ĠWILL IAM
0 98
4 90
5 03
6 99
7 06
A IN
D N
D em
L ike
V P
V ER
h un
v ised
z on
or ian
or thy
Ġp ained
Ġd rying
Ġn u
Ġg ull
Ġe f
ĠT ash
ĠS all
Ġk itten
Ġ0 709
Ġ2 67
ĠN y
qu as
qu al
ĠAnd ronic
Ġ3 926
ĠR ise
Ġab ject
19 45
Ġun ce
Ġun wise
Ġch oke
are a
per se
Ġpre occupied
Ġsc our
18 91
ĠIs s
Ġcount s
Ġend ow
Ġgra v
Ġbre w
Ġexp orted
Ġact ively
Ġca ress
Ġhard est
ĠMiss ouri
Ġmean est
Ġsuff ers
Ġequ als
aw ak
Ġprov oking
Ġmer riment
Ġbrother hood
Ġexpl ains
Ġstra ining
Ġadm itting
Ġbra zen
ĠRep ubl
ocr at
Ġplan ks
Ġdeter ior
ales e
Ġfalse ly
Ġsubm iss
Ġregular ity
Ġ62 03
Ġpersu as
Ġrob bery
ĠCor iant
Ġfart hest
Ġexped itions
Ġexplan ations
Ġmurder ous
Ġlat ent
Ġrust ic
Ġcla p
ĠHall ward
Ġcomment ed
Ġfount ains
Ġcir cled
ĠCre te
ĠAlban ian
doll ar
ĠRh odes
Ġstub ble
Ġinconven ient
Ġarist ocracy
Ġalk ali
Ġflav or
Ġmetap hor
Ġpeb bles
Ġtherm ometer
Assemble e
3 67
F M
m ast
s ometimes
Ġo t
Ġg ear
ĠS le
ra ve
ra cks
ĠC ub
ch ildren
ĠB OL
ĠF ro
Ġout cast
18 98
ĠSt acy
Ġtrans action
ĠGo ing
Ġlist ener
Ġbright est
IL E
Ġpost ing
Ġpant ry
Ġhosp itable
Ġaltern ating
bel ieve
Ġwreck ed
Ġuncon cern
Ġpaw s
Ġfacil itate
ĠPUBL IUS
E d
b ird
s ize
ĠC ut
ĠC OST
ĠE FF
Ġadd itions
Ġsle ek
Ġinex per
Ġreprodu ction
Ġcongrat ulate
ĠFif th
ĠBax ter
4 85
4 67
4 82
7 17
7 35
S L
d al
Ġt us
Ġa version
Ġs led
at re
Ġd edu
Ġl uc
le men
Ġe aves
st ained
ut ations
ĠS oc
ĠâĢ ¦
ĠM ot
us a
Ġr itual
ĠN un
Ġsh red
od er
ĠU l
ack ing
Ġper adventure
Ġcomm itting
ĠShe ma
oc ated
ĠAs her
Ġsl oth
Ġwork eth
Ġcar avan
Ġmar s
ret chen
AR E
AN A
ĠBe ers
Ġinf ect
ĠZ or
ĠZ erkow
Ġ16 04
Ġunderstand s
ĠTH ERS
Ġwalk eth
Ġve iled
ĠCha mbers
ĠThese us
Ġcommun ion
Ġmed itations
Ġmed ieval
Ġconvers ations
ĠLeg isl
ĠAle ck
Ġcru c
ĠCom tesse
Ġcit oyen
Ġsubs crib
pha lt
Ġmill et
Ġcoc a
Ġclever ness
sm all
ih on
Ġcig ars
Ġhyp oc
ĠEqu ator
Ġpreserv es
Ġinfant ry
ĠSid on
ĠHack er
Ġmend ed
Ġbru ised
ETR IUS
ĠRand alls
Ġcompr ised
Ġdecomp osition
ĠPack ing
Ġcos m
ĠDet roit
ĠGibe on
Ġarbit rary
Ġrelent less
Ġunav oid
Ġtas ks
Ġpi geon
Ġsitt eth
Ġunpre cedented
ĠRosal ind
ĠDEM ETRIUS
ĠZebul un
ĠJeb us
Ġdiscom f
Ġeart hen
ĠTHERS ITES
4 16
8 25
9 90
z ens
ad an
Ġse vered
Ġ2 55
est ead
Ġgr is
ĠK ell
!âĢĿ âĢĶ
Ġend urance
here th
Ġev idences
Ġmon etary
Ġins ure
Ġarm or
Ġdev ouring
AS C
Ġrid den
employ ed
Ġinnoc ently
St ill
Ġgrat ify
UL L
ĠCy rus
Ġabsor ption
wind ow
ĠCott on
ĠPoss ibly
Ġgrop ing
Ġalac rity
F TA
n head
ĠB ridge
ĠF IG
Ġsh rine
ĠEl se
UN C
Ġunaw are
3 02
E gypt
H ush
m is
Ġt ig
Ġw ri
Ġm used
Ġf iled
Ġp ly
Ġp als
Ġin cont
ĠA i
Ġwe aken
ĠB owers
Ġk icking
ĠN ott
Ġall otted
ant us
ol ving
Ġsh irts
ĠO liver
ĠJ elly
Ġle x
ud es
Ġout s
ass ing
ĠU DF
Ġover shad
Ġpe g
ĠK ish
ĠK ung
Ġres idents
18 95
Ġwork er
Ġapp lying
Ġco vert
ĠAl ber
Ġsy mm
Ġsil ks
Ġext racted
Ġliv id
ote us
ĠNew son
Ġdiv ined
Ġdiv inity
ĠPh rack
Ġsign ified
Ġstru ctures
Ġ28 27
ĠMin istry
Ġfra ction
Ġden ote
Ġtrem or
ĠCons ult
gu ard
Ġmor ally
Ġsumm its
Ġgen us
Ġclean ing
ixt ures
ĠLiber ty
Ġcell ars
OW AS
Ġfond ly
Ġimper ious
Ġprime val
Ġspr inkle
ĠGrand e
ugg age
ĠED M
cut ta
Ġbever age
Ġoppress ive
Ġpopul ous
Ġstre wn
Ġordin ances
Ġnour ished
Ġju ice
ĠEV ANS
Ġreappe ar
Ġbount y
Ġsarcast ic
Ġket tle
ĠSpani ards
Ġmason ry
Ġtipt oe
Ġsupersed ed
ĠWess ner
ĠPellucid ar
5 83
8 10
8 23
a ith
Ġs izes
ed ed
Ġp seud
Ġ2 56
Ġr uth
ant ically
Ġ3 55
Ġj ab
ass a
Ġcl ump
Ġpre face
18 33
ere au
Ġrel ied
not e
Ġhur ts
wh ose
ump et
Ġdesp atch
Ġdecla res
Ġnoble man
ĠBord ereau
Ġg in
ĠA pe
ĠS OM
ĠS alt
ĠB AN
ĠW et
Ġbus ily
ĠOF F
LO CK
Ġpath os
4 01
5 94
6 88
6 63
6 16
7 62
b irds
k an
n ation
ha f
Ġd ictionary
an ium
Ġh ounds
Ġn ave
ic eth
Ġg iddy
Ġe ve
id ius
ĠC ob
Ġan a
ĠH os
ĠB ASS
ĠL iter
Ġ3 07
Ġkn ob
Ġ4 20
Ġun gu
Ġsp aring
ish ops
Ġper d
Ġpl ots
Ġhand ing
Ġ6 103
Ġcomp onents
03 05
Ġsc are
ĠCh i
Ġent rusted
und a
und y
Ġsur pri
Ġem inence
Ġprom ont
cent ury
Ġgentle woman
Ġwild life
Ġsix pence
Ġtou cheth
fl oor
Ġhost ility
Ġ85 04
Ġpit iless
Ġstar light
Ġnotice able
Ġble ed
Ġtow ering
Ġ2000 9
Ġsuspect ing
ule k
Ġ95 03
ĠTell son
ĠLA IA
Ġpond ering
Ġforbid ding
Ġprivile ged
Ġconsid ers
ĠCorn wall
ĠMod ern
Ġcarbon ate
Ġabhor red
Ġsurre ndered
bet ween
Ke ep
Ġank le
idor f
Ġamph ithe
Ġwhoredom s
Ġprivat ization
Ġerad ication
Ġmell ow
ĠVenet ian
Supp ose
Ġplaus ible
erend um
Ġbewilder ment
ĠCuth bert
Ġmascul ine
5 12
7 68
H ello
T en
Ġf riction
or p
Ġ18 0
Ġun inter
ect ive
ach t
Ġtra its
Ġsupp orts
IN C
ĠAr ts
Ġdec reed
Ġpret ensions
Ġgrou ped
Ġmed itating
Ġsuper intendent
ĠMad rid
Ġcompl ac
Ġgle e
ĠAR AB
Ġlament ed
ĠAD AM
comp uter
ĠLad ies
Ġcandid ates
Ġtom bs
Ġscrut iny
Ġdrow sy
ĠSib yl
Ġargu ing
Ġacquis ition
6 11
ow a
Ġ2 04
ĠP in
ous s
Ġ3 62
18 67
ĠHow ard
Ġfulf ill
ĠHon our
ĠGentle man
Ġprair ie
- ^
2 98
8 92
I AS
L ux
M AC
b ig
p it
r ar
s man
t ha
u um
Ġb athe
ou reth
Ġp essim
Ġd um
Ġn uns
ĠI b
ic ent
ĠS iber
Ġ2 27
ĠG ers
ĠD IS
Ġv ocal
op ha
Ġal ight
ĠHe ise
Ġar ouse
Ġch ip
Ġcl asping
Ġpe eping
ĠAl ong
AR C
Ġass im
Ġmo aned
Ġdark ly
Ġspo or
de ep
Ġconst able
Ġfact ors
irc le
Ġrequ ests
Ġpat ted
ĠJud y
Ġcold ness
Ġhorse man
Ġvill ains
Ġver te
OU L
OU CH
Ġjo king
ipp ers
Ġsepar ates
Ġcomb ust
Ġfruit less
Is rael
Ġpack ages
Ġris ks
Ġmotion ed
Ġpin ned
rat itude
ĠEs merald
ĠPont mercy
Ġsne er
whe el
Ġbark ing
Ġrot ation
ĠTR ANIO
Ġsucc or
Ġinsol ence
Ġtrim med
Ġdeceit ful
Ġstealth y
Se ptember
Ġber ries
Ġredd ened
ĠPOL ONIUS
Ġcrystall ine
Ġpuls es
ĠBeat rice
Ġloos ened
Ġmirac ulous
Ġzen ith
Ġverand ah
ĠAndronic us
6 23
7 47
7 30
C y
f ell
i ad
l ord
it ers
ĠP ip
ĠE cc
Ġv ass
Ġfe eb
Ġcha sing
ĠCl ark
emb ers
oured din
Ġign omin
Ġnational ity
Ġconce aling
Ġmir rors
ĠArt icle
ĠPat ty
ĠPat rick
Ġdetermin ing
Ġpreserv ing
Ġclut ching
Ġvital ity
Ġachieve ment
Ġinfam ous
ĠShad ow
Ġjourn als
Ġfeeb ly
it ar
ĠI D
ĠS har
Ġcon gen
so lete
ĠDor mer
ĠBer keley
Ġbol ts
riend ly
Ġrestrict ions
2 93
4 98
7 13
C D
G ent
M ER
N onsense
R oman
c laimed
e h
s ided
t u
t re
w it
Ġp igeons
Ġd aint
Ġin tern
Ġl uggage
ic os
ĠT ith
Ġst ew
Ġst up
ĠH em
ĠB ac
ĠB rid
Ġ2 73
Ġde jected
ĠP ond
ĠG retchen
ĠF ie
ant u
Ġman ure
ĠHe idel
Ġout sk
pt ic
Ġ4 60
Ġun heard
Ġsp ine
Ġdis concert
Ġfe es
Ġpl astic
ĠK os
ĠK amp
Ġsc ab
iss ance
ip otent
Ġseem eth
eth yl
Ġpres um
pect ing
Ġfri gate
Ġsaw est
Ġdiff used
Ġstand eth
Ġel igible
Ġtrans fers
ĠAd rian
Ġconst ell
Ġcond escend
par n
Ġdro ll
Ġdang ling
Ġpen insula
ĠNe idorf
Ġgrave yard
ĠCons ervation
Ġcompl aining
Ġfrequ ented
Ġshame ful
Ġtor ches
Ġspect re
ĠLike wise
Ġx vi
Ġdesper ation
ĠSar awak
ĠDou glass
Ġshru g
Ġclim ax
ĠHu bert
Ġthread s
Ġvir gins
Ġbrut ality
LD C
Ġmanufacture rs
ĠSab ah
Ġrival ry
Ġconject ures
Ġstim ulated
Ġkil ometers
Ġharmon ious
Ġcolle agues
Ġstupe fied
ĠSEN ATOR
Ġarithmet ic
Ġgav est
ĠNott ingham
7 28
8 77
Y P
m and
Ġa right
ic ially
Ġfor feit
ĠS oph
Ġ4 75
Ġun armed
Ġfa wn
ĠShe pherds
[...]
