{"<PAD>":0,"<UNK>":1,"<SOS>":2,"<EOS>":3,"<CLS>":4,"<SEP>":5,"!":6,"\"":7,"#":8,"$":9,"%":10,"&":11,"'":12,"(":13,")":14,"*":15,"+":16,",":17,"-":18,".":19,"/":20,"0":21,"1":22,"2":23,"3":24,"4":25,"5":26,"6":27,"7":28,"8":29,"9":30,":":31,";":32,"<":33,"=":34,">":35,"?":36,"@":37,"A":38,"B":39,"C":40,"D":41,"E":42,"F":43,"G":44,"H":45,"I":46,"J":47,"K":48,"L":49,"M":50,"N":51,"O":52,"P":53,"Q":54,"R":55,"S":56,"T":57,"U":58,"V":59,"W":60,"X":61,"Y":62,"Z":63,"[":64,"\\":65,"]":66,"^":67,"_":68,"`":69,"a":70,"b":71,"c":72,"d":73,"e":74,"f":75,"g":76,"h":77,"i":78,"j":79,"k":80,"l":81,"m":82,"n":83,"o":84,"p":85,"q":86,"r":87,"s":88,"t":89,"u":90,"v":91,"w":92,"x":93,"y":94,"z":95,"{":96,"|":97,"}":98,"~":99,"¡":100,"¢":101,"£":102,"¤":103,"¥":104,"¦":105,"§":106,"¨":107,"©":108,"ª":109,"«":110,"¬":111,"®":112,"¯":113,"°":114,"±":115,"²":116,"³":117,"´":118,"µ":119,"¶":120,"·":121,"¸":122,"¹":123,"º":124,"»":125,"¼":126,"½":127,"¾":128,"¿":129,"À":130,"Á":131,"Â":132,"Ã":133,"Ä":134,"Å":135,"Æ":136,"Ç":137,"È":138,"É":139,"Ê":140,"Ë":141,"Ì":142,"Í":143,"Î":144,"Ï":145,"Ð":146,"Ñ":147,"Ò":148,"Ó":149,"Ô":150,"Õ":151,"Ö":152,"×":153,"Ø":154,"Ù":155,"Ú":156,"Û":157,"Ü":158,"Ý":159,"Þ":160,"ß":161,"à":162,"á":163,"â":164,"ã":165,"ä":166,"å":167,"æ":168,"ç":169,"è":170,"é":171,"ê":172,"ë":173,"ì":174,"í":175,"î":176,"ï":177,"ð":178,"ñ":179,"ò":180,"ó":181,"ô":182,"õ":183,"ö":184,"÷":185,"ø":186,"ù":187,"ú":188,"û":189,"ü":190,"ý":191,"þ":192,"ÿ":193,"Ā":194,"ā":195,"Ă":196,"ă":197,"Ą":198,"ą":199,"Ć":200,"ć":201,"Ĉ":202,"ĉ":203,"Ċ":204,"ċ":205,"Č":206,"č":207,"Ď":208,"ď":209,"Đ":210,"đ":211,"Ē":212,"ē":213,"Ĕ":214,"ĕ":215,"Ė":216,"ė":217,"Ę":218,"ę":219,"Ě":220,"ě":221,"Ĝ":222,"ĝ":223,"Ğ":224,"ğ":225,"Ġ":226,"ġ":227,"Ģ":228,"ģ":229,"Ĥ":230,"ĥ":231,"Ħ":232,"ħ":233,"Ĩ":234,"ĩ":235,"Ī":236,"ī":237,"Ĭ":238,"ĭ":239,"Į":240,"į":241,"İ":242,"ı":243,"Ĳ":244,"ĳ":245,"Ĵ":246,"ĵ":247,"Ķ":248,"ķ":249,"ĸ":250,"Ĺ":251,"ĺ":252,"Ļ":253,"ļ":254,"Ľ":255,"ľ":256,"Ŀ":257,"ŀ":258,"Ł":259,"ł":260,"Ń":261,"Ġt":262,"he":263,"Ġa":264,"in":265,"Ġthe":266,"Ġs":267,"Ġo":268,"Ġw":269,"re":270,"nd":271,"er":272,"ha":273,"Ġb":274,"ou":275,"on":276,"it":277,"Ġm":278,"is":279,"Ġc":280,"ed":281,"en":282,"Ġof":283,"Ġf":284,"Ġand":285,"or":286,"es":287,"âĢ":288,"Ġto":289,"ing":290,"Ġp":291,"at":292,"ar":293,"Ġd":294,"an":295,"ll":296,"Ġin":297,"as":298,"Ġl":299,"Ġh":300,"Ġhe":301,"Ġn":302,"om":303,"ĠI":304,"ic":305,"Ġha":306,"..":307,"le":308,"Ġbe":309,"Ġg":310,"hat":311,"al":312,"ion":313,"ot":314,"Ġe":315,"st":316,"ve":317,"ow":318,"Ġth":319,"Ġ1":320,"ut":321,"ĠA":322,"ent":323,"ĠT":324,"im":325,"id":326,"se":327,"Ġy":328,"ld":329,"Ġu":330,"Ġthat":331,"ly":332,"Ġre":333,"ce":334,"gh":335,"et":336,"Ġwas":337,"ay":338,"ir":339,"ver":340,"Ġit":341,"ith":342,"Ġon":343,"Ġfor":344,"ro":345,"ĠS":346,"ur":347,"ĠâĢ":348,"Ġyou":349,"Ġwh":350,"Ġwith":351,"ad":352,"ĠâĢľ":353,"âĢĿ":354,"Ġhis":355,"....":356,"ct":357,"Ġas":358,"âĢĻ":359,"Ġst":360,"ra":361,"ri":362,"ĠM":363,"Ġis":364,"ght":365,"ĠC":366,"her":367,"Ġwe":368,"am":369,"Ġnot":370,"ch":371,"00":372,"ĠThe":373,"Ġan":374,"ĠH":375,"ĠB":376,"ter":377,"ill":378,"il":379,"oo":380,"Ġhad":381,"Ġk":382,"Ġher":383,"Ġ(":384,"th":385,"ation":386,"Ġse":387,"Ġat":388,"ould":389,"Ġme":390,"and":391,"ain":392,"if":393,"ul":394,"ore":395,"Ġ0":396,"Ġhim":397,"Ġ2":398,"Ġde":399,"Ġsa":400,"ess":401,"ĠW":402,"pe":403,"ĠP":404,"ke":405,"ĠL":406,"ge":407,"nt":408,"Ġsu":409,"est":410,"red":411,"rom":412,"Ġby":413,"ich":414,"Ġcom":415,"us":416,"all":417,"Ġcon":418,"Ġshe":419,"Ġhave":420,"Ġr":421,"ĠG":422,"ĠN":423,"ac":424,"Ġmy":425,"--":426,"ĠF":427,"Ġso":428,"ĠE":429,"Ġwhich":430,"res":431,"Ġall":432,"Ġup":433,"em":434,"ight":435,"ab":436,"ate":437,"qu":438,"Ġfrom":439,"Ġthey":440,"Ġbut":441,"Ġex":442,"ers":443,"ant":444,"ĠD":445,"Ġ19":446,"........":447,"Ġor":448,"Ġv":449,"ist":450,"Ġne":451,"el":452,"ol":453,"art":454,"Ġthis":455,"um":456,"Ġsh":457,"ous":458,"Ġwhe":459,"ard":460,"ust":461,"Ġsaid":462,"Ġdo":463,"ive":464,"Ġare":465,"Ġthem":466,"op":467,"ĠO":468,"un":469,"ast":470,"ĠAnd":471,"Ġwere":472,"os":473,"our":474,"Ġman":475,"Ġal":476,"ong":477,"ood":478,"âĢĶ":479,"pp":480,"Ġsha":481,"Ġpro":482,"od":483,"ig":484,"ome":485,"ort":486,"ie":487,"Ġ3":488,"ĠR":489,".âĢĿ":490,"ame":491,"ity":492,"ĠJ":493,"out":494,"one":495,"Ġone":496,"han":497,"Ġab":498,"Ġthere":499,"ĠHe":500,"ord":501,"Ġint":502,"Ġno":503,"iv":504,"19":505,"Ġtheir":506,"ind":507,"Ġkn":508,"lf":509,"ound":510,"ak":511,"very":512,"ment":513,"ell":514,"Ġwho":515,"Ġthou":516,"Ġle":517,"ud":518,"Ġout":519,"pt":520,"ine":521,"Ġwill":522,"ck":523,"Ġwould":524,"ther":525,"ies":526,",âĢĿ":527,"ure":528,"la":529,"Ġ18":530,"ost":531,"Ġag":532,"ry":533,"Ġ4":534,"own":535,"Ġun":536,"Ġgo":537,"Ġj":538,"ven":539,"Ġbeen":540,"ass":541,"au":542,"01":543,"reat":544,"ran":545,"ook":546,"Ġwhen":547,"ide":548,"Ġli":549,"ake":550,"Ġshall":551,"hed":552,"itt":553,"Ġyour":554,"ear":555,"Ġ\"":556,"Ġar":557,"ff":558,"way":559,"Ġsp":560,"rou":561,"ap":562,"ect":563,"ag":564,"cc":565,"ep":566,"ice":567,"self":568,"ime":569,"Ġ_":570,"ish":571,"Ġwor":572,"Ġam":573,"Ġother":574,"ĠU":575,"Ġmore":576,"ber":577,"ack":578,"Ġfa":579,"fore":580,"Ġinto":581,"ci":582,"ite":583,"Ġus":584,"Ġif":585,"ĠIt":586,"02":587,"Ġch":588,"Ġwhat":589,"ia":590,"ose":591,"able":592,"ru":593,"Ġcan":594,"Ġcould":595,"ond":596,"'s":597,"Ġqu":598,"Ġad":599,"Ġupon":600,"Ġany":601,"ence":602,"pl":603,"ren":604,"Ġunt":605,"Ġro":606,"Ġover":607,"Ġper":608,"Ġdis":609,"Ġ5":610,"Ġim":611,"Ġthan":612,"ian":613,"ings":614,"ble":615,"Ġen":616,"ove":617,"ary":618,"urn":619,"Ġbl":620,"ally":621,"Ġknow":622,"Ġsome":623,"90":624,"Ġagain":625,"ade":626,"ĠTh":627,"Ġfe":628,"Ġtw":629,"Ġabout":630,"are":631,"Ġdid":632,"per":633,"ount":634,"Ġpl":635,"ĠBut":636,"end":637,"ions":638,"ire":639,"Ġlike":640,"other":641,"Ġsay":642,"Ġhand":643,"................":644,"ĠIn":645,"ree":646,"Ġ6":647,"ĠY":648,"Ġnow":649,"Ġ8":650,"hing":651,"),":652,"ress":653,"Ġcl":654,"?âĢĿ":655,"wn":656,"ered":657,"ild":658,"Ġpart":659,"Ġpe":660,"age":661,"ink":662,"Ġtime":663,"Ġsee":664,"ile":665,"Ġpr":666,"Ġday":667,"fter":668,"ated":669,"Ġoff":670,"Ġlook":671,"Ġgr":672,"ath":673,"ather":674,"Ġthen":675,"ance":676,"10":677,"Ġhas":678,"Ġvery":679,"ied":680,"old":681,"nder":682,"ĠK":683,"ness":684,"bl":685,"Ġshould":686,"Ġ.":687,"Ġunto":688,"Ġfl":689,"Ġgreat":690,"Ġtoo":691,"ked":692,"Ġ7":693,"ved":694,"ittle":695,"iz":696,"ĠMr":697,"ult":698,"Ġcomm":699,"Ġgood":700,"ne":701,"ue":702,"ĠShe":703,"ach":704,"Ġcont":705,"Ġlittle":706,"Ġbefore":707,"92":708,"Ġour":709,"land":710,"Ġres":711,"Ġdown":712,"Ġcomp":713,"ng":714,"03":715,"ons":716,"91":717,"ward":718,"av":719,"Ġyear":720,"ife":721,"Ġonly":722,"Ġpre":723,"man":724,"Ġcha":725,"Ġra":726,"cl":727,"orn":728,"oll":729,"Ġmade":730,"Ġafter":731,"ps":732,"Ġcame":733,"Ġcome":734,"Ġits":735,"ople":736,"Ġri":737,"og":738,"Ġspe":739,"uch":740,"!âĢĿ":741,"ft":742,"93":743,"oy":744,"ious":745,"94":746,"ouse":747,"ĠV":748,"Ġtwo":749,"irst":750,"ise":751,"----":752,"000":753,"we":754,"OR":755,"Ġmay":756,"int":757,"ric":758,"ations":759,"Ġunder":760,"Ġbec":761,"20":762,"Ġlong":763,"Ġpo":764,"ull":765,"Ġ-":766,"Ġdes":767,"Ġway":768,"ful":769,"Ġrem":770,"Ġsm":771,"so":772,"65":773,"Ġsc":774,"Ġbr":775,"bs":776,"ew":777,"ces":778,"ert":779,"Ġbet":780,"Ġear":781,"18":782,"Ġthy":783,"Ġmust":784,"Ġacc":785,"Ġthese":786,"Ġevery":787,"ĠSt":788,"ign":789,"hen":790,"Ġhow":791,"Ġwhere":792,"ark":793,"erv":794,"Ġeven":795,"iss":796,"Ġmight":797,"ph":798,"Ġown":799,"Ġind":800,"Ġsuch":801,"14":802,"Ġey":803,"Ġpass":804,"Ġfirst":805,"15":806,"ction":807,"ater":808,"ical":809,"Ġmen":810,"ave":811,"ĠIs":812,"ick":813,"Ġnever":814,"Ġmuch":815,"12":816,"04":817,"Ġpeople":818,"ip":819,"13":820,"88":821,"Ġimp":822,"Ġkm":823,"ĠFor":824,"Ġback":825,"ory":826,"rough":827,"Ġthink":828,"Ġcons":829,"igh":830,"Ġgl":831,"#_":832,"du":833,"ty":834,"Ġ_#_":835,"oth":836,"Ġwell":837,"ial":838,"ause":839,"ere":840,"Ġlet":841,"ĠGod":842,"Ġthee":843,"mer":844,"77":845,"Ġseem":846,"ways":847,"Ġthrough":848,"Ġmost":849,"oc":850,"Ġwent":851,"64":852,"Ġbeg":853,"Ġhouse":854,"25":855,"Ġmake":856,"eth":857,"Ġest":858,"ale":859,"Ġ$":860,"ock":861,"Ġold":862,"ĠAs":863,"ily":864,"89":865,"oss":866,"the":867,"Ġword":868,"ried":869,"05":870,"ER":871,"Ġrep":872,"ough":873,"led":874,"Ġthought":875,"63":876,"85":877,"17":878,"Ġchild":879,"Ġye":880,"Ġatt":881,"ĠLOR":882,"hes":883,"Ġsl":884,"ang":885,"ced":886,"Ġ9":887,"23":888,"ens":889,"Ġcall":890,"Ġwr":891,"Ġturn":892,"ĠCh":893,"Ġland":894,"Ġpres":895,"24":896,"ince":897,"Ġhimself":898,"row":899,"Ġrate":900,"Ġent":901,"Ġhead":902,"les":903,"Ġaway":904,"Ġke":905,"Ġyears":906,"Ġbeing":907,"67":908,"%,":909,"ĠThere":910,"Ġwork":911,"ĠLORD":912,"Ġhere":913,"87":914,"Ġjust":915,"ors":916,"Ġapp":917,"99":918,"ition":919,"less":920,"Ġla":921,"ase":922,"Ġbel":923,"Ġco":924,"84":925,"Ġte":926,"tern":927,"oman":928,"for":929,"mb":930,"te":931,"Ġalso":932,"ady":933,"omet":934,"Ġlast":935,".\"":936,"ures":937,"83":938,"ĠThey":939,"Ġeyes":940,"ower":941,"Ġcar":942,"lace":943,"ĠMar":944,"cy":945,"Ġfound":946,"ject":947,"Ġlife":948,"iff":949,"Ġtr":950,"ves":951,"ace":952,"pect":953,"Ġthings":954,"ened":955,"ever":956,"Ġfri":957,"xt":958,"27":959,"Ġmany":960,"Ġmar":961,"Ġop":962,"ail":963,");":964,"con":965,"Ġthose":966,"Ġget":967,"Ġright":968,"illion":969,"ational":970,"Ġhar":971,"Ġap":972,"be":973,"Ġcount":974,"ener":975,"07":976,"ged":977,"ted":978,"Ġ[":979,"Ġret":980,"Ġagainst":981,"ates":982,"Ġac":983,"16":984,"ĠAn":985,"med":986,"Ġend":987,"Ġtake":988,"ished":989,"ither":990,"ib":991,"95":992,"Ġtra":993,"Ġput":994,"Ġwithout":995,"here":996,"Ġnew":997,"ĠWh":998,"ĠThis":999,"vers":1000,"Ġdist":1001,"Ġstill":1002,"ents":1003,"ĠThen":1004,"Ġheart":1005,"ving":1006,"get":1007,"43":1008,"ms":1009,"Ġprodu":1010,".)":1011,"alk":1012,"Ġsaw":1013,"ible":1014,"Ġgra":1015,"Ġsw":1016,"ense":1017,"Ġever":1018,"Ġplace":1019,"Ġwant":1020,"97":1021,"vern":1022,"Ġyet":1023,"pend":1024,"ĠSo":1025,"26":1026,"ĠYou":1027,"ative":1028,"Ġdon":1029,"sel":1030,"Ġface":1031,"Ġset":1032,"Ġsec":1033,"Ġsame":1034,"Ġsub":1035,"lect":1036,"ĠAl":1037,"86":1038,"outh":1039,"Ġrec":1040,"Ġsomet":1041,"44":1042,"ars":1043,"Ġserv":1044,"ĠAt":1045,"ared":1046,"ix":1047,"und":1048,"Ġter":1049,"Ġfather":1050,"ĠTo":1051,"ody":1052,"Ġking":1053,"vel":1054,"ah":1055,"up":1056,"Ġlight":1057,"ans":1058,"Ġtell":1059,"'t":1060,"Ġbre":1061,"its":1062,"atter":1063,"ract":1064,"opul":1065,"ret":1066,"Ġinst":1067,"ited":1068,"Ġfar":1069,"ict":1070,"ubl":1071,"ple":1072,"Ġnight":1073,"Ġyoung":1074,"Ġfriend":1075,"Ġthing":1076,"Ġanother":1077,"11":1078,"Ġname":1079,"Ġworld":1080,"Ġnothing":1081,"ont":1082,"li":1083,"ined":1084,"Ġ&":1085,"Ġnor":1086,"sw":1087,"ollow":1088,"Ġpers":1089,"Ġgive":1090,"Ġwhile":1091,"Ġsupp":1092,"ities":1093,"Ġlove":1094,"53":1095,"ott":1096,"Ġbecause":1097,"aking":1098,"ning":1099,"06":1100,"ertain":1101,"Ġlooked":1102,"22":1103,"Ġthree":1104,"96":1105,"rit":1106,"Ġwar":1107,"cess":1108,"ently":1109,"Ġmin":1110,"ger":1111,"imes":1112,"Ġtook":1113,"Ġ17":1114,"Ġthough":1115,"ĠIf":1116,"Ġcour":1117,"ss":1118,"AR":1119,"ĠThat":1120,"Ġsy":1121,"Ġexp":1122,"ween":1123,"oun":1124,"Ġho":1125,"US":1126,"Ġrun":1127,"ool":1128,"ĠDe":1129,"ĠWe":1130,"Ġseemed":1131,"ĠInd":1132,"Ġmind":1133,"vent":1134,"ution":1135,"Ġreg":1136,"thing":1137,"me":1138,"ĠWhen":1139,"ĠMrs":1140,"ĠWhat":1141,"Ġleft":1142,"omm":1143,"Ġside":1144,"Ġmom":1145,"Ġple":1146,"Ġfore":1147,"den":1148,"ks":1149,"Ġocc":1150,"Ġbetween":1151,"aint":1152,"Ġchan":1153,"ched":1154,"Ġfollow":1155,"ments":1156,"Ġamong":1157,"Ġdone":1158,"ief":1159,"aught":1160,"cept":1161,"Ġhapp":1162,"Ġhands":1163,"ĠSe":1164,"Ġ15":1165,"Ġsur":1166,"rew":1167,"ub":1168,"ural":1169,"ual":1170,"Ġheard":1171,"Ġchildren":1172,"har":1173,"Ġdeath":1174,"Ġref":1175,"Ġansw":1176,"eg":1177,"ug":1178,"Ġadd":1179,"ows":1180,"ier":1181,"Ġappe":1182,"Ġcur":1183,"Ġrel":1184,"Ġnat":1185,"Ġconf":1186,"--------":1187,"Ġtot":1188,"Ġ10":1189,"Ġdiff":1190,"of":1191,"45":1192,"air":1193,"ister":1194,"Ġcap":1195,"Ġrest":1196,"ute":1197,"Ġonce":1198,"opulation":1199,"ude":1200,"Ġposs":1201,"obs":1202,"AN":1203,"EN":1204,"Ġuse":1205,"Ġlar":1206,"ident":1207,"Ġfind":1208,"Ġbeh":1209,"ular":1210,"ained":1211,"most":1212,"Ġson":1213,"bt":1214,"Ġfeel":1215,"ĠBe":1216,"ins":1217,"Ġfell":1218,"Ġdisc":1219,"rought":1220,"Ġearth":1221,"Ġgener":1222,"Ġsat":1223,"oice":1224,"Ġgiv":1225,"47":1226,"Ġhigh":1227,"Ġgu":1228,"orts":1229,"Ġwoman":1230,"Ġinc":1231,"ĠLord":1232,"Ġkind":1233,"Ġact":1234,"Ġpur":1235,"iness":1236,"Ġalways":1237,"ĠUn":1238,"ĠNA":1239,"Ġev":1240,"elt":1241,"act":1242,"Ġem":1243,"ner":1244,"Ġtotal":1245,"Ġgot":1246,"Ġreturn":1247,"Ġhath":1248,"Ġsil":1249,"Ġgoing":1250,"33":1251,"Ġmoment":1252,"vernment":1253,"ublic":1254,"Ġtoward":1255,",\"":1256,"Ġroom":1257,"Ġext":1258,"80":1259,"att":1260,"Ġbo":1261,"Ġsmall":1262,"55":1263,"Ġche":1264,"ating":1265,"Ġmon":1266,"ering":1267,"Ġstand":1268,"Ġca":1269,"ĠUS":1270,"ern":1271,"30":1272,"Ġform":1273,"not":1274,"Ġlo":1275,"Ġart":1276,"Ġdoor":1277,"Ġ12":1278,"ene":1279,"conom":1280,"uth":1281,"Ġinter":1282,"Ġass":1283,"ung":1284,"IN":1285,"Ġwind":1286,"Ġlaw":1287,"ON":1288,"Ġwater":1289,"Ġmother":1290,"irl":1291,"Ġbro":1292,"Ġliv":1293,"82":1294,"Ġnear":1295,"Ġdra":1296,"ross":1297,"Ġmo":1298,"rib":1299,"Ġread":1300,"Ġsomething":1301,"Ġhear":1302,"Ġwhite":1303,"Ġhalf":1304,"Ġwhom":1305,"Ġasked":1306,"oul":1307,"You":1308,"ised":1309,"40":1310,"Ġwords":1311,"Ġgrow":1312,"ason":1313,"Ġcalled":1314,"ote":1315,"Ġfew":1316,"The":1317,"Ġbu":1318,"Ġcr":1319,"Ġheld":1320,"Ġexc":1321,"osed":1322,"Ġkeep":1323,"der":1324,"Ġboth":1325,"ants":1326,"ES":1327,"Ġseen":1328,"Ġtre":1329,"Ġincl":1330,"Ġturned":1331,"aster":1332,"ĠHis":1333,"Ġbetter":1334,"Ġeach":1335,"Ġpri":1336,"57":1337,"Ġpoint":1338,"Ġstr":1339,"Ġhum":1340,"sh":1341,"ĠAr":1342,"Ġmillion":1343,"mber":1344,"ery":1345,"Ġhour":1346,"Ġcle":1347,"ains":1348,"Ġdays":1349,"Ġinf":1350,"ines":1351,"Ġknew":1352,"Ġdep":1353,"Ġdec":1354,"selves":1355,"Ġaff":1356,"66":1357,"Ġcertain":1358,"ired":1359,"ized":1360,"Ġtold":1361,"ting":1362,"Ġcontin":1363,"Ġtran":1364,"rist":1365,"++":1366,"Ġins":1367,"Ġ13":1368,"az":1369,"Ġhard":1370,"Ġfam":1371,"Ġbrought":1372,"ken":1373,"ield":1374,"Ġste":1375,"Ġpower":1376,"atch":1377,"ped":1378,"Ġstood":1379,"ices":1380,"Ġhome":1381,"ank":1382,"Ġwa":1383,"ĠOn":1384,"ĠEng":1385,"form":1386,"50":1387,"Ġ`":1388,"ility":1389,"Ġhor":1390,"ĠZ":1391,"37":1392,"Ġhel":1393,"Ġless":1394,"aken":1395,"Ġsoon":1396,"als":1397,"ĠNew":1398,"Ġnone":1399,"Ġel":1400,"Ġbegan":1401,"Ġgirl":1402,"stem":1403,"hy":1404,"ific":1405,"Ġnum":1406,"Ġenough":1407,"Ġser":1408,"iet":1409,"Ġair":1410,"Ġbelie":1411,"Ġspeak":1412,"Ġdel":1413,"ling":1414,"atic":1415,"laim":1416,"rael":1417,"Ġsent":1418,"ĠEx":1419,"ĠâĢĻ":1420,"**":1421,"Ġblack":1422,"Ġbir":1423,"AT":1424,"Ġfull":1425,"Ġquite":1426,"Ġdark":1427,"Ġdef":1428,"Ġspo":1429,"ĠIsrael":1430,"Ġfelt":1431,"Ġvoice":1432,"ĠNational":1433,"unt":1434,"cial":1435,"Ġround":1436,"Ġpopulation":1437,"aut":1438,"Ġsince":1439,"Ġcent":1440,"Ġ16":1441,"Ġgave":1442,"ries":1443,"ĠNo":1444,"Ġopen":1445,"Ġperson":1446,"Ġlarge":1447,"Ġeff":1448,"ĠMiss":1449,"Ġtru":1450,"Ġalmost":1451,"21":1452,"Ġinde":1453,"Ġmatter":1454,"ased":1455,"Ġtrans":1456,"It":1457,"Ġstran":1458,"min":1459,"Ġdire":1460,"pped":1461,"Ġmean":1462,"erest":1463,"Ġ14":1464,"ember":1465,"Ġwhole":1466,"ages":1467,"ually":1468,"Ġherself":1469,"lt":1470,"Ġ11":1471,"Ġlive":1472,"Ġsystem":1473,"ĠNow":1474,"Ġdiv":1475,"ĠChrist":1476,"Ġreal":1477,"Ġneed":1478,"ts":1479,"Ġsim":1480,"de":1481,"Ġprop":1482,"Ġmyself":1483,"Ġsure":1484,"Ġmet":1485,"ured":1486,"Ġfall":1487,"ream":1488,"Ġob":1489,"gether":1490,"Ġtogether":1491,"Ġsk":1492,"ane":1493,"ash":1494,"Ġbest":1495,"Ġlay":1496,"iew":1497,"60":1498,"........................":1499,"Ġmil":1500,"aven":1501,"uff":1502,"TER":1503,"owed":1504,"Ġpoor":1505,"28":1506,"Ġmorn":1507,"Ġhaving":1508,"Ġadv":1509,"Ġhast":1510,"ĠFran":1511,"Ġbus":1512,"uring":1513,"Ġshort":1514,"Ġcountry":1515,"ob":1516,"Ġpol":1517,"Ġsle":1518,"Ġused":1519,"Ġdoes":1520,"Ġma":1521,"Ġvis":1522,"ĠMy":1523,"Ġsing":1524,"Ġcare":1525,"Ġdou":1526,"ones":1527,"Ġfour":1528,"Ġdead":1529,"oh":1530,"Ġfear":1531,"ats":1532,"ork":1533,"ches":1534,"ately":1535,"35":1536,"Ġcourse":1537,"ĠHow":1538,"Ġsaying":1539,"Ġuntil":1540,"eter":1541,"cha":1542,"Ġquest":1543,"Ġmorning":1544,"ĠAll":1545,"Ġrather":1546,"ĠAd":1547,"Ġinterest":1548,"Ġlead":1549,"Ġsea":1550,"reet":1551,"Ġsuff":1552,"Ġarm":1553,"gg":1554,"Ġunderst":1555,"Ġcol":1556,"Ġes":1557,"Ġcommand":1558,"98":1559,"Ġjud":1560,"Ġgone":1561,"Ġconst":1562,"ĠWith":1563,"lish":1564,"ably":1565,"ides":1566,"Ġchar":1567,"Ġtem":1568,"54":1569,"70":1570,"Ġequ":1571,"?\"":1572,"ceiv":1573,"0000":1574,"Ġfact":1575,"Ġsun":1576,"Ġtill":1577,"Ġgiven":1578,"Ġinv":1579,"Ġpresent":1580,"Ġtalk":1581,"ĠLe":1582,"Ġwond":1583,"Ġir":1584,".,":1585,"uck":1586,"lands":1587,"pr":1588,"Ġbring":1589,"men":1590,"undred":1591,"to":1592,"Ġbran":1593,"Ġaw":1594,"ued":1595,"ned":1596,"Ġhon":1597,"Ġred":1598,"ully":1599,"ury":1600,"omp":1601,"Ġwithin":1602,"Ġfire":1603,"73":1604,"Ġage":1605,"ths":1606,"Ġwood":1607,"Ġanything":1608,"ceed":1609,"rop":1610,"Ġbook":1611,"Ġalong":1612,"Ġtri":1613,"Ġhundred":1614,"aw":1615,"29":1616,"ommun":1617,"ĠSc":1618,"ĠPr":1619,"ters":1620,"oot":1621,"meric":1622,"Ġwhose":1623,"Ġthus":1624,"Ġsoul":1625,"Ġinclud":1626,"oint":1627,"ĠUN":1628,"ĠNor":1629,"ached":1630,"ĠPh":1631,"Ġtaken":1632,"Ġed":1633,"Ġsir":1634,"ek":1635,"Ġthemselves":1636,"Ġopp":1637,"Ġcond":1638,"read":1639,"any":1640,"Ġhold":1641,"ten":1642,"49":1643,"ĠGo":1644,"Ġforth":1645,"ĠRe":1646,"Ġprov":1647,"Ġmer":1648,"Ġcried":1649,"ention":1650,"ided":1651,"oney":1652,"Ġfin":1653,"haps":1654,"],":1655,"used":1656,"Ġstrong":1657,"Ġaccount":1658,"Ġabove":1659,"Ġ20":1660,"Ġknown":1661,"io":1662,"ues":1663,"ius":1664,"Ġnext":1665,"ital":1666,"Ġcannot":1667,"dden":1668,"abor":1669,"Ġprom":1670,"EL":1671,"arty":1672,"Ġspir":1673,"Ġbeaut":1674,"Ġsecond":1675,"42":1676,"ĠCon":1677,"Ġ{":1678,"right":1679,"Ġboy":1680,"Ġtherefore":1681,"Ġmod":1682,"omen":1683,"ison":1684,"Ġpleas":1685,"âĶ":1686,"âĶĢ":1687,"Ġpast":1688,"Ġbrother":1689,"Ġwife":1690,"Ġarea":1691,"Ġdr":1692,"ton":1693,"ĠCH":1694,"ites":1695,"Ġcor":1696,"cent":1697,"ĠAb":1698,"irc":1699,"Ġcity":1700,"What":1701,"AP":1702,"eren":1703,"Ġsound":1704,"68":1705,"reen":1706,"Ġrepl":1707,"Ġpassed":1708,"Ġhope":1709,"ressed":1710,"75":1711,"Ġtrue":1712,"Ġbody":1713,"âĶĢâĶĢ":1714,"ĠâĢĺ":1715,"mm":1716,"Ġunc":1717,"Ġbur":1718,"Ġdev":1719,"Ġblood":1720,"gy":1721,"Ġbillion":1722,"ider":1723,"Ġmid":1724,"amp":1725,"ĠAf":1726,"body":1727,"ousand":1728,"resent":1729,"Ġfeet":1730,"Ġbed":1731,"Ġhelp":1732,"ĠQ":1733,"une":1734,"Ġsudden":1735,"Ġswe":1736,"Ġfair":1737,"ron":1738,"day":1739,"Ġmount":1740,"62":1741,"hold":1742,"Ġexpect":1743,"31":1744,"Ġplay":1745,"Ġeas":1746,"Ġothers":1747,"Ġ*":1748,"fully":1749,"ient":1750,"Ġproduct":1751,"ĠHer":1752,"ĠAmeric":1753,"ying":1754,"Ġreason":1755,"ists":1756,"Ġgent":1757,"ina":1758,"rench":1759,"Ġgovernment":1760,"ĠEn":1761,"Ġhowever":1762,"34":1763,"that":1764,"Ġide":1765,"Ġbehind":1766,"ĠOf":1767,"Ġthousand":1768,"akes":1769,"gth":1770,"Ġobs":1771,"utes":1772,"Ġtimes":1773,"Ġsign":1774,"ĠSp":1775,"Ġmis":1776,").":1777,"Ġlow":1778,"81":1779,"illed":1780,"DP":1781,"Ġground":1782,"ral":1783,"Ġmine":1784,"Ġexpl":1785,"ee":1786,"gra":1787,"32":1788,"iled":1789,"Ġlooking":1790,"cri":1791,"AL":1792,"aring":1793,"Ġalone":1794,"Ġstra":1795,"Ġill":1796,"ught":1797,"ĠPer":1798,"rig":1799,"ĠCl":1800,"ording":1801,"ec":1802,"ham":1803,"Ġbelieve":1804,"fort":1805,"Ġsla":1806,"Ġgold":1807,"osition":1808,"orrow":1809,"Ġpar":1810,"ism":1811,"];":1812,"use":1813,"iting":1814,"Ġgrowth":1815,"Ġclose":1816,"by":1817,"Ġthir":1818,"Ġforce":1819,"Ġlau":1820,"Ġsn":1821,"Ġanswered":1822,"Ġstate":1823,"Ġresult":1824,"Ġwall":1825,"Ġ24":1826,"Ġfr":1827,"Ġmeet":1828,"iter":1829,"fect":1830,"ards":1831,"Ġprin":1832,"ize":1833,"oud":1834,"II":1835,"Well":1836,"Ġdeep":1837,"Yes":1838,"Ġeconom":1839,"Ġlord":1840,"Ġdest":1841,"arch":1842,"Ġbar":1843,"Ġbound":1844,"enty":1845,"Ġadm":1846,"mp":1847,"ĠParty":1848,"61":1849,"ĠOr":1850,"1990":1851,"Ġdear":1852,"ĠEl":1853,"ricult":1854,"Ġplac":1855,"Ġsubject":1856,"OL":1857,"Ġleg":1858,"Ġstart":1859,"Ġleave":1860,"oon":1861,"Ġconc":1862,"Ġmoney":1863,"Ġbra":1864,"Ġelect":1865,"Ġgentle":1866,"Ġunderstand":1867,"dom":1868,"uc":1869,"Ġoften":1870,"king":1871,"Ġ23":1872,"ience":1873,"gan":1874,"ium":1875,"Ġleast":1876,"Ġph":1877,"ceived":1878,"ean":1879,"ĠTH":1880,"uss":1881,"Ġbes":1882,"Ġsight":1883,"''":1884,"76":1885,"Ġcommon":1886,"Ġelse":1887,"Ġfur":1888,"Ġdisp":1889,"cious":1890,"Ġcirc":1891,"Ġwild":1892,"ST":1893,"Ġbranch":1894,"Ġprof":1895,"Ġreplied":1896,"Oh":1897,"Ġfive":1898,"Ġwalk":1899,",âĢĶ":1900,"Ġfree":1901,"ilt":1902,"Ġsever":1903,"Ġdaught":1904,"Ġabs":1905,"Ġquestion":1906,"ey":1907,"IC":1908,"alked":1909,"Ġfood":1910,"ames":1911,"ets":1912,"And":1913,"Ġimport":1914,"ĠAg":1915,"Ġlist":1916,"Ġstru":1917,"Ġtele":1918,"Ġlear":1919,"Ġshalt":1920,"Ġcase":1921,"ploy":1922,"Ġdirect":1923,"Ġhus":1924,"rie":1925,"Ġheaven":1926,"ives":1927,"Ġ[_":1928,"ought":1929,"Ġtown":1930,"ĠEnglish":1931,"Ġve":1932,"ĠOne":1933,"Ġpret":1934,"erent":1935,"over":1936,"Ġgeneral":1937,"band":1938,"overed":1939,"Ġchief":1940,"Ġwish":1941,"56":1942,"Ġreally":1943,"bit":1944,"rying":1945,"ring":1946,"Ġstop":1947,"Ġ'":1948,"36":1949,"angu":1950,"ĠFrench":1951,"che":1952,"Ġrepresent":1953,"ex":1954,"ohn":1955,"Ġnumber":1956,"ony":1957,"Ġrunways":1958,"Ġ``":1959,"Ġten":1960,"Ġ:":1961,"._":1962,"Ġwhy":1963,"Ġservice":1964,"ended":1965,"Ġitself":1966,"Ġvar":1967,"Ġsit":1968,"ĠCha":1969,"ĠPe":1970,"No":1971,"ified":1972,"itary":1973,"ready":1974,"iles":1975,"Ġbecame":1976,"Ġsix":1977,"Ġrequ":1978,"74":1979,"Ġseveral":1980,"ivers":1981,"Ġcreat":1982,"Ġsort":1983,"Ġwomen":1984,"Ġ200":1985,"Ġdri":1986,"Ġdoubt":1987,"ĠIN":1988,"avy":1989,"But":1990,"Ġbegin":1991,"lag":1992,"Ġcast":1993,"ection":1994,"Ġcoming":1995,"Ġpap":1996,"ĠGe":1997,"Ġpat":1998,"itution":1999,"Ġneither":2000,"Ġstrange":2001,"Ġnecess":2002,"ners":2003,"attle":2004,"Ġpray":2005,"urch":2006,"dle":2007,"amb":2008,"Ġaccording":2009,"velop":2010,"Ġ26":2011,"...":2012,"ĠKing":2013,"itted":2014,"Ġindeed":2015,"Ġmaster":2016,"ĠAnne":2017,"ination":2018,"ĠGu":2019,"Ġsch":2020,"39":2021,"ances":2022,"Ġ25":2023,"Ġeye":2024,"Ġbusiness":2025,"oor":2026,"ĠJud":2027,"Ġcorn":2028,"48":2029,"Ġcharact":2030,"raph":2031,"Ġeffect":2032,"ĠBy":2033,"Ġele":2034,"Ġpublic":2035,"ĠX":2036,"Ġtrou":2037,"46":2038,"Ġpartic":2039,"ctor":2040,"itude":2041,"Ġcut":2042,"ications":2043,"que":2044,"Ġhur":2045,"ĠJohn":2046,"olog":2047,"cean":2048,"Ġaround":2049,"hel":2050,"ĠSir":2051,"Ġhuman":2052,"ality":2053,"Ġmeans":2054,"ET":2055,"ature":2056,"Ġsays":2057,"Ġfoot":2058,"par":2059,"Ġquick":2060,"ety":2061,"Ġnatural":2062,"Ġshow":2063,"08":2064,"uro":2065,"Ġalready":2066,"Ġlost":2067,"Ġfriends":2068,"ians":2069,"Ġcomple":2070,"Ġhusband":2071,"Ġperfect":2072,"1991":2073,"Ġpossess":2074,"Ġthr":2075,"ĠRep":2076,"Ġfamily":2077,"apt":2078,"wh":2079,"Ġstud":2080,"Ġeither":2081,"Ġkept":2082,"ration":2083,"ining":2084,"zan":2085,"ax":2086,"fe":2087,"Ġappro":2088,"Ġexam":2089,"Ġconsider":2090,"Ġobject":2091,"ising":2092,"ĠLet":2093,"icial":2094,"go":2095,"ĠAm":2096,"ny":2097,"ĠTar":2098,"iful":2099,"Ġsol":2100,"Ġorder":2101,"Ġmouth":2102,"1992":2103,"Ġsleep":2104,"Ġforest":2105,"but":2106,"erence":2107,"----------------":2108,"ze":2109,"Ġsoft":2110,"Ġmanner":2111,"Ġclaim":2112,"Ġav":2113,"oke":2114,"Ġbecome":2115,"Ġnote":2116,"Ġtowards":2117,"ging":2118,"Ġexper":2119,"Ġwhether":2120,"Ġcoll":2121,"ĠWhy":2122,"Ġcapt":2123,"ĠGDP":2124,"cil":2125,"Ġparty":2126,"Ġdem":2127,"Ġlady":2128,"ĠAfric":2129,"ement":2130,"ney":2131,"Ġspirit":2132,"Ġbehold":2133,"empt":2134,"ior":2135,"Ġpa":2136,"Ġanswer":2137,"Ġhair":2138,"ĠCHAP":2139,"Ġpeace":2140,"Ġview":2141,"ĠCHAPTER":2142,"iously":2143,"Ġoccup":2144,"Ġdro":2145,"isc":2146,"Ġut":2147,"Ġask":2148,"ush":2149,"Ġ00":2150,"side":2151,"els":2152,"Ġtruth":2153,"Ġperhaps":2154,"Ġran":2155,"ĠPro":2156,"Ġtou":2157,"Ġreturned":2158,"icked":2159,"Ġeat":2160,"Ġdifferent":2161,"urope":2162,"72":2163,"Ġval":2164,"Ġwit":2165,"ots":2166,"Ġloc":2167,"AD":2168,"52":2169,"Ġevening":2170,"ĠWhere":2171,"%;":2172,"itting":2173,"002":2174,"Ġnature":2175,"gel":2176,"._]":2177,"Ġroad":2178,"Ġfre":2179,"ĠEst":2180,"Ġbit":2181,"Ġarms":2182,"ĠFrance":2183,"69":2184,"Wh":2185,"Ġsense":2186,"++++":2187,"Ġexpend":2188,"Ġdidn":2189,"ional":2190,"Ġrose":2191,"ancy":2192,"Ġstreet":2193,"ĠBar":2194,"br":2195,"ission":2196,"Ġbreat":2197,"58":2198,"Ġappear":2199,"Ġteleph":2200,"ĠEurope":2201,"Ġclear":2202,"Ġwonder":2203,"bed":2204,"Ġfish":2205,"Ġtwenty":2206,"Ġ21":2207,"ĠNot":2208,"ĠWill":2209,"fra":2210,"Ġoil":2211,"ges":2212,"Ġself":2213,"ster":2214,"Ġfig":2215,"roy":2216,"79":2217,"Ġacross":2218,"Ġdeal":2219,"001":2220,"Ġstri":2221,"aul":2222,"Ġlonger":2223,"iam":2224,"Ġcro":2225,"Ġord":2226,"Ex":2227,"oe":2228,"Ġbene":2229,"ca":2230,"oura":2231,"Ġfollowed":2232,"Ġcomput":2233,"Ġexpendit":2234,"Ġborn":2235,"Ġfac":2236,"Ġimag":2237,"mbass":2238,"orm":2239,"bled":2240,"Ġcold":2241,"reme":2242,"Ġmus":2243,"Ġexcept":2244,"head":2245,"gr":2246,"ustri":2247,"ĠPres":2248,"Ġ1990":2249,"ĠThese":2250,"Ġmist":2251,"ccess":2252,"Ġtable":2253,"Ġbreak":2254,"Ġpurp":2255,"hange":2256,"mbers":2257,"Ġmaking":2258,"alth":2259,"Ġbad":2260,"ics":2261,"Ġ22":2262,"lled":2263,"Ġauth":2264,"Ġwatch":2265,"Ġfield":2266,"ĠSouth":2267,"ĠPar":2268,"well":2269,"Ġcra":2270,"Ġrespect":2271,"AS":2272,"Ġsal":2273,"Ġline":2274,"Ġsweet":2275,"Ġevil":2276,"Ġstay":2277,"ression":2278,"ump":2279,"003":2280,"itical":2281,"Ġsend":2282,"cing":2283,"Ġlim":2284,"Ġwat":2285,"ivil":2286,"iah":2287,"Ġslight":2288,"Ġgreen":2289,"Ġcal":2290,"Ġdepart":2291,"ĠDo":2292,"Ġdaughter":2293,"Ġsons":2294,"Ġpossible":2295,"Ġcharacter":2296,"Ġexpenditures":2297,"Ġpay":2298,"ĠCar":2299,"eral":2300,"owers":2301,"sp":2302,"Ġoccas":2303,"==":2304,"ma":2305,"Ġdraw":2306,"Ġduring":2307,"Ġmark":2308,"Ġworth":2309,".âĢĶ":2310,"ĠJer":2311,"Ġproper":2312,"Ġbuild":2313,"ĠHen":2314,"ĠState":2315,"Ġgrou":2316,"Ġrev":2317,"ledge":2318,"ĠTarzan":2319,"acy":2320,"Ġcommun":2321,"Ġable":2322,"Ġestab":2323,"ĠAfter":2324,"Ġformer":2325,"Ġcause":2326,"erman":2327,"ĠCommun":2328,"Ġport":2329,"IT":2330,"Ġpie":2331,"Ġletter":2332,"Ġpriv":2333,"imate":2334,"idence":2335,"Ġlater":2336,"Ġwon":2337,"Ġmove":2338,"Ġvol":2339,"Ġpriest":2340,"oses":2341,"isions":2342,"let":2343,"Ġpain":2344,"Ġfine":2345,"He":2346,"Ġenem":2347,"ored":2348,"Ġcontinued":2349,"hern":2350,"ĠLand":2351,"ament":2352,"Ġalt":2353,"Ġsecret":2354,"Ġidea":2355,"Ġsin":2356,"cul":2357,"itten":2358,"Ġparticular":2359,"isf":2360,"Ġslow":2361,"38":2362,"Ġmur":2363,"ror":2364,"Ġfem":2365,"arent":2366,"ĠFrom":2367,"iar":2368,"ĠTom":2369,"Ġann":2370,"Ġ27":2371,"Ġfort":2372,"night":2373,"Ġstep":2374,"004":2375,"Ġru":2376,"Ġhot":2377,"Ġought":2378,"Ġprob":2379,"Ġdream":2380,"ĠHere":2381,"Ġriver":2382,"Ġmed":2383,"ĠMan":2384,"Ġinfl":2385,"EC":2386,"Ġincluding":2387,"Ġ30":2388,"Ġeng":2389,"Ġsuddenly":2390,"ocr":2391,"Ġliving":2392,"Ġeverything":2393,"Ġer":2394,"ds":2395,"Ġsister":2396,"ING":2397,"Ġdet":2398,"ĠOcean":2399,"Ġglad":2400,"Ġforg":2401,"ically":2402,"Ġstren":2403,"Ġled":2404,"uly":2405,"riculture":2406,"Ġthine":2407,"she":2408,"Ġdang":2409,"Ġbig":2410,"OM":2411,"Ġhorse":2412,"Ġmere":2413,"Ġchair":2414,"ita":2415,"like":2416,"ograph":2417,"omin":2418,"esh":2419,"Ġfellow":2420,"icult":2421,"ead":2422,"minist":2423,"!\"":2424,"ips":2425,"Ġentered":2426,"Ġpal":2427,"ley":2428,"Ġmaj":2429,"ĠAp":2430,"Ġsometimes":2431,"Ġ00000":2432,"ĠSh":2433,"Ġfaith":2434,"Ġdie":2435,"you":2436,"Ġperman":2437,"Ġcountries":2438,"face":2439,"007":2440,"Ġopened":2441,"Ġwindow":2442,"Ġshad":2443,"ĠCol":2444,"Ġvill":2445,"where":2446,"Ġfav":2447,"Ġbear":2448,"Ġauthor":2449,"val":2450,"51":2451,"line":2452,"ected":2453,"ĠTer":2454,"Ġ1991":2455,"Ġhappy":2456,"medi":2457,"ĠMay":2458,"Ġfront":2459,"fl":2460,"urg":2461,"Ġpet":2462,"........................................":2463,"yond":2464,"since":2465,"ĠCan":2466,"Ġsuper":2467,"Ġprot":2468,"Ġcross":2469,"005":2470,"Ġsouth":2471,"ĠTHE":2472,"irt":2473,"Ġce":2474,"Ġmag":2475,"Ġplain":2476,"Ġdifficult":2477,"1993":2478,"09":2479,"Ġhill":2480,"Ġappeared":2481,"Ġquar":2482,"That":2483,"antly":2484,"Ġschool":2485,"ĠWas":2486,"Ġsuccess":2487,"Ġpract":2488,"ĠGovernment":2489,"41":2490,"ouncil":2491,"ceive":2492,"Ġearly":2493,"Ġwanted":2494,"Ġjoy":2495,"oes":2496,"Ġfool":2497,"ĠAra":2498,"Ġremember":2499,"aving":2500,"ift":2501,"airs":2502,"1989":2503,"Ġnorth":2504,"................................":2505,"AC":2506,"Ġcry":2507,"006":2508,"Ġdevelop":2509,"Ġsuppose":2510,"Ġ28":2511,"Ġcop":2512,"iment":2513,"Ġremain":2514,"Ġblue":2515,"78":2516,"Ġlabor":2517,"Ġhours":2518,"erved":2519,"uous":2520,"Ġfurther":2521,"room":2522,"Ġready":2523,"Ġsaith":2524,"son":2525,"ĠWell":2526,"Ġprocess":2527,"cip":2528,"ĠBrit":2529,"ĠGerman":2530,"Ġlaid":2531,"ingly":2532,"isl":2533,"59":2534,"aves":2535,"uary":2536,"ixed":2537,"rigin":2538,"Ġquiet":2539,"IS":2540,"ternal":2541,"cient":2542,"Ġmilitary":2543,"ĠAN":2544,"Ġpermanent":2545,"Ġcarried":2546,"Ġentire":2547,"ption":2548,"ushed":2549,"ency":2550,"formation":2551,"ĠEconom":2552,"ĠDem":2553,"Ġty":2554,"Ġspoke":2555,"rid":2556,"Ġpretty":2557,"Ġsurpr":2558,"Ġconvers":2559,"Ġadded":2560,"Ġsword":2561,"iod":2562,"Ġacqu":2563,"Ġforward":2564,"ighb":2565,"Ġdeg":2566,"my":2567,"Ġenc":2568,"Ġdrink":2569,"Ġz":2570,"what":2571,"Ġver":2572,"ĠThou":2573,"Ġreached":2574,"Ġgard":2575,"ays":2576,"ls":2577,"inct":2578,"Ġproducts":2579,"aries":2580,"ox":2581,"hard":2582,"Ġtree":2583,"riage":2584,"gar":2585,"Ġfight":2586,"ĠPhil":2587,"Ġfif":2588,"ai":2589,"Ġ40":2590,"Ġbeautiful":2591,"Ġwin":2592,"ternational":2593,"Ġwrong":2594,"Ġmot":2595,"Ġincre":2596,"Ġchange":2597,"estern":2598,"Ġmembers":2599,"ĠPeople":2600,"Ġclot":2601,"Ġcre":2602,"ĠEd":2603,"gypt":2604,"ources":2605,"Ġtrees":2606,"Ġprep":2607,"Ġorigin":2608,"010":2609,"Ġexist":2610,"het":2611,"ases":2612,"Ġanim":2613,"012":2614,"ĠMad":2615,"Ġsatisf":2616,"ĠJes":2617,"Ġsave":2618,"Ġmad":2619,"ogn":2620,"Ġwalked":2621,"Ġtear":2622,"ĠIslands":2623,"ship":2624,"Ġdesp":2625,"ĠDav":2626,"ober":2627,"reg":2628,"with":2629,"Ġbeyond":2630,"Ġhost":2631,"Ġang":2632,"co":2633,"Ġregard":2634,"Ġlaugh":2635,"IR":2636,"Ġknowledge":2637,"Ġlad":2638,"Ġfemale":2639,"Ġ84":2640,"Ġsold":2641,"Ġlate":2642,"eb":2643,"yl":2644,"uf":2645,"vere":2646,"ator":2647,"Ġ1992":2648,"Ġchurch":2649,"ĠChar":2650,"ruction":2651,"Ġfeeling":2652,"cend":2653,"Ġpict":2654,"fense":2655,"Ġwrite":2656,"ĠRepublic":2657,"****":2658,"Ġmach":2659,"Ġhist":2660,"ĠMal":2661,"fraid":2662,"Ġscar":2663,"Ġaccept":2664,"008":2665,"ĠThus":2666,"Ġsum":2667,"ĠEgypt":2668,"OU":2669,"ening":2670,"eness":2671,"Ġcoast":2672,"Ġbright":2673,"Ġpen":2674,"Ġreach":2675,"ĠHar":2676,"013":2677,"ĠAnt":2678,"Ġfru":2679,"ĠLi":2680,"ED":2681,"ĠEngland":2682,"Ġcomfort":2683,"Ġ85":2684,"ĠWho":2685,"Ġtreat":2686,"oly":2687,"Ġyell":2688,"Ġarri":2689,"emb":2690,"ĠMin":2691,"Ġreceived":2692,"ĠStates":2693,"Ġtend":2694,"IL":2695,"Ġtop":2696,"009":2697,"ask":2698,"Ġdoing":2699,"erve":2700,"Ġdied":2701,"Ġbroad":2702,"ĠMa":2703,"Ġ29":2704,"Ġneighb":2705,"Ġiron":2706,"Ġpost":2707,"wards":2708,"Ã©":2709,"Ġseems":2710,"ables":2711,"ustom":2712,"iling":2713,"ĠDavid":2714,"Ġdivisions":2715,"Ġimmedi":2716,"Ġafraid":2717,"Ġfast":2718,"Ġlangu":2719,"rible":2720,"ĠLeg":2721,"ĠBl":2722,"Ġfollowing":2723,"ointed":2724,"Ġcrops":2725,"Ġdanger":2726,"ĠSha":2727,"ague":2728,"_,":2729,"Ġfra":2730,"Ġproduction":2731,"antic":2732,"Ġtaking":2733,"ming":2734,"ĠChristian":2735,"Ġcircum":2736,"ĠAmerican":2737,"Ġpaper":2738,"71":2739,"Ġattempt":2740,"ador":2741,"Ġnar":2742,"Ġlie":2743,"Ġtried":2744,"though":2745,"AM":2746,"Ġden":2747,"011":2748,"off":2749,"na":2750,"Ġaddress":2751,"Ġplan":2752,"Ġbeast":2753,"Ġmess":2754,"Ġcomes":2755,"Ġresults":2756,"ĠPol":2757,"Ġcapita":2758,"iction":2759,"Ġcompan":2760,"Ġsqu":2761,"Why":2762,"Ġnm":2763,"Ġprison":2764,"Ġstrength":2765,"Ġcourt":2766,"Ġthereof":2767,"ision":2768,"Ġund":2769,"ization":2770,"ports":2771,"Ġwritten":2772,"inary":2773,"ĠAle":2774,"ĠNet":2775,"Ġvi":2776,"Ġstraight":2777,"Ġaid":2778,"Th":2779,"Ġdeter":2780,"Ġsens":2781,"We":2782,"Ġsilence":2783,"Ġtrust":2784,"Ġwide":2785,"Ġpurpose":2786,"Ġmater":2787,"road":2788,"resh":2789,"Ġbott":2790,"Ġcommod":2791,"Ġstory":2792,"Ġoper":2793,"014":2794,"rant":2795,".;":2796,"Ġlen":2797,"itions":2798,"fer":2799,"Ġemploy":2800,"Ġship":2801,"Ġmort":2802,"ĠSome":2803,"Ġtext":2804,"ales":2805,"ounded":2806,"Ġmult":2807,"uted":2808,"Ġ44":2809,"ĠEnter":2810,"Ġsad":2811,"Ġcompany":2812,"pendence":2813,"Ġjo":2814,"Ġrock":2815,"Ġnet":2816,"Ġdog":2817,"laimed":2818,"app":2819,"Ġimportant":2820,"ĠRoman":2821,"Ġdi":2822,"Ġburn":2823,"Ġmig":2824,"Ġpleasure":2825,"Ġremained":2826,"Ġband":2827,"irm":2828,"âĶĢâĶĢâĶĢâĶĢ":2829,"Ġhat":2830,"rent":2831,"Ġconv":2832,"Ġchance":2833,"Ġyourself":2834,"ples":2835,"Ġmajor":2836,"ĠArab":2837,"Ġseven":2838,"wor":2839,"015":2840,"ument":2841,"Ġhig":2842,"Ġpartners":2843,"Ġheavy":2844,"yd":2845,"Ġdeaths":2846,"oose":2847,"iant":2848,"Ġminutes":2849,"ested":2850,"ĠTr":2851,"Ġenter":2852,"Ġstone":2853,"otal":2854,"Ġtrouble":2855,"Ġcapital":2856,"Ġnearly":2857,"eneral":2858,"cially":2859,"Ġgod":2860,"Ġbless":2861,"ĠJesus":2862,"ĠSw":2863,"ĠInde":2864,"ĠMore":2865,"Ġdelight":2866,"ĠGR":2867,"oured":2868,"aly":2869,"ocked":2870,"ĠTe":2871,"ondon":2872,"uct":2873,"Ġresp":2874,"Ġparties":2875,"Ġemb":2876,"Ġdestroy":2877,"ĠPresident":2878,"osp":2879,"Ġfing":2880,"ray":2881,"Ġwis":2882,"ĠGeor":2883,"Ġobl":2884,"Ġrepe":2885,"sequ":2886,"'d":2887,"Ġnecessary":2888,"Ġtelephone":2889,"ustrial":2890,"ĠCour":2891,"rain":2892,"ĠIndian":2893,"stitution":2894,"aged":2895,"Ġopin":2896,"Ġclass":2897,"athe":2898,"cember":2899,"ĠUnited":2900,"ocratic":2901,"Ġsett":2902,"work":2903,"Ġlips":2904,"Ġcommodities":2905,"Ġvisit":2906,"Ġsingle":2907,"Ġeconomic":2908,"ipp":2909,"Ġfit":2910,"Ġcivil":2911,"ously":2912,"anced":2913,"ĠMary":2914,"ply":2915,"Ġbirths":2916,"Ġgas":2917,"Ġmeas":2918,"anuary":2919,"Ġconn":2920,"alley":2921,"Ġrecogn":2922,"umer":2923,"ĠWest":2924,"Ġdoll":2925,"659":2926,"Ġnews":2927,"rupt":2928,"Ġcertainly":2929,"_.":2930,"Ġdrew":2931,"SAT":2932,"Ġ42":2933,"Ġreven":2934,"Ġdistance":2935,"pid":2936,"light":2937,"Ġoffer":2938,"clus":2939,"Ġtry":2940,"Ġthinking":2941,"Ġstat":2942,"Ġspoken":2943,"su":2944,"uty":2945,"Ġmain":2946,"now":2947,"alem":2948,"hood":2949,"Ġeight":2950,"ching":2951,"omatic":2952,"ĠTy":2953,"__":2954,"lo":2955,"Ġbattle":2956,"Ġattention":2957,"Ġmale":2958,"ils":2959,"ĠIC":2960,"ĠNorth":2961,"ien":2962,"Ġyellow":2963,"Ġrid":2964,"ively":2965,"Ġbreath":2966,"Ġrain":2967,"Ġrad":2968,"ĠDor":2969,"ĠJerus":2970,"Ġoccasion":2971,"Ġ100":2972,"Ġda":2973,"Ġsugg":2974,"olution":2975,"Ġbroken":2976,"Ġ1993":2977,"Ġwhis":2978,"ĠYork":2979,"crib":2980,"ok":2981,"Ġposition":2982,"Ġjour":2983,"Ġneg":2984,"Ġinformation":2985,"Ġwicked":2986,"Ġoccur":2987,"ication":2988,"'ll":2989,"Ġthoughts":2990,"Ġhardly":2991,"ours":2992,"016":2993,"Ġmaterial":2994,"TH":2995,"Ġdesire":2996,"ĠCo":2997,"tered":2998,"Ġmeant":2999,"Ġgarden":3000,"Ġresources":3001,"Ġcomplete":3002,"cape":3003,"Ġbeginning":3004,"Ġbelong":3005,"ĠkWh":3006,"Ġpresence":3007,"Ġcomputer":3008,"Ġmem":3009,"018":3010,"Ġremark":3011,"Ġstanding":3012,"Ġworks":3013,"ĠJerusalem":3014,"DA":3015,"Ġlived":3016,"Ġpit":3017,"Ġsepar":3018,"ĠGree":3019,"IO":3020,"Ġmoon":3021,"ĠOF":3022,"joy":3023,"ĠAir":3024,"Ġmakes":3025,"ume":3026,"Ġinflu":3027,"wise":3028,"Ġgate":3029,"Ġyes":3030,"Ġfle":3031,"Ġago":3032,"Ġsilver":3033,"Ġlength":3034,"Ġant":3035,"Ġpot":3036,"Ġhappened":3037,"Ġkill":3038,"itation":3039,"Ġbirth":3040,"ĠDefense":3041,"Ġpress":3042,"Ġmighty":3043,"LO":3044,"iqu":3045,"aled":3046,"uge":3047,"Ġ--":3048,"Ġprogra":3049,"Ġdeli":3050,"ises":3051,"zz":3052,"âĢľ":3053,"There":3054,"rs":3055,"ara":3056,"Ġinqu":3057,"Ġthird":3058,"If":3059,"lished":3060,"Ġproceed":3061,"ĠHigh":3062,"Ġrich":3063,"gress":3064,"Ġtemper":3065,"ĠAfrica":3066,"ĠComp":3067,"port":3068,"acity":3069,"Ġbeside":3070,"chant":3071,"ciety":3072,"ĠNe":3073,"abin":3074,"Ġexact":3075,"Ġproduced":3076,"Ġast":3077,"Ġhid":3078,"Ġunivers":3079,"017":3080,"ires":3081,"come":3082,"rey":3083,"Ġcru":3084,"Ġinn":3085,"In":3086,"oved":3087,"rodu":3088,"Ġdress":3089,"Ġban":3090,"Ġshar":3091,"ĠYet":3092,"spect":3093,"Ġlatter":3094,"Ġfilled":3095,"Ġprobably":3096,"cience":3097,"ruct":3098,"Ġimm":3099,"Ġpra":3100,"ĠHenry":3101,"ĠCouncil":3102,"ĠLu":3103,"rative":3104,"Ġcomb":3105,"Ġwarm":3106,"ĠLondon":3107,"Ġcou":3108,"Ġbread":3109,"Ġmoved":3110,"Ġservant":3111,"Ġpath":3112,"ĠFl":3113,"Ġperiod":3114,"Ġgrand":3115,"rief":3116,"Ġgrave":3117,"MO":3118,"Ġdwell":3119,"Ġ1989":3120,"Ġcorner":3121,"Ġlif":3122,"Ġstruck":3123,"Ġtrem":3124,"aded":3125,"Ġlower":3126,"ĠIsland":3127,"Ġviol":3128,"ĠBel":3129,"Ġminister":3130,"ĠVal":3131,"ĠPaul":3132,"iced":3133,"019":3134,"ovember":3135,"Ġdebt":3136,"Ġcloud":3137,"Ġprev":3138,"Ġyouth":3139,"ĠCons":3140,"Ġhop":3141,"TU":3142,"Ġdarkness":3143,"Ġgentleman":3144,"ĠYe":3145,"How":3146,"clud":3147,"Ġfat":3148,"Ġbelow":3149,"Ġglass":3150,"Ġstopped":3151,"lling":3152,"Ġslowly":3153,"Ġcoun":3154,"Ġhol":3155,"Ġadj":3156,"ĠSaint":3157,"ufact":3158,"Ġbeneath":3159,"ba":3160,"Ġinstant":3161,"Ġtrade":3162,"ories":3163,"ĠSee":3164,"Ġsmile":3165,"thren":3166,"Ġstations":3167,"Ġgreater":3168,"uel":3169,"Ġweek":3170,"Ġlab":3171,"Ġjudg":3172,"Ġfloor":3173,"Ġfun":3174,"Ġenjoy":3175,"icient":3176,"ify":3177,"ĠCome":3178,"Ġsitting":3179,"Ġhonour":3180,"bling":3181,"Ġestablished":3182,"Ġeasy":3183,"Ġclaims":3184,"ĠSa":3185,"Ġpolitical":3186,"ĠBritish":3187,"Ġcircumst":3188,"umb":3189,"Ġfamil":3190,"Ġcaught":3191,"iron":3192,"ik":3193,"Ġslave":3194,"Ġshut":3195,"ability":3196,"Ġthick":3197,"Ġdesert":3198,"Ġservices":3199,"Ġobt":3200,"Ġtong":3201,"Ġgetting":3202,"Ġhous":3203,"Ġwise":3204,"hys":3205,"Ġdry":3206,"illa":3207,"ilar":3208,"uls":3209,"Ġcompl":3210,"Ġraised":3211,"Ġknows":3212,"Ġbrethren":3213,"Ġwait":3214,"Ġdread":3215,"ental":3216,"ĠGeneral":3217,"gu":3218,"Ġfresh":3219,"ĠBr":3220,"Ġlocal":3221,"cell":3222,"ĠMer":3223,"pecially":3224,"Ġbeauty":3225,"rest":3226,"Ġweak":3227,"ĠElect":3228,"ĠCourt":3229,"Ġdin":3230,"Ġsitu":3231,"Ġrapid":3232,"EAR":3233,"Ġ43":3234,"hip":3235,"Ġaccounts":3236,"Ġfigure":3237,"ĠAmerica":3238,"aining":3239,"isted":3240,"apan":3241,"Ġ31":3242,"alph":3243,"Ġprofess":3244,"Ġcouldn":3245,"Ġgar":3246,"024":3247,"olute":3248,"rand":3249,"Ġcommit":3250,"Ġimpro":3251,"Ġign":3252,"ounds":3253,"ager":3254,"Ġexclaimed":3255,"oom":3256,"Ġmonths":3257,"amed":3258,"Ġcamp":3259,"Ġways":3260,"ĠOct":3261,"sem":3262,"Ġconvent":3263,"ghed":3264,"Ġintell":3265,"Ġcontro":3266,"Ġseats":3267,"ĠRic":3268,"ua":3269,"ĠUnion":3270,"Ġdirection":3271,"Ġrace":3272,"Ġdepend":3273,"Ġflesh":3274,"Ġservants":3275,"Ġhung":3276,"TEL":3277,"atural":3278,"Ġbooks":3279,"ĠJew":3280,"Ġparts":3281,"role":3282,"ĠRalph":3283,"LE":3284,"ĠCapt":3285,"022":3286,"orry":3287,"ĠDemocratic":3288,"Ġcrow":3289,"Ġmention":3290,"ĠMarch":3291,"Ġforeign":3292,"Ġhang":3293,"ama":3294,"Ġplaces":3295,"view":3296,"uke":3297,"Ġloved":3298,"ĠAlex":3299,"islative":3300,"mn":3301,"hab":3302,"ecut":3303,"ler":3304,"Ġvarious":3305,"ĠMoses":3306,"IP":3307,"My":3308,"Ġindust":3309,"Ġ33":3310,"ope":3311,"aff":3312,"Ġliber":3313,"Ġoffic":3314,"She":3315,"omb":3316,"ĠUK":3317,"Ġcontr":3318,"sy":3319,"Ġplaced":3320,"Ġimmediately":3321,"kes":3322,"lin":3323,"roleum":3324,"Ġholy":3325,"Ġdat":3326,"Ġkiss":3327,"Ġdim":3328,"Ġspake":3329,"Ġmass":3330,"ĠAM":3331,"nic":3332,"Ġeast":3333,"].":3334,"af":3335,"Ġrelig":3336,"teen":3337,"Ġspec":3338,"ĠForces":3339,"Ġseeing":3340,"Ġfert":3341,"Ġsav":3342,"ĠHel":3343,"Ġavail":3344,"Ġmarried":3345,"Ġbow":3346,"Ġoccupied":3347,"ech":3348,"1994":3349,"ivid":3350,"semb":3351,"orted":3352,"Ġgrew":3353,"ĠFather":3354,"Ġsick":3355,"Ġutter":3356,"iers":3357,"Ġchem":3358,"ĠTherefore":3359,"Ġeconomy":3360,"ibility":3361,"ĠSam":3362,"Ġi":3363,"Ġ@":3364,"was":3365,"orial":3366,"Ġmountains":3367,"Ġrepresentation":3368,"Ġfut":3369,"ĠNovember":3370,"Ġtears":3371,"ences":3372,"TELSAT":3373,"Ġharm":3374,"Ġquickly":3375,"ography":3376,"Ġ32":3377,"ĠComm":3378,"ĠJune":3379,"Ġsafe":3380,"Ġsole":3381,"sed":3382,"CH":3383,"Ġfruit":3384,"ĠEvery":3385,"Ġoffice":3386,"eous":3387,"ocks":3388,"ĠWor":3389,"ĠScott":3390,"hington":3391,"Ġmiles":3392,"Ġmanufact":3393,"next":3394,"Ġcott":3395,"ald":3396,"Ġneck":3397,"ĠJapan":3398,"kn":3399,"Ġfran":3400,"Ġoffering":3401,"Ġcand":3402,"Ġclosed":3403,"Ġfright":3404,"how":3405,"020":3406,"ĠGeorge":3407,"viron":3408,"Ġdecla":3409,"Ġformed":3410,"ĠAtl":3411,"Ġvict":3412,"Ġplease":3413,"bb":3414,"ora":3415,"Ġoutside":3416,"ids":3417,"Ġ41":3418,"Ġnoble":3419,"ibly":3420,"eks":3421,"olved":3422,"Ġopinion":3423,"ĠTotal":3424,"ĠWestern":3425,"Ġscarce":3426,"ĠQue":3427,"Ġstarted":3428,"ĠWashington":3429,"ĠCaptain":3430,"ĠYes":3431,"ril":3432,"RO":3433,"Ġlaughed":3434,"Ġescape":3435,"Ġfurn":3436,"umed":3437,"Ġgaz":3438,"iver":3439,"Ġrul":3440,"023":3441,"Ġterrit":3442,"bo":3443,"Ġvan":3444,"retched":3445,"osing":3446,"Ġgovern":3447,"arative":3448,"Ġslightly":3449,"ipe":3450,"wood":3451,"ĠDecember":3452,"Ġgrace":3453,"Ġsearch":3454,"Ġmiss":3455,"Ġequal":3456,"ĠBehold":3457,"rance":3458,"AO":3459,"Ġsilent":3460,"Ġears":3461,"ĠConstitution":3462,"Ġpiece":3463,"Ġbull":3464,"Ġones":3465,"ivity":3466,"sembly":3467,"Ġbank":3468,"Ġnarrow":3469,"Ġmor":3470,"1988":3471,"appe":3472,"Ġseek":3473,"ĠPopulation":3474,"Ġhistory":3475,"Ġmusic":3476,"Ġpresident":3477,"rict":3478,"Ġmonth":3479,"Ġdeterm":3480,"gers":3481,"roud":3482,"otten":3483,"ĠSea":3484,"ban":3485,"Ġcreature":3486,"iana":3487,"house":3488,"gin":3489,"Ġhide":3490,"021":3491,"Ġsimple":3492,"Ġminute":3493,"Ġentirely":3494,"ole":3495,"plomatic":3496,"Ġjourney":3497,"Ġfal":3498,"acle":3499,"Ġturning":3500,"Ġod":3501,"ĠII":3502,"mbassy":3503,"ĠTur":3504,"vironment":3505,"Ġgenerally":3506,"Ġtest":3507,"itime":3508,"vert":3509,"Ġsummer":3510,"unk":3511,"Ġguard":3512,"soci":3513,"ĠINTELSAT":3514,"ford":3515,"por":3516,"Ġkingdom":3517,"Ġpetroleum":3518,"Ġgoods":3519,"ana":3520,"Ġwest":3521,"Ġsorrow":3522,"ĠEven":3523,"Ġmead":3524,"ander":3525,"Ġ48":3526,"Ġinstead":3527,"Ġimposs":3528,"itive":3529,"Ġadvant":3530,"under":3531,"Ġcarry":3532,"Ġvillage":3533,"Ġwine":3534,"Ġforget":3535,"Ġdom":3536,"Ġves":3537,"Ġagre":3538,"Ġgrass":3539,"can":3540,"ipped":3541,"Ġcustom":3542,"ecutive":3543,"Ġ50":3544,"Ġglory":3545,"ĠOctober":3546,"Ġbare":3547,"ourage":3548,"NA":3549,"Ġmiddle":3550,"Ġlanguage":3551,"ĠMic":3552,"Ġhall":3553,"aced":3554,"erning":3555,"ology":3556,"Ġrememb":3557,"Ġreign":3558,"zen":3559,"rect":3560,"ingu":3561,"ID":3562,"ois":3563,"Ġsacri":3564,"Ġanx":3565,"eds":3566,"Ġtone":3567,"Ġbottom":3568,"Ġspread":3569,"ulf":3570,"ĠMont":3571,"Ġid":3572,"Ġspecial":3573,"Ġ45":3574,"Ġcharge":3575,"ĠBen":3576,"Ġearn":3577,"ĠOh":3578,"Ġlearned":3579,"ĠJudah":3580,"Ġarran":3581,"IA":3582,"Ġpun":3583,"ĠSy":3584,"Ġespecially":3585,"Ġenemy":3586,"Ġplant":3587,"ĠCom":3588,"wo":3589,"Ġguess":3590,"Ġsubst":3591,"RE":3592,"Ġartic":3593,"Ġuncle":3594,"ĠParis":3595,"Ġbas":3596,"asc":3597,"Ġworse":3598,"Ġstation":3599,"ented":3600,"Ġshowed":3601,"ulate":3602,"Ġvessel":3603,"Ġwha":3604,"Ġ01":3605,"Ġorgan":3606,"Ġtalking":3607,"Ġancient":3608,"pered":3609,"Ġdam":3610,"Ġvirt":3611,"aped":3612,"IUS":3613,"ptember":3614,"Ġphys":3615,"Ġwouldn":3616,"ĠMor":3617,"ĠDr":3618,"Ġmidst":3619,"Ġpull":3620,"Ġspring":3621,"Ġcommanded":3622,"Ġque":3623,"Ġterrible":3624,"Ġspeaking":3625,"Ġ38":3626,"Ġcovered":3627,"Ġspot":3628,"++++++++":3629,"Ġ04":3630,"'m":3631,"ĠWhich":3632,"025":3633,"Ġbased":3634,"Ġder":3635,"Ġiss":3636,"Ġtrib":3637,"Ġtrad":3638,"Ġprivate":3639,"ding":3640,"ode":3641,"ping":3642,"Ġproject":3643,"Ġjudge":3644,"from":3645,"noon":3646,"Ġwitness":3647,"ille":3648,"owing":3649,"Ġdoth":3650,"bert":3651,"Ġsacrif":3652,"Ġdemand":3653,"arily":3654,"ĠLa":3655,"Ġeduc":3656,"ait":3657,"ĠAre":3658,"Ġarmy":3659,"ethod":3660,"rill":3661,"ĠHouse":3662,"Ġpure":3663,"Ġseason":3664,"ification":3665,"Ġfathers":3666,"cast":3667,"Ġsake":3668,"Ġincludes":3669,"mes":3670,"Ġfly":3671,"idered":3672,"Ġlines":3673,"Ġwaiting":3674,"Ġspeed":3675,"Ġsimilar":3676,"enger":3677,"ĠOther":3678,"Ġpubl":3679,"!âĢĶ":3680,"rate":3681,"bles":3682,"Ġinfluence":3683,"Ġusual":3684,"ommunications":3685,"set":3686,"Ġflag":3687,"net":3688,"Ġwished":3689,"ugust":3690,"Ġ34":3691,"ded":3692,"Ġvalley":3693,"Ġwaters":3694,"acific":3695,"athered":3696,"Ġsky":3697,"Ġappearance":3698,"Ġkey":3699,"Ġcities":3700,"ashion":3701,"Ġproble":3702,"Ġ35":3703,"ESS":3704,"Ġreceive":3705,"ram":3706,"Ġprices":3707,"erness":3708,"ĠSm":3709,"acher":3710,"ĠOver":3711,"Ġattack":3712,"ĠApril":3713,"ĠMinister":3714,"Ġcapacity":3715,"achel":3716,"vi":3717,"Ġheat":3718,"aked":3719,"Ġgroup":3720,"pro":3721,"ministrative":3722,"Ġfrequ":3723,"ĠLady":3724,"Ġcurrent":3725,"ĠCent":3726,"Ġsociety":3727,"'ve":3728,"ĠJuly":3729,"Ġtongue":3730,"Ġaction":3731,"ada":3732,"Ġpersons":3733,"ĠPers":3734,"urity":3735,"Ġyea":3736,"Ġimpossible":3737,"iety":3738,"Ġfixed":3739,"rable":3740,"âĢĶâĢĿ":3741,"lor":3742,"Ġhack":3743,"Ġsumm":3744,"mon":3745,"Ġbuilt":3746,"027":3747,"rency":3748,"Ġstar":3749,"Ġcat":3750,"ĠAh":3751,"ĠCa":3752,"ĠYour":3753,"Ġbelieved":3754,"026":3755,"Ġwalls":3756,"They":3757,"Ġoblig":3758,"Ġtrying":3759,"Is":3760,"ĠSeptember":3761,"ĠMc":3762,"oid":3763,"Ġsimply":3764,"Ġcost":3765,"Ġheads":3766,"CT":3767,"Ġmerely":3768,"Ġcentury":3769,"Ġlives":3770,"Ġduty":3771,"cons":3772,"Ġdropped":3773,"Ġtim":3774,"eal":3775,"Ġsize":3776,"Ġmeat":3777,"Ġeld":3778,"Ġbroke":3779,"Ġupper":3780,"Ġhousehold":3781,"Ġexpected":3782,"Ġnational":3783,"Ġrise":3784,"Ġtouch":3785,"raw":3786,"Ġexample":3787,"Ġsuc":3788,"Ġagriculture":3789,"Ġtast":3790,"employ":3791,"nes":3792,"ĠEth":3793,"woman":3794,"ware":3795,"Ġletters":3796,"Ġchemical":3797,"Ġfuture":3798,"gate":3799,"Ġshout":3800,"ĠTheir":3801,"ĠPort":3802,"Ġexchange":3803,"Ġlearn":3804,"):":3805,"bon":3806,"Ġmut":3807,"Ġlot":3808,"Ġthirty":3809,"Ġcrown":3810,"Ġexceed":3811,"cket":3812,"Ġindustry":3813,"ĠQu":3814,"Ġblind":3815,"Ġappl":3816,"Ġspeech":3817,"Ġjudgment":3818,"ĠMart":3819,"ortun":3820,"Ġsucceed":3821,"Ġgall":3822,":âĢĶ":3823,"Ġfro":3824,"Ġmarriage":3825,"Ġextreme":3826,"Ġexperience":3827,"Ġhonest":3828,"Ġconcern":3829,"Ġshadow":3830,"arer":3831,"Ġperfectly":3832,"Ġleaders":3833,"Ġ#":3834,"Ah":3835,"outhern":3836,"Ġlean":3837,"ĠEC":3838,"Ġafternoon":3839,"ique":3840,"ĠRuss":3841,"Ġaut":3842,"Ġmarry":3843,"ĠJanuary":3844,"ĠPl":3845,"Lat":3846,"aman":3847,"Ġrighteous":3848,"Ġproud":3849,"irth":3850,"inite":3851,"reck":3852,"Ġ37":3853,"known":3854,"com":3855,"chn":3856,"Ġeasily":3857,"ĠIndependence":3858,"Ġbord":3859,"Ġdiscovered":3860,"Ġsnow":3861,"ov":3862,"ĠAust":3863,"bey":3864,"Ġet":3865,"Ġbitter":3866,"ĠPacific":3867,"Ġleaving":3868,"Ġmail":3869,"Ġbecom":3870,"Ġwhatever":3871,"rel":3872,"Ġbox":3873,"ĠJust":3874,"orses":3875,"estic":3876,"Ġfifty":3877,"sha":3878,"Do":3879,"eder":3880,"ĠSol":3881,"Ġgathered":3882,"Ġgen":3883,"Ġthrow":3884,"see":3885,"Ġdoctor":3886,"ĠAtlantic":3887,"Ġnations":3888,"rage":3889,"Ġdinner":3890,"Ġ03":3891,"gs":3892,"aching":3893,"Ġships":3894,"Ġrail":3895,"ĠNewman":3896,"Ġperm":3897,"Ġcommitments":3898,"Ġrunning":3899,"Ġtransport":3900,"ĠAugust":3901,"Ġconcerning":3902,"elve":3903,"Ġintrodu":3904,"Ġfier":3905,"Ġ73":3906,"ebru":3907,"Ġsteps":3908,"ĠCap":3909,"mbassador":3910,"Ġserious":3911,"erous":3912,"rose":3913,"Ġfault":3914,"ebruary":3915,"dy":3916,"key":3917,"Ġweight":3918,"De":3919,"ĠSen":3920,"ivered":3921,"Ġboard":3922,"Ġconscious":3923,"usion":3924,"ĠCong":3925,"Ġgirls":3926,"ishing":3927,"Ġflowers":3928,"rif":3929,"Ġ=":3930,"Ġpicture":3931,"Ġvain":3932,"Ġchanged":3933,"Ġplate":3934,"Ġsorry":3935,"Ġapart":3936,"Ġstream":3937,"Ġlikely":3938,"hest":3939,"Ġdesign":3940,"istan":3941,"Ġclean":3942,"Ġnon":3943,"Ġprepared":3944,"sing":3945,"Ġsomewhat":3946,"cise":3947,"*_":3948,"Ġconduct":3949,"Ġapparent":3950,"Ġsurface":3951,"Ġalthough":3952,"ĠGreat":3953,"Ġmaint":3954,"ĠBath":3955,"Ġesc":3956,"non":3957,"Ġconsequ":3958,"Ġ_*_":3959,"Ġ02":3960,"Ġdiscuss":3961,"Ġgiving":3962,"ae":3963,"Ġshame":3964,"Ġworking":3965,"Ġpassion":3966,"Ġdue":3967,"Ġpale":3968,"====":3969,"Ġobserv":3970,"sc":3971,"Ġcommer":3972,"Ġsand":3973,"Ġfaint":3974,"icate":3975,"lected":3976,"Ġ1988":3977,"ĠIF":3978,"ĠGRT":3979,"ees":3980,"Ġhabit":3981,"Ġnumb":3982,"Ġarg":3983,"hens":3984,"ĠCoast":3985,"ARD":3986,"Ġwrote":3987,"employment":3988,"Ġur":3989,"oned":3990,"Ġhouses":3991,"ĠJean":3992,"morrow":3993,"Ġextra":3994,"ĠSocial":3995,"Ġboat":3996,"Ġuniversal":3997,"Ġexcell":3998,"Ġfalse":3999,"ENT":4000,"icit":4001,"Ġbell":4002,"Ġabsolute":4003,"Ġcheer":4004,"Ġstranger":4005,"Ġaim":4006,"Ġstir":4007,"HO":4008,"Ġprim":4009,"ciples":4010,"ĠLife":4011,"ĠRow":4012,"Ġcargo":4013,"Ġmeadows":4014,"ird":4015,"029":4016,"Ġdescend":4017,"Ġafterwards":4018,"220":4019,"Ġhappiness":4020,"Ġsingular":4021,"Ġunf":4022,"ops":4023,"Ġoffered":4024,"Ġignor":4025,"Ġliter":4026,"Ġspace":4027,"Ġnames":4028,"Ġthank":4029,"ĠWorld":4030,"Ġbeat":4031,"Ġfallen":4032,"ĠKING":4033,"ronic":4034,"Ġholid":4035,"Ġcatch":4036,"Ġdecided":4037,"Ġcult":4038,"Ġfol":4039,"Ġunits":4040,"ĠLabor":4041,"opular":4042,"Ġmodern":4043,"Ġprevent":4044,"alt":4045,".âĢĻ":4046,"Ġattend":4047,"habit":4048,"nce":4049,"Ġexpression":4050,"}.":4051,"Ġzone":4052,"Ġsharp":4053,"ĠMon":4054,"itable":4055,"Ġlevel":4056,"Ġhorses":4057,"Ġshoulder":4058,"law":4059,"UR":4060,"ĠPeter":4061,"no":4062,"Ġsupposed":4063,"ĠJac":4064,"pes":4065,"ĠJe":4066,"Ġape":4067,"clock":4068,"orthern":4069,"Ġexpress":4070,"Ġgroups":4071,"Ġreb":4072,"Ġangel":4073,"change":4074,"othe":4075,"action":4076,"Ġpleasant":4077,"Ġenemies":4078,"ĠUp":4079,"Ġrej":4080,"Ġserve":4081,"ĠThom":4082,"Ġadmir":4083,"Ġboundaries":4084,"Ġauthority":4085,"Ġ90":4086,"Ġscene":4087,"Ġbuilding":4088,"Ġclothes":4089,"ĠFebruary":4090,"ĠCla":4091,"pter":4092,"tis":4093,"Ġdecl":4094,"Ġprincip":4095,"ether":4096,"Ġpassing":4097,"Ġtall":4098,"isp":4099,"udget":4100,"Ġsurr":4101,"Ġdetermined":4102,"Ġ1994":4103,"uments":4104,"Ġsubm":4105,"ĠMus":4106,"Ġmercy":4107,"Ġwid":4108,"culiar":4109,"Ġcircumstances":4110,"Ġshook":4111,"icated":4112,"ĠNote":4113,"ĠFar":4114,"Ġarch":4115,"formed":4116,"worth":4117,"sur":4118,"Ġrates":4119,"Ġarable":4120,"Ġcit":4121,"Ġhy":4122,"Ġnotice":4123,"ĠDeath":4124,"Ġcaused":4125,"EM":4126,"theless":4127,"iance":4128,"Ġjustice":4129,"Ġcruel":4130,"rated":4131,"ĠGermany":4132,"Ġallowed":4133,"Ġpresently":4134,"202":4135,"Ġindivid":4136,"Ġpeculiar":4137,"Ġdollars":4138,"Ġspent":4139,"Ġstro":4140,"Ġempt":4141,"Ġconversation":4142,"Ġgro":4143,"ricity":4144,"Ġmountain":4145,"1970":4146,"Ġhearts":4147,"ĠQueen":4148,"Ġseat":4149,"Ġtalked":4150,"Ġphil":4151,"Ġsurprise":4152,"Ġsought":4153,"ĠDon":4154,"Ġconfess":4155,"ĠRachel":4156,"ĠCur":4157,"osite":4158,"Ġmaid":4159,"rick":4160,"Ġsuffer":4161,"Ġbreast":4162,"Ġrecord":4163,"Ġsituation":4164,"Ġinternational":4165,"ĠAL":4166,"Ġstrugg":4167,"cribed":4168,"umin":4169,"Ġsupport":4170,"rem":4171,"Ġwatched":4172,"Now":4173,"ishment":4174,"Ġnation":4175,"Not":4176,"cher":4177,"Ġinj":4178,"ĠRome":4179,"Ġpack":4180,"ĠOur":4181,"Ġdrawn":4182,"Ġfirm":4183,"Ġexactly":4184,"cle":4185,"Ġtwelve":4186,"Ġain":4187,"ĠTV":4188,"ĠItaly":4189,"Ġpersonal":4190,"ĠBra":4191,"Ġmurm":4192,"Ġloss":4193,"Ġboys":4194,"'re":4195,"Ġhunt":4196,"Ġsubs":4197,"Ġopportun":4198,"Ġhigher":4199,"439":4200,"Ġgoes":4201,"Ġdisappe":4202,"ensive":4203,"Ġcover":4204,"Ġadvantage":4205,"Ġchamber":4206,"Ġgrad":4207,"Ġwoodland":4208,"Ġrepeated":4209,"osop":4210,"Ġlooks":4211,"Ġconsidered":4212,"Ġobserved":4213,"ese":4214,"Ġdeliver":4215,"Ġrevenues":4216,"Ġwear":4217,"Ġfishing":4218,"CO":4219,"Ġgau":4220,"Ġwisdom":4221,"Ġpastures":4222,"anny":4223,"ĠSup":4224,"Ġrule":4225,"ĠEconomic":4226,"ĠNever":4227,"resp":4228,"ĠWhile":4229,"Ġcoff":4230,"Ġforms":4231,"Ġbul":4232,"ria":4233,"Ġdescri":4234,"ĠJose":4235,"Ġhither":4236,"pping":4237,"Ġsmo":4238,"anda":4239,"ĠAssembly":4240,"Ġsheep":4241,"Ġmeaning":4242,"fast":4243,"oted":4244,"IG":4245,"Ġcaptain":4246,"Ġdistinct":4247,"Ġlifted":4248,"ĠEconomy":4249,"Ġ55":4250,"Ġinhabit":4251,"ĠFred":4252,"Ġfail":4253,"Ġdust":4254,"ĠDi":4255,"eping":4256,"This":4257,"Ġloud":4258,"Ġkilled":4259,"Ġprogram":4260,"occ":4261,"communications":4262,"look":4263,"ially":4264,"Ġcoat":4265,"Ġedge":4266,"FY":4267,"Ġtro":4268,"ica":4269,"028":4270,"cause":4271,"ĠMarius":4272,"oyal":4273,"Ġaccess":4274,"Ġhealth":4275,".....":4276,"Ġindividual":4277,"Ġris":4278,"ĠPrince":4279,"Ġreve":4280,"Ġagree":4281,"ricultural":4282,"Ġmemory":4283,"Ġrough":4284,"Ġdevil":4285,"Ġvent":4286,"Ġmotion":4287,"ĠSer":4288,"ĠThomas":4289,"Ġthin":4290,"yn":4291,"Ġcondition":4292,"field":4293,"Ġpity":4294,"Ġhuge":4295,"pendent":4296,"Ġlies":4297,"Ġwinter":4298,"ival":4299,"ungle":4300,"Ġpaid":4301,"Ġdiss":4302,"Ġleaves":4303,"ĠMadame":4304,"Ġholiday":4305,"ĠEast":4306,"Ġmessage":4307,"Ġlose":4308,"Ġquestions":4309,"Ġalive":4310,"Ġmostly":4311,"Ġisland":4312,"there":4313,"Ġappointed":4314,"Ġball":4315,"Ġdig":4316,"ĠCont":4317,"ĠAustral":4318,"do":4319,"Ġunderstood":4320,"Ġ46":4321,"Ġfashion":4322,"illy":4323,"olic":4324,"Ġmel":4325,"Ġble":4326,"ĠPercent":4327,"ixt":4328,"last":4329,"uses":4330,"Ġkings":4331,"onel":4332,"Ġmethod":4333,"ĠNep":4334,"ĠGood":4335,"ĠEmbassy":4336,"Ġterm":4337,"attered":4338,"Ġtit":4339,"inc":4340,"ĠSpe":4341,"Ġcases":4342,"Ġcabin":4343,"Ġhate":4344,"Ġforty":4345,"ateral":4346,"bar":4347,"Ġisn":4348,"Ġhurt":4349,"Ġrespons":4350,"sec":4351,"Ġ|":4352,"ĠAngel":4353,"ĠDC":4354,"host":4355,"Ġcous":4356,"Ġtrack":4357,"ta":4358,"Ġnoise":4359,"Ġgods":4360,"AB":4361,"Ġimage":4362,"Ġvalue":4363,"Ġconsiderable":4364,"ĠSan":4365,"urs":4366,"Ġassist":4367,"Ġarrived":4368,"Ġaston":4369,"chan":4370,"Ġ36":4371,"Ġsan":4372,"Ġwriting":4373,"ION":4374,"Ġmeeting":4375,"Ġbod":4376,"ators":4377,"Ġappre":4378,"Ġpromise":4379,"--------------------------------":4380,"FF":4381,"Ġrising":4382,"UN":4383,"Ġbab":4384,"Ġthro":4385,"ago":4386,"tte":4387,"Ġlying":4388,"Ġfeelings":4389,"Ġgun":4390,"Ġblow":4391,"iny":4392,"Ġdouble":4393,"Ġbal":4394,"ĠJane":4395,"Ġallow":4396,"atures":4397,"ĠEm":4398,"ails":4399,"Ġreck":4400,"Ġquarter":4401,"Ġfingers":4402,"Ġfavour":4403,"ĠSu":4404,"ĠLong":4405,"Ġvast":4406,"Ġpleased":4407,"Ġfortune":4408,"pha":4409,"Ġfill":4410,"Ġstudy":4411,"ourn":4412,"Ġsides":4413,"ergy":4414,"Ġsusp":4415,"rees":4416,"Ġpossession":4417,"ĠMo":4418,"ores":4419,"Ġjungle":4420,"ĠLat":4421,"Ġexistence":4422,"Ġusually":4423,"Ġinvest":4424,"ux":4425,"Ġcool":4426,"ĠSuch":4427,"wed":4428,"idently":4429,"Ġcompanion":4430,"ĠMed":4431,"ĠLiber":4432,"inery":4433,"Ġaddition":4434,"Ġrepublic":4435,"Ġdism":4436,"Ġlarger":4437,"ĠFrank":4438,"ĠAfrican":4439,"chard":4440,"Ġwaited":4441,"Ġaud":4442,"Ġ47":4443,"Ġopposite":4444,"BR":4445,"Ġ94":4446,"elig":4447,"ederal":4448,"Ġ05":4449,"Ġhearing":4450,"ilateral":4451,"itated":4452,"ĠSal":4453,"ĠHeaven":4454,"Ġanimal":4455,"Ġ60":4456,"July":4457,"Ġburst":4458,"Ġprove":4459,"nel":4460,"Ġtrop":4461,"ĠBell":4462,"440":4463,"iding":4464,"Ġhes":4465,"Ġseed":4466,"atives":4467,"ĠImp":4468,"ĠSupreme":4469,"Ġcalm":4470,"ĠCommunist":4471,"Ġterror":4472,"CE":4473,"ĠAND":4474,"Ġthrew":4475,"IST":4476,"Ġwalking":4477,"lim":4478,"Ġtow":4479,"Ġdrawing":4480,"idge":4481,"iscal":4482,"Ġdegree":4483,"Ġtrain":4484,"rous":4485,"ols":4486,"Ġ54":4487,"Ġfaces":4488,"ĠAgriculture":4489,"OC":4490,"Ġspite":4491,"Ġequip":4492,"ĠClimate":4493,"1987":4494,"Ġbold":4495,"gl":4496,"Ġdifference":4497,"ĠStreet":4498,"Ġdistingu":4499,"Ġspirits":4500,"Ġtor":4501,"Ġtrave":4502,"Ġshoulders":4503,"ĠGab":4504,"Ġbegun":4505,"Ġpowers":4506,"greg":4507,"Ġworked":4508,"ĠInternational":4509,"ĠAlice":4510,"AND":4511,"Ġbeha":4512,"Ġeager":4513,"zer":4514,"hi":4515,"Ġaside":4516,"ĠBefore":4517,"Ġflat":4518,"OS":4519,"which":4520,"fant":4521,"Ġsocial":4522,"Ġdelivered":4523,"Ġglance":4524,"Ġsail":4525,"Ġshape":4526,"Ġcred":4527,"ĠHead":4528,"ĠTele":4529,"Ġconce":4530,"Ġmatters":4531,"Ġyield":4532,"Then":4533,"asons":4534,"ĠAmbassador":4535,"Ġunless":4536,"Ġmortality":4537,"ico":4538,"Ġamount":4539,"Ġfreed":4540,"tering":4541,"Ġcurious":4542,"Ġtent":4543,"ĠHad":4544,"Ġhoriz":4545,"Ġregular":4546,"ĠIr":4547,"Ġdirectly":4548,"Ġaffection":4549,"yle":4550,"Ġveget":4551,"Ġknowing":4552,"ounced":4553,"ĠMarilla":4554,"Ġangry":4555,"Ġcell":4556,"Ġnobody":4557,"Ġphilosop":4558,"Ġ07":4559,"egro":4560,"ĠBet":4561,"Ġreply":4562,"Ġwonderful":4563,"ilities":4564,"Ġsuggest":4565,"pet":4566,"Ġaltar":4567,"Ġpraise":4568,"ĠChief":4569,"Ġhills":4570,"Ġfancy":4571,"Ġpieces":4572,"ios":4573,"enance":4574,"Ġbent":4575,"Ġfertility":4576,"ĠRowland":4577,"Ġlack":4578,"Ġsugar":4579,"ye":4580,"race":4581,"Ġft":4582,"jective":4583,"ancing":4584,"Ġrub":4585,"Ġdomestic":4586,"Ġpride":4587,"irgin":4588,"ĠNatural":4589,"Ġspect":4590,"Ġlaws":4591,"ses":4592,"ĠDiana":4593,"ustries":4594,"Ġreading":4595,"Ġconstitution":4596,"Ġinteresting":4597,"ĠForce":4598,"Ġsurely":4599,"Ġpriests":4600,"ashed":4601,"erences":4602,"Ġvote":4603,"To":4604,"anc":4605,"flation":4606,"Ġfinally":4607,",''":4608,"power":4609,"037":4610,"gged":4611,"Ġshot":4612,"rier":4613,"Ġgreatly":4614,"Ġprincipal":4615,"Ġholding":4616,"ani":4617,"Ġforb":4618,"ĠFin":4619,"Ġthroughout":4620,"Ġanger":4621,"ogether":4622,"Ġnoun":4623,"otion":4624,"ĠExecutive":4625,"alled":4626,"Ġnetwork":4627,"Ġmigration":4628,"Ġconventional":4629,"ĠWilliam":4630,"ĠIndia":4631,"Ġgrant":4632,"ĠMaster":4633,"sheba":4634,"Ġfile":4635,"ĠDay":4636,"UC":4637,"arth":4638,"Ġtechn":4639,"OD":4640,"ike":4641,"Ġrequired":4642,"ĠEnvironment":4643,"ĠRichard":4644,"Ġwilderness":4645,"ĠOrgan":4646,"Ġaccomp":4647,"ĠRos":4648,"Ġtaught":4649,"vey":4650,"Ġdisapp":4651,"Ġpocket":4652,"Ġprint":4653,"Ġrepro":4654,"Ġexcellent":4655,"Ġgrown":4656,"olly":4657,"Ġengaged":4658,"Ġfinished":4659,"ĠGreek":4660,"anish":4661,"Ġstreets":4662,"Ġmagn":4663,"Ġprince":4664,"Ġexpectancy":4665,"Ġcrit":4666,"Ġthreat":4667,"Ġwel":4668,"Ġsong":4669,"ĠBul":4670,"Ġmarket":4671,"Ġlest":4672,"Ġlog":4673,"hib":4674,"sk":4675,"ushing":4676,"inea":4677,"hand":4678,"500":4679,"Ġbrown":4680,"Ġgives":4681,"Ġmission":4682,"034":4683,"Ġequipment":4684,"ici":4685,"Ġalar":4686,"Ġtreas":4687,"Ġwilt":4688,"Ġdare":4689,"Ġbilateral":4690,"Ġgreatest":4691,"ĠXX":4692,"Ġtour":4693,"Ġscarcely":4694,"ĠDid":4695,"ĠTerrit":4696,"Ġinnoc":4697,"ĠThea":4698,"atory":4699,"ront":4700,"Ġweather":4701,"ĠWar":4702,"ĠSon":4703,"ĠJoseph":4704,"istic":4705,"chen":4706,"ĠPal":4707,"iteracy":4708,"Ġpassage":4709,"Ġnerv":4710,"nora":4711,"Ġadminist":4712,"Ġ72":4713,"ĠThough":4714,"ĠCommunications":4715,"},":4716,"Ġheight":4717,"Ġourselves":4718,"Ġarose":4719,"Ġsolemn":4720,"Ġring":4721,"Ġliked":4722,"Ġfet":4723,"iation":4724,"Ġadjective":4725,"Ġcolor":4726,"Ġmeasure":4727,"OW":4728,"will":4729,"Ġparticularly":4730,"Ġexer":4731,"erable":4732,"ĠJurg":4733,"Ġopportunity":4734,"Ġnice":4735,"gest":4736,"lly":4737,"ĠSec":4738,"empl":4739,"ĠBathsheba":4740,"Ġagricultural":4741,"Ġ65":4742,"âĶĢâĶĢâĶĢâĶĢâĶĢâĶĢâĶĢâĶĢ":4743,"Ġstick":4744,"Ġoriginal":4745,"Ġcattle":4746,"ĠShall":4747,"Ġlion":4748,"Ġfond":4749,"Don":4750,"Ġmir":4751,",âĢĻ":4752,"ĠFanny":4753,"Ġmill":4754,"Ġearli":4755,"Ġgrowing":4756,"ĠSuff":4757,"consumer":4758,"orter":4759,"Ġyours":4760,"Ġterms":4761,"enn":4762,"Ġsymp":4763,"Ġsmiled":4764,"hal":4765,"chie":4766,"iring":4767,"ĠkW":4768,"iger":4769,"030":4770,"Ġtaste":4771,"ĠEuropean":4772,"Ġstars":4773,"Ġgather":4774,"uts":4775,"PU":4776,"ĠHave":4777,"Ġworthy":4778,"Ġproperty":4779,"Ġremembered":4780,"Ġinstr":4781,"Ġestablish":4782,"verse":4783,"Ġdeveloped":4784,"they":4785,"Ġwhale":4786,"ĠThy":4787,"Ġsmoke":4788,"Ġbuy":4789,"Ġevent":4790,"surface":4791,"Ġbid":4792,"Ġredu":4793,"AG":4794,"Ġteeth":4795,"Ġeffort":4796,"Tis":4797,"Ġdevelopment":4798,"Ind":4799,"ari":4800,"ĠVer":4801,"llen":4802,"umber":4803,"Ġperform":4804,"Ġnine":4805,"Ġimper":4806,"izing":4807,"Ġfled":4808,"ĠLap":4809,"Ġ58":4810,"ardon":4811,"Ġliberty":4812,"Ġinher":4813,"Ġportion":4814,"Ġlands":4815,"ĠHowever":4816,"Ġearnest":4817,"Ġep":4818,"Ġstones":4819,"Ġ62":4820,"ential":4821,"ending":4822,"Ġsevere":4823,"itor":4824,"Ġladies":4825,"rim":4826,"Ġadvent":4827,"Ġ/":4828,"ĠBab":4829,"asse":4830,"Ġneeds":4831,"orough":4832,"Ġunknown":4833,"eunt":4834,"ĠLegislative":4835,"Ġcontrol":4836,"stand":4837,"Ġdru":4838,"ternet":4839,"Ġintellig":4840,"leep":4841,"ĠElnora":4842,"Ġwore":4843,"raft":4844,"ĠChurch":4845,"CC":4846,"ĠJames":4847,"Ġremains":4848,"Ġcoal":4849,"cont":4850,"Ġempty":4851,"IM":4852,"lement":4853,"jean":4854,"Ġ52":4855,"Ġmovement":4856,"Ġaccepted":4857,"Ġmarked":4858,"Ġdoesn":4859,"stone":4860,"Ġbranches":4861,"Ġadop":4862,"Ġfate":4863,"Ġgolden":4864,"Ġforgotten":4865,"Ġhence":4866,"Ġstock":4867,"ĠFM":4868,"033":4869,"Ġpersu":4870,"Ġdifficulty":4871,"Ġneighbour":4872,"ource":4873,"ĠMaritime":4874,"Ġfarm":4875,"Ġfamiliar":4876,"Ġtea":4877,"Ġdeclared":4878,"Ġstates":4879,"Ġcontent":4880,"erick":4881,"Ġinside":4882,"esty":4883,"Ġpolic":4884,"imb":4885,"ĠIS":4886,"Ġtouched":4887,"Ġtender":4888,"Ġnav":4889,"ompl":4890,"Ġwatching":4891,"ĠMid":4892,"Ġshare":4893,"Ġroll":4894,"Ġcourage":4895,"Ġunp":4896,"inal":4897,"032":4898,"ĠSund":4899,"Ġwand":4900,"Ġrapidly":4901,"Te":4902,"ĠValjean":4903,"equ":4904,"pher":4905,"ulous":4906,"Ġconstruction":4907,"ij":4908,"ĠCath":4909,"Ġsevent":4910,"Ġrare":4911,"Ġimagine":4912,"held":4913,"Ġassoci":4914,"va":4915,"ENE":4916,"racted":4917,"oa":4918,"Ġtank":4919,"ests":4920,"Ġlegs":4921,"umn":4922,"Ġtwice":4923,"Ġsavage":4924,"Ġbill":4925,"Ġcolour":4926,"Ġtired":4927,"ĠSomet":4928,"Ġnumerous":4929,"Ġinhabitants":4930,"Ġknight":4931,"ĠAct":4932,"ĠType":4933,"aces":4934,"Ġpill":4935,"Ġoccurred":4936,"bre":4937,"ville":4938,"wing":4939,"......":4940,"ĠLou":4941,"ĠBarb":4942,"icious":4943,"arest":4944,"Ġpoints":4945,"Ġtravel":4946,"ĠJacob":4947,"ege":4948,"Ġcotton":4949,"ĠGeography":4950,"ĠJurgis":4951,"Ġ39":4952,"Ġlibr":4953,"pel":4954,"amer":4955,"Ġusing":4956,"ĠSpain":4957,"via":4958,"icam":4959,"Ġprogress":4960,"Ġsteel":4961,"So":4962,"omon":4963,"Ġordinary":4964,"Ġmachinery":4965,"rang":4966,"Ġtribe":4967,"asy":4968,"Ġgauge":4969,"Ġacid":4970,"Ġ09":4971,"ĠWood":4972,"ĠChina":4973,"Ġunderstanding":4974,"ĠSpir":4975,"Ġsurprised":4976,"ĠIM":4977,"ias":4978,"Ġpalace":4979,"ĠLyd":4980,"Ġhandsome":4981,"Ġburied":4982,"Ġanybody":4983,"Ġconfidence":4984,"icameral":4985,"ĠHol":4986,"Ġmistress":4987,"Ġmaterials":4988,"Ġwindows":4989,"riel":4990,"Ġ75":4991,"Ġnoticed":4992,"Ġtype":4993,"Ġhappen":4994,"St":4995,"Ġlod":4996,"Ġweeks":4997,"Ġ2000":4998,"Ġaccompl":4999,"ala":5000,"Ġmarine":5001,"Ġislands":5002,"Ġroof":5003,"Ġbulk":5004,"Ġcousin":5005,"Ġmales":5006,"ĠIII":5007,"Ġpurcha":5008,"ortion":5009,"Ġopening":5010,"Ġdrive":5011,"aker":5012,"Exeunt":5013,"Ġ93":5014,"rence":5015,"chief":5016,"Ġprefer":5017,"Ġtemple":5018,"Ġthrone":5019,"Ġjur":5020,"Ġbirds":5021,"ĠOverview":5022,"Ġfavor":5023,"clusive":5024,"Ġsq":5025,"ĠBur":5026,"Ġshore":5027,"*,":5028,"Ġ1987":5029,"Ġpurs":5030,"DB":5031,"Ġdoors":5032,"Ġobliged":5033,"ĠGl":5034,"POL":5035,"Ġrob":5036,"ĠCapital":5037,"Ġindustrial":5038,"103":5039,"ived":5040,"ĠChan":5041,"Ġsaved":5042,"?âĢĶ":5043,"EA":5044,"ĠFirst":5045,"Ġsatisfied":5046,"Ġbeasts":5047,"Ġwhispered":5048,"ĠPorts":5049,"Ġtakes":5050,"ĠCount":5051,"Ġess":5052,"Ġwarri":5053,"Ġexec":5054,"anch":5055,"Ġsettled":5056,"Ġmyster":5057,"Ġdrop":5058,"vation":5059,"Ġblessed":5060,"ndar":5061,"ĠTerrain":5062,"ĠSat":5063,"riet":5064,"Ġusable":5065,"ĠLapham":5066,"Ġ91":5067,"Ġotherwise":5068,"Ġburnt":5069,"Ġpan":5070,"Ġswift":5071,"Ġbreakfast":5072,"asp":5073,"Ġsuffered":5074,"Ġevidence":5075,"Ġcouple":5076,"Ġmultitude":5077,"OF":5078,"ĠAgain":5079,"Ġnative":5080,"Ġfranc":5081,"cer":5082,"Ġsaf":5083,"then":5084,"Ġparent":5085,"Ġpointed":5086,"Ġkeeping":5087,"Ġpublished":5088,"Ġweap":5089,"Ġrecognized":5090,"Ġpros":5091,"Ġlistened":5092,"Ġcarriage":5093,"Ġtropical":5094,"Ġslain":5095,"____":5096,"ĠJude":5097,"ĠGuinea":5098,"ĠIndustrial":5099,"itch":5100,"Ġeverybody":5101,"ĠCoastline":5102,"reckles":5103,"ailing":5104,"Ġtelling":5105,"Ġnamed":5106,"Ġevidently":5107,"Ġdw":5108,"Ġremoved":5109,"Ġbase":5110,"ading":5111,"iest":5112,"ieur":5113,"ĠKnight":5114,"Ġreport":5115,"Ġdestroyed":5116,"Ġmentioned":5117,"arted":5118,"Ġdoc":5119,"ĠEliz":5120,"hamed":5121,"Ġactually":5122,"Ġtelephones":5123,"Ġacquaint":5124,"van":5125,"Ġprime":5126,"Ġobtained":5127,"ĠAustralia":5128,"Ġawful":5129,"Ġradio":5130,"Ġ92":5131,"BRD":5132,"mark":5133,"ĠBer":5134,"ĠJim":5135,"Ġ74":5136,"Ġdivided":5137,"Ġslaves":5138,"Ġfer":5139,"ĠTwo":5140,"Ġdu":5141,"Ġstead":5142,".--":5143,"fess":5144,"ker":5145,"Ġbenef":5146,"ĠNegro":5147,"Ġsmaller":5148,"Ġdistur":5149,"ĠCatholic":5150,"Ġdaughters":5151,"Ġflight":5152,"Ġended":5153,"Exit":5154,"Ġskin":5155,"Ġsuspect":5156,"ĠLydgate":5157,"Ġpressure":5158,"gon":5159,"Ġ66":5160,"III":5161,"Ġforced":5162,"ĠCor":5163,"Ġnes":5164,"usted":5165,"Ġsufficient":5166,"Ġwoods":5167,"Ġinterp":5168,"osette":5169,"Ġserved":5170,"Ġsuggested":5171,"Ġpred":5172,"Ġjoined":5173,"Ġamb":5174,"Ġproved":5175,"Ġsple":5176,"Ġgrat":5177,"Ġdiscover":5178,"Ġgrief":5179,"Ġthrown":5180,"iments":5181,"ĠLook":5182,"105":5183,"Ġgloom":5184,"Ġmyst":5185,"Ġfierce":5186,"Ġaltogether":5187,"ĠJo":5188,"Ġhighly":5189,"IV":5190,"Ġimportance":5191,"Ġfart":5192,"Ġpromised":5193,"Ġsystems":5194,"Ġpursu":5195,"ĠAdj":5196,"ranches":5197,"Ġ64":5198,"mma":5199,"ishop":5200,"Ġterritory":5201,"Ġiniqu":5202,"ĠBa":5203,"ĠRelig":5204,"ainted":5205,"ĠLangu":5206,"Come":5207,"Ġmoving":5208,"Ġsacrifice":5209,"Ġinterested":5210,"Ġceased":5211,"bury":5212,"had":5213,"Ġpopular":5214,"hetic":5215,"Ġsucceeded":5216,"using":5217,"031":5218,"unch":5219,"ĠBern":5220,"Ġcomparative":5221,"UT":5222,"ĠSC":5223,"Ġspend":5224,"Ġice":5225,"Ġ293":5226,"ĠInternet":5227,"Ġconversion":5228,"Ġhighest":5229,"Ġ1986":5230,"Ġputting":5231,"Ġuns":5232,"Ġeducation":5233,"Ġbearing":5234,"ĠAng":5235,"ades":5236,"ĠBirth":5237,"tle":5238,"Ġ06":5239,"meter":5240,"Ġwealth":5241,"Ġkit":5242,"gregation":5243,"Ġteach":5244,"ĠSolomon":5245,"Ġpos":5246,"Ġcoc":5247,"Ġexplained":5248,"isd":5249,"UL":5250,"Ġpick":5251,"Ġafford":5252,"Ġofficial":5253,"rigated":5254,"IX":5255,"ĠSud":5256,"Ġemer":5257,"Ġwasn":5258,"Ġsoil":5259,"Ġcoffee":5260,"ky":5261,"Ġrend":5262,"ĠTelecommunications":5263,"agon":5264,"Ġcopper":5265,"cles":5266,"Ġdozen":5267,"Ġcreatures":5268,"Ġpictures":5269,"ĠDep":5270,"Ġaffl":5271,"Ġrevol":5272,"Ġplayed":5273,"ĠSmith":5274,"Ġcrowd":5275,"Ġfold":5276,"ĠAdministrative":5277,"ception":5278,"Ġox":5279,"Ġproc":5280,"Ġknees":5281,"ĠExchange":5282,"Ġideas":5283,"Ġing":5284,"ĠCosette":5285,"onsieur":5286,"ĠFreckles":5287,"iamond":5288,"',":5289,"zy":5290,"Ġseized":5291,"ĠIMF":5292,"Ġhero":5293,"Ġnod":5294,"Ġcountenance":5295,"Ġroy":5296,"cies":5297,"Ġmoments":5298,"Ġstandard":5299,"Ġvision":5300,"ĠMex":5301,"ĠInst":5302,"Ġbrief":5303,"Ġpoet":5304,"Ġdreadful":5305,"Ġcup":5306,"udd":5307,"250":5308,"Ġcentral":5309,"Ġadvanced":5310,"ailed":5311,"ĠIndustries":5312,"ĠUnemployment":5313,"ĠFlag":5314,"Ġleading":5315,"ĠProt":5316,"Ġconditions":5317,"Ġsanct":5318,"Ġsquare":5319,"Ġcheck":5320,"Ġpowerful":5321,"born":5322,"Ġbore":5323,"utions":5324,"Ġcarefully":5325,"Ġcrossed":5326,"hem":5327,"Ġere":5328,"Ġpractice":5329,"Ġdull":5330,"Ġfreedom":5331,"AY":5332,"ĠInfant":5333,"Ġcurt":5334,"ya":5335,"Ġtanker":5336,"Ġlink":5337,"Ġlaughing":5338,"ĠCal":5339,"Ġfoolish":5340,"Ġgrie":5341,"eless":5342,"osen":5343,"ĠThan":5344,"Ġneeded":5345,"stairs":5346,"ĠHam":5347,"Ġincreased":5348,"happ":5349,"Ġrights":5350,"Ġdistant":5351,"ordan":5352,"ĠPolitical":5353,"othea":5354,"Ġfeatures":5355,"Ġamaz":5356,"Ġcompass":5357,"orous":5358,"long":5359,"Ġ...":5360,"Ġsmiling":5361,"Ġcow":5362,"ĠLike":5363,"Ġnumbers":5364,"fall":5365,"ĠSand":5366,"ĠBlack":5367,"ĠAirports":5368,"ĠWherefore":5369,"Ġthyself":5370,"Ġgame":5371,"ĠOnly":5372,"Ġbird":5373,"Ġnose":5374,"liament":5375,"Ġaunt":5376,"Ġheav":5377,"ĠConf":5378,"ĠEthnic":5379,"Ġflo":5380,"Ġcrude":5381,"ĠWHO":5382,"ĠInflation":5383,"ĠCentral":5384,"Ġcenter":5385,"Ġinvent":5386,"Ġloose":5387,"fortun":5388,"gen":5389,"Ġ51":5390,"SC":5391,"Ġdespair":5392,"uan":5393,"ayed":5394,"********":5395,"board":5396,"overy":5397,"Ġbesides":5398,"Ġquietly":5399,"ĠElectricity":5400,"Ġbrill":5401,"ĠExports":5402,"Ġprophe":5403,"Ġdressed":5404,"kind":5405,"ĠRod":5406,"Ġrelations":5407,"Ġincrease":5408,"Ġgentlemen":5409,"ĠArmy":5410,"Ġtempt":5411,"Ġdign":5412,"rants":5413,"Ġasleep":5414,"Ġodd":5415,"ĠPortug":5416,"Ġlisten":5417,"ĠBes":5418,"Ġconscience":5419,"Ġkitchen":5420,"ĠTO":5421,"Ġintended":5422,"Ġdeparted":5423,"roads":5424,"ĠDiplomatic":5425,"Ġlit":5426,"ĠDorothea":5427,"Ġbond":5428,"isdiction":5429,"Ġwaste":5430,"place":5431,"agement":5432,"Ġcitiz":5433,"uk":5434,"Ġappears":5435,"Ġrout":5436,"Ġproblem":5437,"Ġsplend":5438,"ĠLiteracy":5439,"Ġwants":5440,"ĠSara":5441,"Ġstorm":5442,"Ġsuppl":5443,"ĠRev":5444,"Ġdaily":5445,"osom":5446,"Ġ56":5447,"ĠPerhaps":5448,"ule":5449,"Ġwilling":5450,"ĠJudicial":5451,"ĠImports":5452,"Ġspr":5453,"Ġmilk":5454,"Ġpapers":5455,"yer":5456,"gent":5457,"Ġ83":5458,"ĠExternal":5459,"aron":5460,"Ġbrave":5461,"OT":5462,"itan":5463,"Ġfailed":5464,"ĠCurrency":5465,"Ġdescribed":5466,"Ġbrain":5467,"Ġfinger":5468,"respond":5469,"erver":5470,"Ġsuperior":5471,"000000":5472,"ef":5473,"ĠAy":5474,"ĠRed":5475,"Ġchosen":5476,"urally":5477,"Ġobey":5478,"Ġcounsel":5479,"Ġaffairs":5480,"just":5481,"put":5482,"Ġproof":5483,"Ġinterrupt":5484,"enced":5485,"ĠFiscal":5486,"Ġresem":5487,"ĠUnder":5488,"Ġ95":5489,"Ġluck":5490,"ĠTake":5491,"ocation":5492,"Ġbelief":5493,"ĠNationality":5494,"Ġpossessed":5495,"Ġanimals":5496,"Ġjurisdiction":5497,"Ġende":5498,"Ġwrath":5499,"Ġmachine":5500,"Ġbodies":5501,"Ġroyal":5502,"Ġvo":5503,"035":5504,"Ġexplain":5505,"ĠBudget":5506,"ĠNay":5507,"venue":5508,"Ġraise":5509,"Ġmetal":5510,"Ġfeast":5511,"Ġinstance":5512,"Ġpolice":5513,"ii":5514,"hael":5515,"ĠMac":5516,"rows":5517,"ĠBecause":5518,"Ġtab":5519,"ĠHighways":5520,"Ġfellows":5521,"ĠCas":5522,"Ġfully":5523,"ĠLegal":5524,"ems":5525,"Ġwondered":5526,"his":5527,"ads":5528,"arn":5529,"Ġshop":5530,"Ġashamed":5531,"Ġsigh":5532,"Ġstage":5533,"bor":5534,"Fr":5535,"Ġprovided":5536,"ĠDes":5537,"Ġresist":5538,"Ġregion":5539,"ican":5540,"Ġshown":5541,"Ġimpl":5542,"Ġrage":5543,"Ġvague":5544,"857":5545,"Ġadvance":5546,"hara":5547,"Ġimagination":5548,"asing":5549,"Ġnecessity":5550,"Ġexped":5551,"astic":5552,"Ġslavery":5553,"Ġaware":5554,"ĠMember":5555,"Ġdomin":5556,"1985":5557,"fulness":5558,"Ġwelcome":5559,"Ġbands":5560,"...........................................":5561,"ĠDen":5562,"Ġflower":5563,"ĠJordan":5564,"Ġelected":5565,"emed":5566,"ĠMany":5567,"Let":5568,"ĠFIR":5569,"Ġinherit":5570,"Ġcongregation":5571,"Ġworst":5572,"Ġrequire":5573,"Ġwithd":5574,"Ġfarther":5575,"terday":5576,"arked":5577,"Ġcontain":5578,"Ġmal":5579,"Ġpossibly":5580,"Ġx":5581,"Ġaver":5582,"Ġpaused":5583,"Ġpaint":5584,"aming":5585,"ĠSuffrage":5586,"Ġfil":5587,"Ġstuff":5588,"Ġconnected":5589,"Ġhom":5590,"Ġindiff":5591,"ĠINTER":5592,"Ġsympath":5593,"rait":5594,"Ġprinces":5595,"Ġprecious":5596,"Ġdeck":5597,"Ġlovely":5598,"Ġreligion":5599,"ho":5600,"Ġyards":5601,"ĠFR":5602,"ĠBernard":5603,"hor":5604,"ĠCongress":5605,"Ġ49":5606,"ciple":5607,".''":5608,"Ġthrust":5609,"Ġswear":5610,"Ġarrange":5611,"Ġdriven":5612,"pir":5613,"inder":5614,"ĠItal":5615,"Ġsolid":5616,"cluding":5617,"ris":5618,"ĠStand":5619,"lessly":5620,"Ġendeav":5621,"Ġpartly":5622,"Ġapproached":5623,"ĠMil":5624,"ĠHoly":5625,"Ġpresented":5626,"Ġbosom":5627,"ĠCy":5628,"Ġchoice":5629,"ĠFranc":5630,"Ġfields":5631,"mas":5632,"Ġhyd":5633,"Ġfeed":5634,"Ġhell":5635,"after":5636,"Ġtale":5637,"cery":5638,"ras":5639,"Ġgain":5640,"ĠPR":5641,"Ġactivity":5642,"while":5643,"pse":5644,"Ġrelief":5645,"Ġthroat":5646,"As":5647,"ulation":5648,"Ġnearer":5649,"Ġsouls":5650,"Ġrepresented":5651,"ĠInt":5652,"ĠDuke":5653,"Ġtoday":5654,"ĠMost":5655,"ĠCharles":5656,"ĠSaul":5657,"Ġpair":5658,"Ġbeheld":5659,"ĠBank":5660,"ĠWould":5661,"ĠAnother":5662,"ĠSince":5663,"oring":5664,"Ġthorough":5665,"Ġgle":5666,"quis":5667,"Ġfamilies":5668,"Ġacts":5669,"ev":5670,"Ġlimited":5671,"Ġsell":5672,"Ġremarkable":5673,"ĠFIRST":5674,"Ġwed":5675,"Ġregarded":5676,"ĠTess":5677,"Ġmild":5678,"Ġthence":5679,"Ġcomputers":5680,"Ġconqu":5681,"ĠSil":5682,"ĠChapter":5683,"Ġhun":5684,"Ġcontrib":5685,"Ġsafety":5686,"part":5687,"Ġsuit":5688,"Ġapparently":5689,"ams":5690,".);":5691,"Ġbroadcast":5692,"Ġtur":5693,"Ġ80":5694,"Ġcompletely":5695,"Ġbought":5696,"036":5697,"Ġinclude":5698,"oris":5699,"Ġreasons":5700,"EG":5701,"ena":5702,"Ġfalling":5703,"Ġemployed":5704,"NP":5705,"Ġtradition":5706,"uzz":5707,"Ġpounds":5708,"Ġstyle":5709,"Ġtum":5710,"Ġstretched":5711,"Ġrom":5712,"Ġhonor":5713,"ys":5714,"ĠJews":5715,"uties":5716,"ĠAR":5717,"aders":5718,"adem":5719,"Ġofficers":5720,"alendar":5721,"Ġsalt":5722,"ula":5723,"IAN":5724,"this":5725,"Ġconven":5726,"Ġentertain":5727,"ĠEdward":5728,"Ġhaven":5729,"Ġfeared":5730,"Ġchoose":5731,"Ġglor":5732,"ĠMAR":5733,"Ġfinding":5734,"ICH":5735,"Ġhorror":5736,"Ġtimber":5737,"Ġtruly":5738,"ĠSunday":5739,"Ġundert":5740,"astern":5741,"Ġoccupation":5742,"ĠPen":5743,"LA":5744,"Ġcorrect":5745,"ĠColonel":5746,"ims":5747,"204":5748,"Ġaccident":5749,"ĠGabriel":5750,"ĠSCENE":5751,"ĠMat":5752,"Ġdisappeared":5753,"aks":5754,"Ġfought":5755,"200":5756,"zing":5757,"ĠServ":5758,"ĠEmma":5759,"104":5760,"Ġ53":5761,"ĠSing":5762,"Ġsup":5763,"Ġmurmured":5764,"UM":5765,"Ġchemicals":5766,"xed":5767,"Ġaspect":5768,"Ġproduce":5769,"ĠOld":5770,"cluded":5771,"Ġ57":5772,"hic":5773,"Ġinstruct":5774,"Ġcook":5775,"Ġsoldiers":5776,"Ġcoven":5777,"Ġdangerous":5778,"Ġwings":5779,"urely":5780,"Ġvac":5781,"Ġvisible":5782,"Ġsprang":5783,"Ġ63":5784,"Ġreflect":5785,"Ġconvin":5786,"Ġfigures":5787,"Ġorders":5788,"ĠTime":5789,"ĠJack":5790,"eel":5791,"Ġreligious":5792,"Ġvirtue":5793,"For":5794,"KE":5795,"ĠOOF":5796,"Ġoath":5797,"west":5798,"Ġquality":5799,"Ġprisoner":5800,"Ġhit":5801,"âĢĶâĢľ":5802,"ĠODA":5803,"Ġthanks":5804,"Ġstore":5805,"ĠGrand":5806,"Ġsouthern":5807,"ĠNether":5808,"time":5809,"cture":5810,"Ġdesired":5811,"Ġcompanions":5812,"fessor":5813,"ĠAaron":5814,"ĠQU":5815,"ician":5816,"Ġobst":5817,"Ġgates":5818,"Ġperceived":5819,"Ġmurd":5820,"aling":5821,"ĠUPU":5822,"Ġsounds":5823,"TO":5824,"ground":5825,"Ġpulled":5826,"Ġescaped":5827,"Good":5828,"racy":5829,"Ġfairly":5830,"och":5831,"ĠAc":5832,"ĠAlexander":5833,"aj":5834,"ĠOnce":5835,"Ġhelped":5836,"Ġsector":5837,"ĠRog":5838,"Ġcalling":5839,"Ġmoral":5840,"627":5841,"ESCO":5842,"Ġpaved":5843,"Ġannually":5844,"Ġvers":5845,"Ġease":5846,"Ġtitle":5847,"Ġstret":5848,"ĠVen":5849,"Ġsource":5850,"ulated":5851,"ault":5852,"Ġrele":5853,"Who":5854,"Ġprotect":5855,"Ġcopy":5856,"Ġgently":5857,"Ġabsence":5858,"Ġacquaintance":5859,"ĠRoyal":5860,"Ġkindness":5861,"Ġdesol":5862,"Ġdestruction":5863,"Ġsins":5864,"Ġnorthern":5865,"SR":5866,"Ġdispl":5867,"ĠNothing":5868,"Ġagreed":5869,"100":5870,"Ġident":5871,"Ġpin":5872,"Ġnaked":5873,"Ġunhapp":5874,"ylon":5875,"ĠNetherlands":5876,"Ġabsolutely":5877,"umption":5878,"ealous":5879,"Ġinstinct":5880,"umph":5881,"Ġconstit":5882,"ĠIV":5883,"ĠSch":5884,"Ġflood":5885,"ĠFront":5886,"Ġ68":5887,"Ġdate":5888,"Ġflour":5889,"ati":5890,"Ġsecurity":5891,"Ġfan":5892,"Ġburning":5893,"Ġcreated":5894,"Ġsoftware":5895,"Ġvessels":5896,"Ġcontinue":5897,"Ġadmit":5898,"ĠICAO":5899,"ĠUpon":5900,"Ġthunder":5901,"ounce":5902,"Ġcrim":5903,"Ġmic":5904,"ĠLaw":5905,"Ġabroad":5906,"Ġgravel":5907,"Ġcarrying":5908,"Ġrejo":5909,"lection":5910,"abeth":5911,"Ġevents":5912,"Ġslept":5913,"Ġtextiles":5914,"Ġprosper":5915,"Ġcard":5916,"Ġextent":5917,"Ġextraord":5918,"athan":5919,"Ġcollect":5920,"Ġleader":5921,"Ġprocessing":5922,"Ġdepth":5923,"icip":5924,"Ġaffect":5925,"nam":5926,"Ġscience":5927,"ĠRail":5928,"Ġknife":5929,"Ġben":5930,"Ġworship":5931,"Ġgray":5932,"lot":5933,"rified":5934,"ĠITU":5935,"Ġcart":5936,"Ġentrance":5937,"Ġstepped":5938,"ĠSpirit":5939,"043":5940,"ension":5941,"Ġprepar":5942,"ĠUNESCO":5943,"Ġcord":5944,"inking":5945,"ĠCast":5946,"ĠLib":5947,"Ġghost":5948,"Ġpron":5949,"fle":5950,"Ġcalendar":5951,"Ġune":5952,"Ġobjects":5953,"book":5954,"Ġseries":5955,"Ġintellect":5956,"Ġanxious":5957,"ĠAcc":5958,"Ġren":5959,"ĠHist":5960,"Ġtrail":5961,"ĠIBRD":5962,"Ġtherein":5963,"Ġborder":5964,"Ġsupper":5965,"Ġhorrible":5966,"Ġcommunity":5967,"ĠLatin":5968,"Ġ70":5969,"Ġstrike":5970,"Ġhoped":5971,"Ġadmitted":5972,"Ġsmooth":5973,"een":5974,"Ġrighteousness":5975,"raham":5976,"ĠIts":5977,"Ġtal":5978,"Ġenorm":5979,"upied":5980,"Ġapproach":5981,"rus":5982,"Ġmat":5983,"Ġwrit":5984,"Ġcurios":5985,"Ġpoll":5986,"Ġrefer":5987,"Ġtask":5988,"Ġexcited":5989,"Ġtar":5990,"Ġ1980":5991,"ĠANT":5992,"ĠLouis":5993,"Ġqual":5994,"Ġpardon":5995,"Ġamid":5996,"Ġyesterday":5997,"Ġimmense":5998,"inter":5999,"Ġmistake":6000,"ĠRue":6001,"Ġimpression":6002,"Ġseparate":6003,"Ġhorn":6004,"ĠMe":6005,"ĠFair":6006,"ĠWhite":6007,"Ġavoid":6008,"Ġsurrounded":6009,"Ġheavens":6010,"iece":6011,"Ġreward":6012,"999":6013,"Ġcrack":6014,"Ġcompuls":6015,"top":6016,"inging":6017,"ĠSwed":6018,"Ġconcerned":6019,"Ġvoices":6020,"Ġsoldier":6021,"Ġcontrary":6022,"pent":6023,"ANT":6024,"Ġcredit":6025,"Ġexplan":6026,"Ġemp":6027,"Ġliqu":6028,"ĠVirgin":6029,"Ġcorrespond":6030,"Ġsoftly":6031,"Ġprayer":6032,"Ġrender":6033,"ĠJos":6034,"ĠBranches":6035,"pelled":6036,"Ġpolit":6037,"Ġahead":6038,"Ġconsists":6039,"ourse":6040,"car":6041,"Where":6042,"isher":6043,"Ġjealous":6044,"ogg":6045,"314":6046,"ĠTroy":6047,"Ġvig":6048,"ĠWMO":6049,"ĠFAO":6050,"onder":6051,"ĠHenchard":6052,"Ġmember":6053,"ĠOak":6054,"geant":6055,"Ġsovere":6056,"1986":6057,"Ġmisery":6058,"An":6059,"ĠHolmes":6060,"Ġprompt":6061,"ĠRober":6062,"Ġobsc":6063,"Ġprospect":6064,"Ġqueen":6065,"ĠIMO":6066,"emen":6067,"ĠTurk":6068,"ĠCanada":6069,"orne":6070,"Ġdance":6071,"994":6072,"ĠMcTe":6073,"Ġregret":6074,"Ġdwelt":6075,"Ġmonarch":6076,"met":6077,"Ġuseful":6078,"lar":6079,"653":6080,"FTU":6081,"rat":6082,"Ġweary":6083,"Ġlegal":6084,"845":6085,"ĠBabylon":6086,"Ġlabour":6087,"Ġwhence":6088,"erem":6089,"Ġminds":6090,"Ġadvice":6091,"Ġdata":6092,"imon":6093,"Ġarticle":6094,"kin":6095,"itate":6096,"Ġgradually":6097,"ella":6098,"Ġnaturally":6099,"PH":6100,"633":6101,"Ġenergy":6102,"Ġinquir":6103,"lines":6104,"aches":6105,"Ġmile":6106,"ological":6107,"Ġtax":6108,"atell":6109,"Ġprice":6110,"ĠArt":6111,"Ġgovernor":6112,"Ġconsist":6113,"Ġrepent":6114,"ĠYea":6115,"Ġcovenant":6116,"Ġscattered":6117,"aughter":6118,"acles":6119,"Ġdogs":6120,"ĠMove":6121,"600":6122,"onst":6123,"Ġseated":6124,"Ġproportion":6125,"ĠAlexand":6126,"Ġascend":6127,"rian":6128,"Ġfamous":6129,"rank":6130,"Ġdoct":6131,"ĠProfessor":6132,"ĠTrina":6133,"Ġdistrib":6134,"Ġge":6135,"ĠFA":6136,"ĠSpanish":6137,"Ġrum":6138,"Ġclever":6139,"Ġboundary":6140,"Ġfrightened":6141,".]":6142,"oked":6143,"ĠTell":6144,"Ġcounter":6145,"Ġrooms":6146,"Ġscream":6147,"Go":6148,"Ġarticles":6149,"ann":6150,"++++++++++++++++":6151,"Ġunex":6152,"Ġ61":6153,"918":6154,"Ġsuspic":6155,"ĠDuring":6156,"Ġsac":6157,"Ġshelf":6158,"Ġ76":6159,"Ġteacher":6160,"Ġequally":6161,"Ġthousands":6162,"ĠBelg":6163,"Ġavailable":6164,"Ġsinging":6165,"ointment":6166,"Ġclothing":6167,"Ġtight":6168,"aper":6169,"ĠMcTeague":6170,"far":6171,"icted":6172,"Ġthither":6173,"Ġsatisfaction":6174,"Ġcometh":6175,"Ġkissed":6176,"Ġlibrary":6177,"Ġcouncil":6178,"Ġsmell":6179,"Ġclouds":6180,"egal":6181,"Ġproceeded":6182,"Ġspare":6183,"Ġcondem":6184,"more":6185,"Ġtreated":6186,"arian":6187,"ĠItalian":6188,"Ġtheory":6189,"Ġpant":6190,"oms":6191,"Mr":6192,"904":6193,"ĠElizabeth":6194,"Ġmood":6195,"Ġattached":6196,"ĠClare":6197,"Ġunb":6198,"ĠLaman":6199,"Ġdisciples":6200,"Ġfighting":6201,"812":6202,"Ġpreced":6203,"Ġbones":6204,"Ġaccompan":6205,"ĠNiger":6206,"Ġindependent":6207,"All":6208,"Ġwet":6209,"ĠMag":6210,"Ġquant":6211,"Ġhurried":6212,"Ġchairman":6213,"zil":6214,"Ġfulf":6215,"Ġhadn":6216,"Ġwarn":6217,"Ġforehead":6218,"Ġshadows":6219,"Ġofficer":6220,"ĠJul":6221,"Ġrequest":6222,"âĢĺ":6223,"ĠPrime":6224,"Ġearlier":6225,"ĠINTERPOL":6226,"ilst":6227,"ĠThose":6228,"Ġmiserable":6229,"peror":6230,"Ġcircle":6231,"burg":6232,"Ġmixed":6233,"official":6234,"Ġhidden":6235,"locked":6236,"ĠAmm":6237,"cknow":6238,"owned":6239,"bted":6240,"upid":6241,"When":6242,"lam":6243,"Ġprophet":6244,"Ġelectronic":6245,"ĠNW":6246,"Ġsuffering":6247,"ĠScene":6248,"Ġtabern":6249,"800":6250,"Ġrode":6251,"ĠRussia":6252,"Ġvine":6253,"Ġcrime":6254,"095":6255,"Ġbag":6256,"ends":6257,"Ġdrove":6258,"Ġclearly":6259,"Ġrefused":6260,"Ġinterests":6261,"enth":6262,"ocracy":6263,"Ġavailability":6264,"ishes":6265,"Ġinterior":6266,"Ar":6267,"Ġabund":6268,"Ġrolled":6269,"Ġ87":6270,"Ġextremely":6271,"Ġwheel":6272,"657":6273,"Ġactive":6274,"815":6275,"ĠILO":6276,"Ġwheat":6277,"Ġore":6278,"Ġ292":6279,"Ġfacts":6280,"Ġextraordinary":6281,"amin":6282,"aid":6283,"mosp":6284,"Ġjoin":6285,"Ġiniquity":6286,"Ġcuriosity":6287,"Ġtransl":6288,"utation":6289,"Ġunicameral":6290,"Ġdemanded":6291,"Ġrang":6292,"Ġkeen":6293,"Ġcraft":6294,"Ġmurder":6295,"Ġconsult":6296,"Ġexpressed":6297,"ĠRoderick":6298,"Ġchat":6299,"Ġconsequence":6300,"ĠDW":6301,"Ġhaste":6302,"rors":6303,"Ġtotaling":6304,"Ġclosely":6305,"Ġinstantly":6306,"Ġcultiv":6307,"craft":6308,"Ġtail":6309,"ĠTerritorial":6310,"Ġming":6311,"ĠMovement":6312,"bour":6313,"arse":6314,"ements":6315,"Ġsem":6316,"Ġplains":6317,"clusion":6318,"ĠSay":6319,"Ġmoder":6320,"Ġcomplex":6321,"yard":6322,"Ġmanif":6323,"ĠJon":6324,"Ġenv":6325,"Ġwound":6326,"Ġelectric":6327,"Ġpassenger":6328,"rone":6329,"onia":6330,"Ġcomfortable":6331,"300":6332,"Ġbusy":6333,"ridge":6334,"igned":6335,"ĠBro":6336,"Ġdefense":6337,"Ġprevious":6338,"five":6339,"ĠCity":6340,"oso":6341,"Ġstands":6342,"Ġwinds":6343,"Ġbowed":6344,"Ġacknow":6345,"Ġnovel":6346,"rison":6347,"Ġpicked":6348,"Ġasking":6349,"ĠMorel":6350,"Ġdistress":6351,"ĠDWT":6352,"113":6353,"Ġwretched":6354,"ĠGive":6355,"ĠGreen":6356,"iversity":6357,"Ġbecoming":6358,"Ġheed":6359,"ĠKor":6360,"Ġmanners":6361,"vest":6362,"ĠBesides":6363,"OND":6364,"Ġfinal":6365,"ĠGent":6366,"Ġlat":6367,"Ġatmosp":6368,"Ġ59":6369,"208":6370,"ĠPrin":6371,"ĠWil":6372,"Ġbetray":6373,"Ġrecent":6374,"Ġprovin":6375,"abinet":6376,"Ġissue":6377,"Ġcompulsory":6378,"January":6379,"ulse":6380,"--(":6381,"ĠJa":6382,"Ġhistor":6383,"Ġtort":6384,"ĠMexico":6385,"Ġcy":6386,"Ġyourselves":6387,"Ġconvinced":6388,"Åĵ":6389,"Ġpercent":6390,"Ġcandle":6391,"ĠEs":6392,"Ġhole":6393,"Ġworn":6394,"Ġcentre":6395,"uable":6396,"Ġchain":6397,"Ġsigns":6398,"Ġwhisper":6399,"RY":6400,"Ġmysterious":6401,"Ġblank":6402,"Ġpatience":6403,"Ġcommercial":6404,"suff":6405,"tes":6406,"Ġhorizont":6407,"ĠMiddle":6408,"atellite":6409,"ĠKore":6410,"Ġassured":6411,"Ġresolved":6412,"Ġdesper":6413,"673":6414,"Ġnur":6415,"ste":6416,"stro":6417,"ĠAP":6418,"Ġven":6419,"soever":6420,"Ġride":6421,"rass":6422,"Ġmechan":6423,"Ġdisputes":6424,"Ġendure":6425,"Ġlargely":6426,"Ġprinciple":6427,"Ġfortun":6428,"Ġowner":6429,"Ġformerly":6430,"Ġhers":6431,"073":6432,"esar":6433,"ĠOut":6434,"038":6435,"Ġsore":6436,"Ġprey":6437,"Ġexcit":6438,"ĠBay":6439,"Ġbringing":6440,"Ġdil":6441,"Ġshade":6442,"Ġcommitted":6443,"ĠBold":6444,"osure":6445,"aps":6446,"urd":6447,"Ġelder":6448,"Ġforces":6449,"Ġouter":6450,"ĠStill":6451,"ĠAsia":6452,"Ġgrain":6453,"Ġforgot":6454,"zed":6455,"Ġstared":6456,"ighed":6457,"Ġhideous":6458,"agger":6459,"Ġintroduced":6460,"ester":6461,"ĠConsulate":6462,"Ġruin":6463,"ĠGreece":6464,"iture":6465,"ĠVin":6466,"ceiving":6467,"ĠClay":6468,"Ġlone":6469,"Ġtroubled":6470,"Ġglanced":6471,"989":6472,"Ġ1985":6473,"Ġarmed":6474,"ĠSun":6475,"ĠBo":6476,"Ġbend":6477,"634":6478,"some":6479,"232":6480,"Ġric":6481,"Ġenormous":6482,"ĠAC":6483,",--":6484,"ĠRobert":6485,"Ġkindly":6486,"Ġnavig":6487,"eve":6488,"Ġton":6489,"644":6490,"096":6491,"ĠMuslim":6492,"back":6493,"Ġinnocent":6494,"Ġfrequently":6495,"Ġdistinguished":6496,"ino":6497,"Ġexhib":6498,"Ġprovide":6499,"Ġsex":6500,"Ġlegisl":6501,"Ġpause":6502,"Ġrecomm":6503,"Ġfriendly":6504,".'":6505,"Ġplaying":6506,"ĠIFAD":6507,"Ġshock":6508,"ĠMarian":6509,"Ġreturning":6510,"ederation":6511,"Ġinvestig":6512,"Ġthinks":6513,"ĠMichael":6514,"Ġfifteen":6515,"Im":6516,"ĠWhe":6517,"ĠMoreover":6518,"iving":6519,"Ġignorant":6520,"Ġstruggle":6521,"Ġclo":6522,"Ġglim":6523,"INE":6524,"uffs":6525,"ĠLanguages":6526,"ĠPet":6527,"Ġopposition":6528,"CS":6529,"Ġdying":6530,"Ġjew":6531,"ĠBritain":6532,"Ġhanging":6533,"Ġexperien":6534,"rep":6535,"Ġhosts":6536,"Ġbecomes":6537,"Ġunhappy":6538,"Ġskill":6539,"Ġexercise":6540,"Ġgrim":6541,"Ġscorn":6542,"206":6543,"ĠIsa":6544,"Ġsolution":6545,"don":6546,"ooper":6547,"Ġexha":6548,"841":6549,"ĠâĢľ_":6550,"Ġshel":6551,"Ġcharming":6552,"Ġschol":6553,"sen":6554,"unning":6555,"Ġbeloved":6556,"ĠIDA":6557,"Ġhopes":6558,"ĠBas":6559,"Ġindign":6560,"uz":6561,"Ġremarked":6562,"Ġfaithful":6563,"Ġexceedingly":6564,"ĠReligions":6565,"Ġrank":6566,"207":6567,"Ġcele":6568,"CTAD":6569,"cus":6570,"Ġwounded":6571,"Ġgay":6572,"Ġshew":6573,"ĠBrazil":6574,"Ġbaby":6575,"pper":6576,"alog":6577,"ĠMen":6578,"Ġrecon":6579,"roll":6580,"Ġgained":6581,"aux":6582,"Ġmarch":6583,"Ġsecure":6584,"261":6585,"pected":6586,"Ġproposed":6587,"Ġcrying":6588,"roup":6589,"Ġretreat":6590,"Ġhungry":6591,"ĠDig":6592,"Ġlighted":6593,"ĠLamanites":6594,"Ġwrought":6595,"ĠUNCTAD":6596,"ĠSometimes":6597,"agu":6598,"Ġspecies":6599,"Ġexcitement":6600,"col":6601,"Ġ98":6602,"Ġutterly":6603,"ancholy":6604,"ĠSue":6605,"635":6606,"Ġcombination":6607,"Ġdise":6608,"Ġpushed":6609,"Ġcontaining":6610,"Ġdeeply":6611,"ourable":6612,"Ġresponsibility":6613,"Ġcontained":6614,"Ġobv":6615,"Ġfourth":6616,"Ġsubjects":6617,"ĠSocialist":6618,"Al":6619,"Ġrope":6620,"Ġgrey":6621,"Ġowned":6622,"233":6623,"reed":6624,"Ġmerry":6625,"Ġaccur":6626,"ĠAmong":6627,"ĠIFC":6628,"ilty":6629,"aine":6630,"Ġslay":6631,"ĠBoldwood":6632,"Ġsomebody":6633,"Ġyounger":6634,"aire":6635,"Ġphr":6636,"Ġmatch":6637,"Ġtribes":6638,"935":6639,"Ġsatellite":6640,"Ġimprove":6641,"Ġsomewhere":6642,"ĠRes":6643,"Ġcontinually":6644,"ĠLeaders":6645,"Ġabsor":6646,"ilbert":6647,"903":6648,"Ġaband":6649,"ilus":6650,"ĠLA":6651,"ĠMaj":6652,"ĠLev":6653,"Ġconnect":6654,"sm":6655,"Ġbrilliant":6656,"Ġprophets":6657,"Ġimproved":6658,"MAN":6659,"about":6660,"Ġwaves":6661,"ĠAbraham":6662,"ĠSEC":6663,"Ġestim":6664,"Ġconsciousness":6665,"Ġtabernacle":6666,"Ġconstant":6667,"looking":6668,"Ġlights":6669,"Ġcalcul":6670,"Ġvehic":6671,"Ġ67":6672,"Ġcub":6673,"ĠPhilip":6674,"vol":6675,"inor":6676,"Ġovert":6677,"Ġcontains":6678,"Ġbrass":6679,"Ġseparated":6680,"Ġevident":6681,"Ġexplanation":6682,"ĠAhab":6683,"ĠThree":6684,"Ġrushed":6685,"696":6686,"ĠDel":6687,"Ġends":6688,"Ġrent":6689,"Ġentering":6690,"add":6691,"Ġrecoll":6692,"Ġcheeks":6693,"Ġadopted":6694,"asant":6695,"Ġexport":6696,"Ġocean":6697,"ĠPat":6698,"Ġargument":6699,"137":6700,"Ġcareful":6701,"Ġscient":6702,"Ġshield":6703,"Ġtrump":6704,"oused":6705,"Ġattitude":6706,"Ġinfer":6707,"ĠNevertheless":6708,"Ġstern":6709,"Ġdivine":6710,"Ġmerc":6711,"inent":6712,"ata":6713,"Ġstiff":6714,"Ġmining":6715,"Ġsooner":6716,"rene":6717,"040":6718,"Ġhated":6719,"edu":6720,"Ġlan":6721,"sey":6722,"elia":6723,"ĠFranklin":6724,"PE":6725,"bly":6726,"ĠElections":6727,"Ġhorizontal":6728,"ĠST":6729,"Ġsupply":6730,"Ġstories":6731,"Ġwherein":6732,"Ġreckon":6733,"676":6734,"Ġtermin":6735,"YEAR":6736,"Ġstairs":6737,"ĠWork":6738,"Ġshake":6739,"Ġ88":6740,"Ġimpress":6741,"Ġetc":6742,"Ġglo":6743,"Ġnin":6744,"Ġsubstance":6745,"Ġwholly":6746,"Ġrust":6747,"ATT":6748,"ih":6749,"Ġ1905":6750,"Ġcalls":6751,"Ġmerchant":6752,"plural":6753,"ĠElinor":6754,"Ġproblems":6755,"Ġcommerce":6756,"olf":6757,"Ġta":6758,"Ġpond":6759,"IZ":6760,"Ġsleeping":6761,"ĠRussian":6762,"Ġcompre":6763,"rue":6764,"Ġcontempl":6765,"Ġdrunk":6766,"Ġlistening":6767,"Ġinheritance":6768,"otes":6769,"Ġordered":6770,"Ġmelancholy":6771,"Ġbrow":6772,"Ġquarters":6773,"ĠIOC":6774,"Ġforbid":6775,"Ġunable":6776,"Ġremind":6777,"400":6778,"Ġwarriors":6779,"Ġdistrict":6780,"ĠKen":6781,"Ġfiles":6782,"ĠMark":6783,"Ġforgive":6784,"utch":6785,"Ġ1900":6786,"Ġexperiment":6787,"106":6788,"Ġguide":6789,"ĠAdv":6790,"Ġfo":6791,"Ġlargest":6792,"Ġduke":6793,"Ġdiscovery":6794,"umes":6795,"Ġgreet":6796,"Ġfederal":6797,"inese":6798,"Ġcommunication":6799,"Ġhouseholds":6800,"Ġ96":6801,"ĠAlso":6802,"Ġloving":6803,"cript":6804,"Ġstraw":6805,"Ġnevertheless":6806,"ĠMaria":6807,"ĠMass":6808,"Ġintention":6809,"Ġunfortun":6810,"Ġsche":6811,"Ġdawn":6812,"ĠPoor":6813,"Ġborne":6814,"ola":6815,"Ġburden":6816,"ĠReg":6817,"ounding":6818,"pless":6819,"oir":6820,"Ġnig":6821,"Ġsmote":6822,"ertainly":6823,"Ġrange":6824,"Ġsplendid":6825,"ĠTill":6826,"ĠPass":6827,"ĠMerchant":6828,"ĠSouthern":6829,"Ġhollow":6830,"ctic":6831,"205":6832,"Ġmystery":6833,"ĠAunt":6834,"oles":6835,"Ġcheek":6836,"ĠCivil":6837,"Ġanyone":6838,"Ġprecise":6839,"655":6840,"Ġminor":6841,"Ġefforts":6842,"Ġtrial":6843,"ĠMaur":6844,"Ġrelative":6845,"ittee":6846,"Ġrocks":6847,"riot":6848,"ĠAvenue":6849,"erson":6850,"943":6851,"Ġreferences":6852,"Ġchest":6853,"ixture":6854,"Here":6855,"reland":6856,"Ġconfusion":6857,"Ġlamp":6858,"ĠAustri":6859,"Ġcontact":6860,"Ġuncons":6861,"Ġfolk":6862,"Ġvaluable":6863,"Ġarranged":6864,"044":6865,"637":6866,"hend":6867,"Ġpow":6868,"ĠSom":6869,"Ġpressed":6870,"ipping":6871,"jud":6872,"Did":6873,"ao":6874,"Ġunion":6875,"Ġroads":6876,"Ġdepartment":6877,"Ġimmediate":6878,"Ġinquired":6879,"Ġolder":6880,"Ġfruits":6881,"Un":6882,"Ġens":6883,"Ġvegetables":6884,"uries":6885,"Ġassistance":6886,"Ġforever":6887,"hus":6888,"Ġwaterways":6889,"Ġdelicate":6890,"Ġintent":6891,"Ġphone":6892,"Ġhotel":6893,"Ġmanufacturing":6894,"olk":6895,"ston":6896,"Ġfriendship":6897,"Ġegg":6898,"Ġinner":6899,"olve":6900,"Ġwra":6901,"Ġ1984":6902,"atoes":6903,"Ġstupid":6904,"Ġdollar":6905,"ĠGOD":6906,"Ġwherefore":6907,"............................................":6908,"Ġlivest":6909,"EEN":6910,"bac":6911,"ĠMount":6912,"iot":6913,"ldom":6914,"========":6915,"him":6916,"Ġsul":6917,"Ġshouted":6918,"Ġresumed":6919,"Ġhumble":6920,"Ġplans":6921,"Ġapplied":6922,"254":6923,"Ġlam":6924,"Ġeverywhere":6925,"Ġhaz":6926,"Ġsect":6927,"ĠNap":6928,"Ġobserve":6929,"Ġdispute":6930,"Ġphysical":6931,"aur":6932,"Ġsus":6933,"Ġaddressed":6934,"Ġcomposed":6935,"ĠSov":6936,"Ġchiefly":6937,"oser":6938,"Ġlust":6939,"Ġhosp":6940,"ĠDevelop":6941,"Ġpursued":6942,"Ġpor":6943,"Ġdirected":6944,"ĠCaesar":6945,"ĠMap":6946,"Ġarrest":6947,"Ġspl":6948,"rine":6949,"Ġfix":6950,"Ġspark":6951,"Ġgift":6952,"aubon":6953,"standing":6954,"inate":6955,"Ġbree":6956,"Ġprofound":6957,"Ġhal":6958,"Ġofferings":6959,"Ġoccasionally":6960,"Ġlearning":6961,"435":6962,"nard":6963,"Ġwestern":6964,"erk":6965,"Ġdost":6966,"Ġblame":6967,"Ġaccompanied":6968,"UD":6969,"Ġassem":6970,"Ġrailway":6971,"Ġshining":6972,"Ġintense":6973,"case":6974,"Ġmorrow":6975,"Ġax":6976,"itzer":6977,"Ġstrict":6978,"aret":6979,"Ġrealized":6980,"Ġhurry":6981,"ĠAmmon":6982,"erer":6983,"Ġcam":6984,"ĠIm":6985,"father":6986,"Ġreader":6987,"otted":6988,"ĠMiles":6989,"xim":6990,"Ġshoes":6991,"Ġcurse":6992,"Ġdrugs":6993,"Ġlonely":6994,"arde":6995,"Ġdepos":6996,"ĠTher":6997,"Ġviolence":6998,"985":6999,"ĠEastern":7000,"Ġgaze":7001,"Ġfollows":7002,"Ġcapable":7003,"axon":7004,"Ġhint":7005,"ĠThÃ©":7006,"Ġcontempt":7007,"ustomed":7008,"119":7009,"824":7010,"ĠNature":7011,"Ġatmosphere":7012,"uten":7013,"ette":7014,"Ġprincess":7015,"Ġeastern":7016,"Of":7017,"including":7018,"ĠPan":7019,"ĠUt":7020,"jah":7021,"Ġgrate":7022,"ĠAbout":7023,"Ġfrequent":7024,"Ġcompet":7025,"orse":7026,"Ġconsideration":7027,"Ġprivile":7028,"ĠSenate":7029,"Ġtreasure":7030,"lock":7031,"ĠSur":7032,"Ġvice":7033,"Ġmajority":7034,"Ġfrancs":7035,"ĠCasaubon":7036,"Ġbelonged":7037,"ĠSH":7038,"Ġbridge":7039,"_.]":7040,"ĠArea":7041,"Ġpolicy":7042,"Ġdiscussion":7043,"Ġappreci":7044,"ĠNAM":7045,"Ġrat":7046,"Ġremaining":7047,"Ġgenius":7048,"056":7049,"Ġsaint":7050,"042":7051,"Ġinfinite":7052,"who":7053,"Ġloo":7054,"mit":7055,"asped":7056,"Ġheark":7057,"ĠMonsieur":7058,"Ġengine":7059,"814":7060,"ĠSar":7061,"ĠCraw":7062,"Ġcig":7063,"Ġlin":7064,"ifying":7065,"045":7066,"Ġtowns":7067,"ASS":7068,"Ġlake":7069,"ĠRem":7070,"Ġrelie":7071,"Ġpractical":7072,"mond":7073,"eps":7074,"Ġdignity":7075,"ĠSoviet":7076,"Ġdish":7077,"Ġswall":7078,"Ġviolent":7079,"Ġcher":7080,"stock":7081,"Ġdidst":7082,"Ġerect":7083,"ĠDou":7084,"ĠPhilist":7085,"Ġtourism":7086,"ashing":7087,"ĠChic":7088,"Ġsetting":7089,"Ġexcuse":7090,"atherine":7091,"Ġ71":7092,"Ġ1981":7093,"Ġcelebr":7094,"Ġtroops":7095,"Ġdefe":7096,"Ġobtain":7097,"Ġterritorial":7098,"ĠOff":7099,"Ġregions":7100,"Ġrendered":7101,"Ġlaughter":7102,"Ġtransfer":7103,"Ġlivestock":7104,"Ġnotes":7105,"Ġwives":7106,"Ġplag":7107,"Ġcharacters":7108,"Ġdescription":7109,"ĠPri":7110,"ĠEach":7111,"914":7112,"Ġprinciples":7113,"ĠRevolution":7114,"Ġbew":7115,"ĠNavy":7116,"Ġindul":7117,"hum":7118,"elf":7119,"905":7120,"Ġ82":7121,"Ġfla":7122,"Ġ1890":7123,"Ġrelation":7124,"Ġpipe":7125,"ĠOp":7126,"Ġjob":7127,"Ġqueer":7128,"ĠRailroads":7129,"107":7130,"new":7131,"Ġequival":7132,"ĠLy":7133,"Ġconsent":7134,"Ġvariety":7135,"Ġpil":7136,"iland":7137,"BER":7138,"ĠCrawford":7139,"ali":7140,"ĠDun":7141,"ĠRa":7142,"Ġpalm":7143,"Ġ177":7144,"ĠBuck":7145,"Ġplat":7146,"078":7147,"Ġrolling":7148,"Ġsomehow":7149,"Ġflee":7150,"IDO":7151,"Ġunconscious":7152,"Ġwash":7153,"Ġtrembling":7154,"ĠNephi":7155,"Ġheavily":7156,"ĠTha":7157,"Ġfounded":7158,"Ġcommandments":7159,"Ġcitizens":7160,"uce":7161,"Ġstrangers":7162,"Ġmidnight":7163,"Ġignorance":7164,"Are":7165,"Ġplenty":7166,"Ġdevoted":7167,"Ġwhither":7168,"Ġcourts":7169,"Ġeffective":7170,"Ġflew":7171,"164":7172,"294":7173,"asket":7174,"bacco":7175,"sis":7176,"Ġpour":7177,"Ġfever":7178,"Ġstriking":7179,"Ġdeclare":7180,"iable":7181,"matic":7182,"ache":7183,"Ġexplo":7184,"Ġlap":7185,"ĠYEAR":7186,"Ġsteep":7187,"Ġaverage":7188,"Very":7189,"047":7190,"Ġrays":7191,"915":7192,"ĠAny":7193,"Ġmonst":7194,"Ġelection":7195,"Ġdreams":7196,"Ġsacred":7197,"Ġmagnific":7198,"................................................":7199,"907":7200,"Ġgracious":7201,"ghan":7202,"icing":7203,"when":7204,"ĠTem":7205,"Ġshed":7206,"Ġ1983":7207,"Ġtriumph":7208,"Ġhackers":7209,"Ġ<":7210,"heast":7211,"Ġaffair":7212,"Ġoperation":7213,"ĠIreland":7214,"Ġspiritual":7215,"Ġframe":7216,"ĠBoth":7217,"Ġ1982":7218,"Ġpig":7219,"Ġrear":7220,"Ġchanges":7221,"Ġawake":7222,"itzerland":7223,"Ġfab":7224,"Ġgarments":7225,"919":7226,"ĠAndrew":7227,"hant":7228,"ĠIll":7229,"ĠHelen":7230,"Ġlift":7231,"Ġham":7232,"Ġflung":7233,"ĠUNIDO":7234,"Ġfrag":7235,"pherd":7236,"ĠRoger":7237,"Ġguilty":7238,"Ġalarm":7239,"Ġcrew":7240,"acc":7241,"'.":7242,"ĠFogg":7243,"Ġgeneration":7244,"Ġassure":7245,"Ġmigrants":7246,"IPO":7247,"Ġslipped":7248,"gly":7249,"nal":7250,"ĠMir":7251,"angle":7252,"Ch":7253,"NE":7254,"umped":7255,"Ġburned":7256,"Ġconcluded":7257,"Ġcla":7258,"Ġ1979":7259,"Ġknock":7260,"917":7261,"244":7262,"Ġexports":7263,"Ġstronger":7264,"gic":7265,"Ġnewsp":7266,"onesia":7267,"Ġaudience":7268,"Ġpoured":7269,"Ġseldom":7270,"Ġarrival":7271,"Ġ1952":7272,"Ġshru":7273,"Ġflying":7274,"ĠGar":7275,"Ġwidow":7276,"ĠColl":7277,"Ġvolcan":7278,"Ġacquainted":7279,"Ġinterf":7280,"172":7281,".............................":7282,"Ġjudged":7283,"Ġparents":7284,"Ġphot":7285,"Have":7286,"Ġfee":7287,"046":7288,"Ġextensive":7289,"Ġenterpr":7290,"Ġpage":7291,"ĠSlo":7292,"Ġrivers":7293,"Ġfrank":7294,"ĠEli":7295,"ĠWIPO":7296,"Ġplants":7297,"Ġdeny":7298,"ĠKorea":7299,"imony":7300,"Ġreality":7301,"670":7302,"Ġseriously":7303,"ĠClayton":7304,"Ġgest":7305,"ckets":7306,"Ġtobacco":7307,"Ġcommunications":7308,"only":7309,"ĠEust":7310,"Ġembar":7311,"Ġperish":7312,"ĠVI":7313,"ĠNeither":7314,"occupied":7315,"..........................":7316,"Ġinstrument":7317,"ĠPhara":7318,"Ġsigned":7319,"Ġdetails":7320,"Ġdescended":7321,"Ġliterature":7322,"Ġfetch":7323,"ĠHall":7324,"Ġaloud":7325,"Ġinterrupted":7326,"Ġages":7327,"Ġ1995":7328,"Ġflame":7329,"ĠVery":7330,"Mar":7331,"hall":7332,"Ġwhilst":7333,"ĠNorway":7334,"Ġclaimed":7335,"Ġencl":7336,"Ġcastle":7337,"Ġweapons":7338,"Ġwhenever":7339,"iop":7340,"057":7341,"iciently":7342,"Ġdeeds":7343,"ĠWild":7344,"Ġ1960":7345,"oston":7346,"Ġelections":7347,"Ġprepare":7348,"Ġbutter":7349,"Ġduties":7350,"ĠHaving":7351,"Ġunw":7352,"works":7353,"ĠPharaoh":7354,"AV":7355,"Ġcash":7356,"870":7357,"ĠScot":7358,"Ġshowing":7359,"Ġdeed":7360,"Ġextended":7361,"Ġleaning":7362,"idents":7363,"Ġunclean":7364,"May":7365,"Ġattended":7366,"ĠLeban":7367,"verted":7368,"832":7369,"ĠLORCS":7370,"omy":7371,"Ġdegrees":7372,"Ġreproach":7373,"Land":7374,"Ġhyp":7375,"Ġpuzz":7376,"Ġsimpl":7377,"Ġsettle":7378,"Ġequivalent":7379,"Ġleaned":7380,"ili":7381,"258":7382,"Ġ1996":7383,"Ġsomeone":7384,"Ġpurposes":7385,"oni":7386,"lying":7387,"ĠZeal":7388,"Ġ1901":7389,"Ġperceive":7390,"Ġcommission":7391,"132":7392,"ĠChinese":7393,"872":7394,"Ġgets":7395,"ares":7396,"ĠCore":7397,"ĠLove":7398,"039":7399,"Ġslew":7400,"Ġvolume":7401,"Ġunus":7402,"ĠGuard":7403,"Ġmortal":7404,"rip":7405,"Ġnervous":7406,"ĠFAX":7407,"ĠPC":7408,"Ġwondering":7409,"ĠThrough":7410,"ultan":7411,"ĠUSSR":7412,"ĠProv":7413,"Ġdiplomatic":7414,"sell":7415,"Ġareas":7416,"Ġagreeable":7417,"ĠOP":7418,"Ġfurniture":7419,"Ġsympathy":7420,"Ġentreat":7421,"Ġcrushed":7422,"ĠXV":7423,"ETH":7424,"Ġech":7425,"cet":7426,"ĠLight":7427,"Ġ1978":7428,"Ġstudents":7429,"Ġshows":7430,"ange":7431,"Ġlux":7432,"ĠNames":7433,"istry":7434,"Ġcharged":7435,"udi":7436,"ĠLake":7437,"Ġstayed":7438,"Ġplun":7439,"ĠFare":7440,"177":7441,"Net":7442,"Ġrese":7443,"ĠHon":7444,"108":7445,"Ġcharm":7446,"Ġrefuse":7447,"Ġperpet":7448,"Ġgazed":7449,"Ġprotection":7450,"Ġmock":7451,"AEA":7452,"Ġdesir":7453,"Ġstrongly":7454,"uit":7455,"keep":7456,"ĠDU":7457,"Ġpoison":7458,"ĠCliff":7459,"zib":7460,"geon":7461,"Ġshell":7462,"909":7463,"Ġhoist":7464,"ĠSECOND":7465,"ĠThÃ©nard":7466,"itud":7467,"Ġsection":7468,"Ġ1970":7469,"Ġattract":7470,"Ġrejoice":7471,"Ġthoroughly":7472,"ĠICJ":7473,"Ġembarrass":7474,"Ġdeliber":7475,"ĠChicago":7476,"Ġanywhere":7477,"Ġmud":7478,"Ġnights":7479,"On":7480,"Ġhelpless":7481,"Ġincluded":7482,"Ġrisk":7483,"ĠIsaac":7484,"ĠDevelopment":7485,"ĠCON":7486,"Ġplainly":7487,"Ġoft":7488,"111":7489,"Ġimagined":7490,"ĠDoctor":7491,"Ġfoul":7492,"urance":7493,"ĠZealand":7494,"acious":7495,"Ġsignific":7496,"Ġconnection":7497,"Ġroot":7498,"ĠPresently":7499,"oration":7500,"ĠEll":7501,"Ġuttered":7502,"ĠIAEA":7503,"180":7504,"Ġirrit":7505,"Ġfund":7506,"were":7507,"ĠPRO":7508,"elle":7509,"aping":7510,"Ġfors":7511,"Ġclock":7512,"ĠMars":7513,"Ġbreaking":7514,"Ġmourn":7515,"gthen":7516,"ĠVict":7517,"Ġrested":7518,"Ġeaten":7519,"Ad":7520,"bur":7521,"Ġtoss":7522,"ĠAnn":7523,"Ġtempor":7524,"Ġdeparture":7525,"mund":7526,"Ġbeard":7527,"Ġimpat":7528,"Ġlawyer":7529,"ĠCass":7530,"strode":7531,"Ġdiamond":7532,"Ġunim":7533,"Ġreflected":7534,"Ġunre":7535,"274":7536,"Ġbla":7537,"Ġappeal":7538,"Ġemotion":7539,"Ġaffected":7540,"Ġdefend":7541,"Ġbalance":7542,"kel":7543,"ĠHO":7544,"aunt":7545,"crow":7546,"icity":7547,"Ġbuildings":7548,"oqu":7549,"Ġconsumer":7550,"Ġsurv":7551,"Ġdelighted":7552,"Ġprofession":7553,"ĠAG":7554,"Ġdocument":7555,"cest":7556,"Ġtomorrow":7557,"Ġgiant":7558,"iveness":7559,"Ġpup":7560,"Ġscra":7561,"ĠSyria":7562,"144":7563,"ĠAssoci":7564,"Ġaircraft":7565,"Ġadventure":7566,"Ġlover":7567,"Ġsecretary":7568,"Ġdischar":7569,"Ġlegislative":7570,"Ġtroubles":7571,"ĠRICH":7572,"Ġapproaching":7573,"Ġtiny":7574,"Ġsank":7575,"arine":7576,"asm":7577,"icane":7578,"Ġenthus":7579,"Ġviews":7580,"ns":7581,"Ye":7582,"Ġinex":7583,"irty":7584,"Ġparted":7585,"Ġcable":7586,"ĠLion":7587,"ĠSwitzerland":7588,"Ġstaring":7589,"Ġdepths":7590,"ĠWithout":7591,"Ġeleven":7592,"Ġachie":7593,"inction":7594,"Ġrice":7595,"ĠSus":7596,"Ġintelligence":7597,"Ġtoler":7598,"ĠApp":7599,"Ġanch":7600,"irect":7601,"Your":7602,"ĠFel":7603,"Ġ77":7604,"Ġwire":7605,"ĠGATT":7606,"Ġcheerful":7607,"ĠSergeant":7608,"ĠOrganization":7609,"Ġmental":7610,"Ġconvey":7611,"Ġlikewise":7612,"Ġcease":7613,"oty":7614,"Ġconcent":7615,"Ġaccord":7616,"Ġexamined":7617,"252":7618,"Ġadmiration":7619,"uminous":7620,"ĠCorey":7621,"658":7622,"Ġdisturb":7623,"ĠMarianne":7624,"Ġwishes":7625,"spe":7626,"Ġnic":7627,"ĠCr":7628,"Ġcode":7629,"ugged":7630,"Ġcents":7631,"Ġtower":7632,"Ġrow":7633,"ums":7634,"ĠRo":7635,"ORD":7636,"ĠChristmas":7637,"ĠDenmark":7638,"aval":7639,"Ġcontrast":7640,"ĠBulstrode":7641,"Ġmingled":7642,"PR":7643,"icar":7644,"Ġscale":7645,"Ġenjoyed":7646,"ĠWal":7647,"acia":7648,"istence":7649,"Ġ1880":7650,"Ġremote":7651,"Ġpainted":7652,"Per":7653,"Ġmixture":7654,"Ġgoodness":7655,"Ġdesolate":7656,"Ġoccasional":7657,"Ġaltern":7658,"Ġpluck":7659,"Ġreview":7660,"Ġissues":7661,"Ġscientific":7662,"553":7663,"aved":7664,"rection":7665,"Ġbon":7666,"Ġsymb":7667,"Ġinclined":7668,"Ġupward":7669,"ĠAlger":7670,"Ġmode":7671,"Ġreputation":7672,"IB":7673,"ĠBook":7674,"Ġcoastal":7675,"Ġtied":7676,"Ġoutput":7677,"650":7678,"Ġlords":7679,"Ġtin":7680,"Ġbrothers":7681,"Ġprograms":7682,"Ġ1899":7683,"886":7684,"Ġling":7685,"cks":7686,"Ġsentiment":7687,"Ġdifficulties":7688,"ĠBarbicane":7689,"Ġsufficiently":7690,"Ġpatient":7691,"Ġiv":7692,"itute":7693,"Ġfury":7694,"ĠAk":7695,"sufficient":7696,"Ġonline":7697,"209":7698,"airy":7699,"Ġsuccessful":7700,"Ġclim":7701,"asion":7702,"Ġhanded":7703,"upon":7704,"ĠManpower":7705,"ĠLevites":7706,"ĠTheron":7707,"Ġcolored":7708,"Ġcottage":7709,"Ġtrick":7710,"amond":7711,"ĠMinisters":7712,"Ġmaintain":7713,"Ġgranted":7714,"Ġdeserted":7715,"ĠCCC":7716,"Ġvictory":7717,";âĢĶ":7718,"Ġyard":7719,"Ġpreserved":7720,"Ġadministration":7721,"Ġsuspicion":7722,"bean":7723,"isputes":7724,"Ġpace":7725,"Ġloft":7726,"Ġwhist":7727,"Ġfeather":7728,"ĠYOU":7729,"Ġcomment":7730,"Ġugly":7731,"ĠPier":7732,"clam":7733,"ĠBoston":7734,"ĠFour":7735,"box":7736,"raction":7737,"Ġrevolution":7738,"Ġcunning":7739,"Ġ1895":7740,"Ġattrib":7741,"Ġincident":7742,"rained":7743,"Ġplates":7744,"Ġrefuge":7745,"ĠPhr":7746,"Ġwickedness":7747,"alty":7748,"iform":7749,"Ġexcess":7750,"Ġshoot":7751,"Ġ97":7752,"CL":7753,"Ġsentence":7754,"nant":7755,"isible":7756,"ĠGNP":7757,"ĠEarth":7758,"opp":7759,"Ġleaped":7760,"Ġreserv":7761,"ĠHu":7762,"437":7763,"ĠProtest":7764,"SP":7765,"atha":7766,"Ġscru":7767,"Ġcontinu":7768,"ĠPoly":7769,"ĠAlthough":7770,"ĠTurkey":7771,"Ġ--------------------------------":7772,"Ġwoe":7773,"Ġhastily":7774,"za":7775,"Ġ1894":7776,"pended":7777,"Ġdelay":7778,"Ġdeb":7779,"Ġcloth":7780,"Ġuseless":7781,"ĠRosamond":7782,"ĠLocation":7783,"Ġimages":7784,"Ġrig":7785,"Ġdared":7786,"aketh":7787,"ĠBrown":7788,"hearted":7789,"Ġlament":7790,"Ġchlor":7791,"Ġconfl":7792,"Ġfatal":7793,"National":7794,"engers":7795,"050":7796,"Ġtells":7797,"Ġ1904":7798,"ĠRepresent":7799,"Ġneighbor":7800,"bow":7801,"Ġ1976":7802,"Ġprisoners":7803,"Ġmainly":7804,"Ġreigned":7805,"Ġtonight":7806,"Ġsen":7807,"ĠCatherine":7808,"Ġrush":7809,"Ġprecip":7810,"Ġfearful":7811,"Ġpenet":7812,"ĠHung":7813,"Ġdisag":7814,"ĠMarcus":7815,"115":7816,"thew":7817,"843":7818,"Ġkinds":7819,"Ġdrift":7820,"Ġga":7821,"ĠFederal":7822,"Ġaccustomed":7823,"ĠAdam":7824,"Ġdimin":7825,"Ġanxiety":7826,"inity":7827,"Ġloves":7828,"denly":7829,"Ġsovereign":7830,"atus":7831,"Ġprofit":7832,"Ġreflection":7833,"Ġrede":7834,"Ġ853":7835,"Ġraising":7836,"oto":7837,"Ġmeasures":7838,"ros":7839,"ĠGulf":7840,"Ġrelay":7841,"ĠDigraph":7842,"Ġabrupt":7843,"Ġresolution":7844,"Ġcentered":7845,"Ġeternal":7846,"---":7847,"ICK":7848,"Ġgig":7849,"rans":7850,"Ġspoil":7851,"ĠPolice":7852,"Ġmigrant":7853,"hire":7854,"Ġthread":7855,"ĠâĢľâĢĺ":7856,"Ġvoy":7857,"Ġ78":7858,"ĠMalays":7859,"ĠPersons":7860,"ĠTen":7861,"Ġstoo":7862,"ĠOR":7863,"Ġ1892":7864,"berg":7865,"ILL":7866,"Ġupright":7867,"Ġexclusive":7868,"Ġphilosophy":7869,"ĠPortugal":7870,"Ġjaw":7871,"Ġflow":7872,"ĠValent":7873,"ĠRICHARD":7874,"At":7875,".),":7876,"ais":7877,"Ġstum":7878,"Ġ1975":7879,"ipelines":7880,"087":7881,"vals":7882,"067":7883,"ambia":7884,"Ġapartment":7885,"Ġcab":7886,"Ġ1897":7887,"ĠKir":7888,"Ġdragged":7889,"Ġsalvation":7890,"Ġwake":7891,"Ġ1902":7892,"Ġ1891":7893,"Ġ1898":7894,"ĠHelium":7895,"Ġnodded":7896,"Can":7897,"omed":7898,"ĠAnge":7899,"Ġdrinking":7900,"ĠBR":7901,"ym":7902,"Ġactual":7903,"Ġattempted":7904,"Ġpainful":7905,"Ġlock":7906,"Ġseas":7907,"Ġ1885":7908,"Ġamuse":7909,"Ġfears":7910,"ĠGord":7911,"Ġcolumn":7912,"Ġgoats":7913,"Ġlinen":7914,"bot":7915,"Ġafterward":7916,"illing":7917,"arecrow":7918,"Ġswept":7919,"Ġcircumstance":7920,"ĠPhilistines":7921,"Ġpier":7922,"ĠKe":7923,"Ġwars":7924,"Ġperil":7925,"Ġmadam":7926,"lotte":7927,"ĠClifford":7928,"Ġmonster":7929,"Ġvisited":7930,"Ġwarrant":7931,"Ġuncertain":7932,"Ġerror":7933,"ĠHarriet":7934,"Ġderived":7935,"Ġunexpected":7936,"Ġwave":7937,"akistan":7938,"Ġsubmarine":7939,"ĠIndeed":7940,"Ġincon":7941,"Ġconclusion":7942,"925":7943,"Ġmedic":7944,"Ġdescribe":7945,"iller":7946,"Ġwhereas":7947,"Ġharp":7948,"sch":7949,"ĠAD":7950,"912":7951,"041":7952,"Ġsteam":7953,"STA":7954,"Ġnigh":7955,"Ġdependent":7956,"eding":7957,"Ġrebell":7958,"Ġ1896":7959,"Ġark":7960,"tical":7961,"Ġwag":7962,"ĠFri":7963,"Ġobservation":7964,"ĠThÃ©nardier":7965,"four":7966,"Ġ1893":7967,"ĠCarib":7968,"ĠDick":7969,"ĠCamb":7970,"Ġabst":7971,"Ġunm":7972,"Ġarise":7973,"Ġrelated":7974,"Ġrevenge":7975,"Ġprovinces":7976,"dig":7977,"Ġalike":7978,"autilus":7979,"DS":7980,"Ġpunishment":7981,"Ġmanifest":7982,"ĠComparative":7983,"CR":7984,"liness":7985,"Ġdancing":7986,"ERS":7987,"ERV":7988,"Ġlanguages":7989,"Ġrepeat":7990,"Ġridic":7991,"would":7992,"Ġswell":7993,"observer":7994,"Ġstam":7995,"osla":7996,"USE":7997,"cheon":7998,"ĠAss":7999,"ĠContin":8000,"Ġglorious":8001,"Ġassert":8002,"ĠIrrigated":8003,"aned":8004,"Ġchose":8005,"125":8006,"Ġol":8007,"ĠSamuel":8008,"Ġconsumption":8009,"Ġhunting":8010,"Ġsubsequ":8011,"Ġrevealed":8012,"ĠWTO":8013,"Ġwanting":8014,"ĠBaron":8015,"Ġinstruments":8016,"Ġstair":8017,"cription":8018,"Ġdelightful":8019,"Ġmour":8020,"utenant":8021,"Ġram":8022,"ĠCharlotte":8023,"Nautilus":8024,"ruption":8025,"Ġcauses":8026,"Ġsteady":8027,"ĠEdmund":8028,"Ġlocked":8029,"Ġhoney":8030,"Ġeth":8031,"ĠBol":8032,"Ġchim":8033,"Ġindig":8034,"Ġsilk":8035,"Ġbloody":8036,"December":8037,"Ġastonishment":8038,"ĠAustria":8039,"ĠTra":8040,"700":8041,"Ġze":8042,"Ġfolly":8043,"ĠRama":8044,"906":8045,"ĠAntar":8046,"Ġwing":8047,"ĠFrancisc":8048,"AU":8049,"En":8050,"gain":8051,"ĠEustacia":8052,"lad":8053,"Ġinvolved":8054,"ĠHom":8055,"Ġcompelled":8056,"Ġ1875":8057,"835":8058,"Ġstructure":8059,"Ġtu":8060,"Ġseeking":8061,"ĠAfghan":8062,"oons":8063,"Ġborrow":8064,"Ġnaught":8065,"Ġboast":8066,"Ġshortly":8067,"ĠProtestant":8068,"yss":8069,"147":8070,"Be":8071,"Ġraw":8072,"Ġscreen":8073,"othy":8074,"Ġreadily":8075,"Ġdecision":8076,"Ġresc":8077,"Ġawa":8078,"Ġaccomplished":8079,"216":8080,"Ġgif":8081,"ĠPersian":8082,"Ġannounced":8083,"ĠPart":8084,"Ġcontinental":8085,"Ġbottle":8086,"Ġhesitated":8087,"Ġcollege":8088,"118":8089,"ĠNorthern":8090,"Ġcontract":8091,"Ġmounted":8092,"Ġencoura":8093,"Ġstol":8094,"Ġ1884":8095,"Ġdefinite":8096,"Ġpotatoes":8097,"âĶĢâĶĢâĶĢâĶĢâĶĢâĶĢâĶĢâĶĢâĶĢâĶĢâĶĢâĶĢâĶĢâĶĢâĶĢâĶĢ":8098,"064":8099,"Ġcliff":8100,"wick":8101,"Ġhundreds":8102,"ĠEthiop":8103,"master":8104,"Ġ1967":8105,"Ġpattern":8106,"Ġeffects":8107,"ĠParliament":8108,"Ġtemperature":8109,"Ġurged":8110,"364":8111,"Ġ1889":8112,"Ġchin":8113,"ourg":8114,"ĠMade":8115,"ĠMatthew":8116,"%)":8117,"Ġnearest":8118,"ĠAch":8119,"LOW":8120,"Ġpermitted":8121,"445":8122,"Ġsite":8123,"Ġshaking":8124,"Ġintim":8125,"Ġhydro":8126,"onse":8127,"Ġnoted":8128,"Ġsounded":8129,"Ġelsewhere":8130,"ĠGordon":8131,"921":8132,"913":8133,"Ġspear":8134,"Ġbrand":8135,"!âĢĻ":8136,"048":8137,"Ġdisposition":8138,"Ġwooden":8139,"kward":8140,"ript":8141,"inks":8142,"rust":8143,"adel":8144,"illes":8145,"Ġscarlet":8146,"Ġbatt":8147,"Ġlately":8148,"ĠDomin":8149,"Ġadvert":8150,"175":8151,"Ġmarble":8152,"Ġdetermin":8153,"Ġvanished":8154,"ĠCaribbean":8155,"Ġleaf":8156,"868":8157,"Ġrestored":8158,"ĠJosh":8159,"Ġcave":8160,"stuffs":8161,"ouch":8162,"Ġnoon":8163,"...........................":8164,"uw":8165,"amil":8166,"orable":8167,"Ġinit":8168,"ĠMother":8169,"Ġsisters":8170,"ĠFelix":8171,"vell":8172,"Ġindifferent":8173,"ĠSP":8174,"Ġanaly":8175,"ĠMarg":8176,"][":8177,"Ġtorn":8178,"ĠIslam":8179,"ĠCommission":8180,"ĠSuddenly":8181,"Ġrecover":8182,"Ġconfused":8183,"ĠTw":8184,"Ġwarning":8185,"ĠArgent":8186,"bra":8187,"leness":8188,"Ġstaff":8189,"ummer":8190,"Ġtid":8191,"926":8192,"ato":8193,"achuse":8194,"Ġbegat":8195,"Ġemperor":8196,"Ġemployment":8197,"Ġbullet":8198,"achuset":8199,"ĠEqu":8200,"Ġblock":8201,"ĠAtt":8202,"ugosla":8203,"Ġcolon":8204,"Ġfreely":8205,"Ġelement":8206,"ĠArabia":8207,"Ġhab":8208,"197":8209,"cia":8210,"Ġdemonst":8211,"Ġheathen":8212,"mal":8213,"Ġthirst":8214,"Ġ1906":8215,"Ġfoundation":8216,"Ġconstantly":8217,"Ġcryst":8218,"Ġtheat":8219,"ĠWoman":8220,"Ġstudied":8221,"Ġidle":8222,"vin":8223,"169":8224,"Ġinsult":8225,"Ġvictim":8226,"Ġastonished":8227,"achusetts":8228,"Ġawkward":8229,"Ġmistaken":8230,"Ġcontents":8231,"ĠNEG":8232,"ĠFer":8233,"Ġcompar":8234,"ricts":8235,"Ġstrate":8236,"ĠScarecrow":8237,"itania":8238,"mir":8239,"Ġcas":8240,"uting":8241,"237":8242,"Ġrecovered":8243,"Ġpurple":8244,"Ġfurnished":8245,"enes":8246,"Ġdried":8247,"anas":8248,"ĠBox":8249,"Ġdesk":8250,"ĠAB":8251,"wl":8252,"quet":8253,"123":8254,"ĠBelgium":8255,"Ġancest":8256,"Ġleis":8257,"Ġshouldn":8258,"ugg":8259,"Ġprovince":8260,"ĠCape":8261,"Ġmagnificent":8262,"Ġscheme":8263,"Ġtouching":8264,"ustration":8265,"Ġ99":8266,"ĠSociety":8267,"Ġpositive":8268,"Ġwhoso":8269,"Ġconviction":8270,"ĠTyrone":8271,"ĠCro":8272,"Ġconsid":8273,"low":8274,"Ġyer":8275,"ĠElt":8276,"Ġ1945":8277,"6573":8278,"Ġdeeper":8279,"Ġmasters":8280,"Ġnegro":8281,"Ġwedding":8282,"Ġ1903":8283,"Ġjudges":8284,"Ġtick":8285,"ĠKong":8286,"Ġ69":8287,"Ġ86":8288,"Ġuser":8289,"Ġovercome":8290,"Ġmultip":8291,"OH":8292,"Ġinch":8293,"Ġsees":8294,"Ġ1973":8295,"Ġclimb":8296,"Ġblacks":8297,"Ġannoy":8298,"Ã¨":8299,"Ġdiscern":8300,"Ġgenerations":8301,"Ġabsent":8302,"Ġdairy":8303,"raq":8304,"ĠBO":8305,"Ġrude":8306,"916":8307,"Ġopinions":8308,"ĠQUEEN":8309,"mail":8310,"has":8311,"Ġsod":8312,"Ġassumed":8313,"Ġlimit":8314,"Ġcrept":8315,"Ġweakness":8316,"ĠMorocc":8317,"Ġvel":8318,"arling":8319,"Ġmachines":8320,"ĠHal":8321,"ĠWere":8322,"ĠOt":8323,"Ġlocation":8324,"Ġprobable":8325,"ĠComstock":8326,"Ġintellectual":8327,"atched":8328,"stan":8329,"RA":8330,"iem":8331,"rude":8332,"lym":8333,"Ġdivision":8334,"Ġrecognize":8335,"Ġbind":8336,"124":8337,"Ġtraining":8338,"might":8339,"rels":8340,"ĠPre":8341,"ĠEle":8342,"Ġapt":8343,"Ġeating":8344,"ĠWent":8345,"ĠMichel":8346,"omfort":8347,"345":8348,"Ġgor":8349,"iddy":8350,"Ġcorrid":8351,"Ġupstairs":8352,"ensions":8353,"ĠSaid":8354,"ropri":8355,"Ġabsurd":8356,"ĠPakistan":8357,"Ġsust":8358,"ĠInland":8359,"Ġutmost":8360,"ĠStandard":8361,"Ġinward":8362,"alls":8363,"Ġprayers":8364,"Ġmailing":8365,"water":8366,"Ġ1949":8367,"Ġ1972":8368,"Ġtrace":8369,"Ġvir":8370,"Ġchallen":8371,"Ġcommandment":8372,"ĠMassachusetts":8373,"Ġ1974":8374,"Ġpromote":8375,"Ġstandards":8376,"ĠVirginia":8377,"ima":8378,"ulates":8379,"Ġinches":8380,"Ġinsp":8381,"!_":8382,"Econom":8383,"Ġhed":8384,"Ġbrut":8385,"Ġfootst":8386,"ĠBenj":8387,"Ġhunger":8388,"ĠLebanon":8389,"Ġcries":8390,"Ġchur":8391,"234":8392,"Ġagreement":8393,"ĠAccording":8394,"PP":8395,"Ġheels":8396,"145":8397,"Ġbesee":8398,"osal":8399,"Ġobed":8400,"LD":8401,"Ġweep":8402,"Ġalp":8403,"Ġsyn":8404,"Ġdisposed":8405,"Ġcompleted":8406,"rad":8407,"ĠAT":8408,"ĠMean":8409,"945":8410,"150":8411,"Ġknee":8412,"ĠStrait":8413,"Ġ1887":8414,"ĠYugosla":8415,"176":8416,"Ġcarrier":8417,"Ġincome":8418,"bridge":8419,"Ġexceeding":8420,"wan":8421,"chin":8422,"Ġusers":8423,"Ġdistricts":8424,"ĠUniversity":8425,"Ġunfortunate":8426,"Ġbasket":8427,"sect":8428,"ĠGold":8429,"Ġlightning":8430,"Ġanticip":8431,"ka":8432,"Ġpains":8433,"Ġyonder":8434,"ĠWorkers":8435,"Ġ1997":8436,"Ġneat":8437,"force":8438,"rog":8439,"ĠMartin":8440,"Ġwaist":8441,"Ġconstruct":8442,"Ġreduced":8443,"ona":8444,"Ġsenses":8445,"Ġhacker":8446,"Ġshelter":8447,"ĠFAL":8448,"ĠDan":8449,"ĠColomb":8450,"ĠJoshua":8451,"lets":8452,"837":8453,"Ġelders":8454,"809":8455,"ĠFrancisco":8456,"lear":8457,"Ġimpulse":8458,"Ġhaunt":8459,"Ġalter":8460,"ogue":8461,"055":8462,"Ġslip":8463,"Ġconflict":8464,"OK":8465,"Ġstirred":8466,"ĠMoon":8467,"ĠWH":8468,"geance":8469,"Ġtestimony":8470,"Americ":8471,"itating":8472,"Ġflock":8473,"Ġarmies":8474,"Ġlantern":8475,"Ġult":8476,"ĠHence":8477,"Ġ1878":8478,"rud":8479,"173":8480,"ĠTun":8481,"ĠMos":8482,"ĠHa":8483,"ĠBan":8484,"ĠPAR":8485,"Ġvillain":8486,"Ġobvious":8487,"RESS":8488,"vis":8489,"ĠEL":8490,"Ġours":8491,"Ġblessing":8492,"077":8493,"By":8494,"Ġheap":8495,"Ġ1948":8496,"Ġmovements":8497,"Ġclasses":8498,"rade":8499,"aning":8500,"Ġsending":8501,"Ġsighed":8502,"icable":8503,"Ġvul":8504,"ensity":8505,"ĠHy":8506,"Ġcollection":8507,"Ġencoun":8508,"Ġmaintained":8509,"Ġexert":8510,"Ġcloser":8511,"937":8512,"Ġideal":8513,"Ġhitherto":8514,"Ġsear":8515,"iel":8516,"have":8517,"Ġmoreover":8518,"Ġflash":8519,"Ġscr":8520,"675":8521,"Ġpointing":8522,"ĠCarl":8523,"ĠLE":8524,"Ġprinted":8525,"ĠSweden":8526,"rah":8527,"Ġ1971":8528,"Ġ1881":8529,"Ġattent":8530,"Ġannual":8531,"never":8532,"lessness":8533,"Ġcommands":8534,"bel":8535,"911":8536,"Ġplateau":8537,"ĠMargaret":8538,"Ġbade":8539,"Ġjoint":8540,"Ġfarew":8541,"Ġnurse":8542,"ranean":8543,"135":8544,"Gu":8545,"ĠBu":8546,"Ġ1883":8547,"Ġmarks":8548,"ĠJudge":8549,"rive":8550,"gend":8551,"onsense":8552,"053":8553,"ĠLUC":8554,"ĠGilbert":8555,"Ġfolks":8556,"Ġfarewell":8557,"even":8558,"Ġdece":8559,"Ġappar":8560,"Ġinvisible":8561,"Ġdirections":8562,"Ġangels":8563,"Total":8564,"Ġprec":8565,"Ġrules":8566,"654":8567,"Ġexpense":8568,"Ġamongst":8569,"Ġguests":8570,"Ġbol":8571,"Ġshone":8572,"cipl":8573,"ĠAz":8574,"Ġmankind":8575,"Ġprejud":8576,"643":8577,"Ġstarting":8578,"Ġ1888":8579,"angs":8580,"ooperation":8581,"Ġfount":8582,"Ġexpedition":8583,"Ġliquid":8584,"9432":8585,"vity":8586,"ĠInter":8587,"Ġinternal":8588,"927":8589,"ĠUncle":8590,"ELL":8591,"Ġquantity":8592,"Ġretired":8593,"Ġprophes":8594,"Ġproperly":8595,"range":8596,"900":8597,"Ġdesperate":8598,"Ġphrase":8599,"Ġ1962":8600,"Ġbay":8601,"Ġleather":8602,"aph":8603,"Ġmaybe":8604,"Ġturns":8605,"Ġeleg":8606,"ĠNEGL":8607,"inia":8608,"Ġdistinctly":8609,"arl":8610,"ĠFort":8611,"Ġadvers":8612,"Ġsubstant":8613,"rol":8614,"Ġ1877":8615,"Ġdisg":8616,"Ġgazing":8617,"Ġprojectile":8618,"Ġpages":8619,"uter":8620,"Ġabomin":8621,"itect":8622,"ĠKnow":8623,")/":8624,"Cl":8625,"mat":8626,"Ġsheet":8627,"Ġcir":8628,"urday":8629,"uma":8630,"Ġestate":8631,"ĠDavy":8632,"833":8633,"Ġbrid":8634,"Ġpink":8635,"yes":8636,"924":8637,"Ġsupported":8638,"regular":8639,"Or":8640,"mailing":8641,"ida":8642,"ĠEph":8643,"apore":8644,"ĠYemen":8645,"647":8646,"Ġcaptivity":8647,"ĠHistory":8648,"Ġpowder":8649,"vak":8650,"Ġmeal":8651,"Ġconfined":8652,"Ġincred":8653,"Ġmethods":8654,"Ġtravell":8655,"Ġfame":8656,"Ġinformed":8657,"Ġate":8658,"ĠPage":8659,"Ġvolunt":8660,"ĠIran":8661,"Ġunlike":8662,"faced":8663,"Ġdivers":8664,"194":8665,"Ġunjust":8666,"Ġperformance":8667,"arm":8668,"ulating":8669,"923":8670,"Ġpossibility":8671,"ĠAv":8672,"ĠIndians":8673,"Ġspecific":8674,"Ġessential":8675,"ĠDUKE":8676,"down":8677,"Ġswung":8678,"STAFF":8679,"uish":8680,"ĠMel":8681,"Ġattach":8682,"Ġsorts":8683,"Ġpine":8684,"iguous":8685,"Ġclub":8686,"934":8687,"ĠRepresentatives":8688,"Than":8689,"Ġowing":8690,"Ġmedical":8691,"Ġsensible":8692,"Ġwandered":8693,"itudes":8694,"Ġfasc":8695,"Ġreform":8696,"Ġblows":8697,"Ġtrunk":8698,"Ġcritic":8699,"seen":8700,"Ġ1879":8701,"Ġdisgra":8702,"ĠFe":8703,"percent":8704,"Ġbegged":8705,"Ġeasier":8706,"Ġfleet":8707,"OV":8708,"ĠService":8709,"male":8710,"Ġdus":8711,"Ġlists":8712,"ĠHEN":8713,"Ġmanaged":8714,"OP":8715,"Ġsang":8716,"Ġ1886":8717,"Ġ1882":8718,"Ġjumped":8719,"Ġirrigated":8720,"ĠOrganized":8721,"ĠED":8722,"Ġanat":8723,"Ġ1968":8724,"Ġlend":8725,"Ġsport":8726,"Ġwhatsoever":8727,"Ġhatred":8728,"ĠAlgeria":8729,"ĠFALSTAFF":8730,"Look":8731,"Ġlun":8732,"Ġreject":8733,"ĠLie":8734,"Ġperple":8735,"Ġhandle":8736,"Ġguns":8737,"Ġhorizon":8738,"________":8739,"Ġdrank":8740,"Ġnotion":8741,"withstanding":8742,"Ġpursuit":8743,"Ġflatter":8744,"896":8745,"166":8746,"Ġemot":8747,"ĠMiriam":8748,"verty":8749,"ulp":8750,"Ġeverlast":8751,"Ġguest":8752,"ĠBla":8753,"Ġsworn":8754,"ĠPoland":8755,"Ġshepherd":8756,"Ġ1998":8757,"enses":8758,"Ġdistinction":8759,"Ġsixty":8760,"ancial":8761,"allel":8762,"Ġ1977":8763,"Ġwriter":8764,"Ġincor":8765,"Ġdriving":8766,"ĠLittle":8767,"ribly":8768,"ĠChancery":8769,"ĠLo":8770,"Ġ1907":8771,"ĠSE":8772,"ĠBelleg":8773,"itz":8774,"ĠHAM":8775,"Ġrainy":8776,"Ġstretch":8777,"leg":8778,"Ġpaying":8779,"Inde":8780,"Ġinterpret":8781,"Ġdoctrine":8782,"Ġnest":8783,"ĠCabinet":8784,"Ġwept":8785,"ĠNations":8786,"unction":8787,"Ġpoverty":8788,"Ġreasonable":8789,"frae":8790,"Ġfacult":8791,"Ġgenerous":8792,"Ġinsisted":8793,"Ġtables":8794,"Ġoh":8795,"187":8796,"Ġ+":8797,"Ġinform":8798,"ĠFree":8799,"Ġ1958":8800,"iend":8801,"887":8802,"Ġtun":8803,"ĠHaw":8804,"ĠEr":8805,"uba":8806,"Ġremainder":8807,"Ġdwelling":8808,"uda":8809,"Ġexception":8810,"Ġinquiry":8811,"aan":8812,"ĠTim":8813,"ĠPont":8814,"Ġquarrel":8815,"See":8816,"Ġvanity":8817,"Ġsteadily":8818,"FA":8819,"aria":8820,"Ġwhip":8821,"Ġprize":8822,"ĠProgress":8823,"Ġ08":8824,"Ġclergy":8825,"Ġgrin":8826,"185":8827,"ĠCongo":8828,"Ġpollution":8829,"Ġdumb":8830,"Ġorganization":8831,"Ġ847":8832,"ĠShould":8833,"ĠPierre":8834,"ĠBenjamin":8835,"Ġopt":8836,"ĠESC":8837,"ĠAssociation":8838,"Ġwashed":8839,"Ġelements":8840,"Ġwidely":8841,"Ġfrightful":8842,"ĠJavert":8843,"Ġjump":8844,"Ġdaylight":8845,"ĠWhose":8846,"Ġsilently":8847,"Ġengagement":8848,"embourg":8849,"Ġconsol":8850,"Ġextrem":8851,"Ġhousing":8852,"ĠPhilipp":8853,"Ġrespond":8854,"ĠWeston":8855,"vo":8856,"ĠHester":8857,"Ġexternal":8858,"ubb":8859,"Ġangle":8860,"Ġconceal":8861,"Ġinferior":8862,"Ġpool":8863,"Ġdisgu":8864,"Ġfeature":8865,"Ġmissed":8866,"ĠFarfrae":8867,"Ġzeal":8868,"Ġreported":8869,"Ġstartled":8870,"Ġrespectable":8871,"054":8872,"Ġdoorway":8873,"Ġriches":8874,"Ġdisease":8875,"Ġthres":8876,"ulations":8877,"odes":8878,"049":8879,"Ġexposed":8880,"Ġdatab":8881,"ĠCastle":8882,"boy":8883,"isk":8884,"Ġdial":8885,"656":8886,"shine":8887,"Ġreaching":8888,"SA":8889,"bell":8890,"hites":8891,"Ġ----":8892,"enous":8893,"Ġ1946":8894,"Ġinteg":8895,"Ġfailure":8896,"Ġroughly":8897,"Ġcabinet":8898,"ĠSaudi":8899,"Ġdismiss":8900,"ĠGal":8901,"earl":8902,"Ġreference":8903,"pring":8904,"des":8905,"Ġfed":8906,"Ġcompared":8907,"Ġartist":8908,"Ġhumanity":8909,"Ġexisted":8910,"Ġpitch":8911,"Elect":8912,"ĠCould":8913,"ĠHep":8914,"Ġeste":8915,"Ġincreasing":8916,"Ġventure":8917,"Ġcelebrated":8918,"Ġcoward":8919,"Ġfib":8920,"Ġgown":8921,"Ġvon":8922,"Ġapes":8923,"ĠTurkish":8924,"Ġcubits":8925,"rived":8926,"THE":8927,"Ġvoyage":8928,"vet":8929,"Ġcounty":8930,"Ġmetals":8931,"Ġstudent":8932,"habited":8933,"Ġwoo":8934,"Ġped":8935,"Ġ1947":8936,"osion":8937,"836":8938,"Ġformal":8939,"ĠGentiles":8940,"Ġsway":8941,"Ġcrop":8942,"areth":8943,"Ġpermit":8944,"Ġtorment":8945,"kerchief":8946,"Con":8947,"Ġeagerly":8948,"ige":8949,"ĠIraq":8950,"Ġbeach":8951,"mananda":8952,"ĠArm":8953,"Ġbug":8954,"Ġlightly":8955,"Ġexecution":8956,"Ġsilly":8957,"ĠPle":8958,"anta":8959,"Ġhut":8960,"Ġhastened":8961,"Ġschools":8962,"foot":8963,"vernor":8964,"headed":8965,"ĠPRIN":8966,"Ġcared":8967,"Ġheir":8968,"052":8969,"Ġdoubtless":8970,"Ġgla":8971,"ado":8972,"ĠHong":8973,"erto":8974,"ĠPeru":8975,"Ġpreviously":8976,"bu":8977,"Ġ1876":8978,"Ġagony":8979,"Ġcontinent":8980,"Ġprimary":8981,"Ġpronounced":8982,"ĠWentworth":8983,"ieth":8984,"agle":8985,"ĠUnt":8986,"Ġboards":8987,"Ġobjection":8988,"Ġoperations":8989,"Ġbasis":8990,"phant":8991,"tw":8992,"idel":8993,"ĠLamb":8994,"Ġ1966":8995,"Ġstor":8996,"ĠPap":8997,"ĠSever":8998,"ĠHeb":8999,"ĠAthens":9000,"660":9001,"Ġseconds":9002,"ĠHarry":9003,"Ġconstitutional":9004,"iber":9005,"Ġdur":9006,"Ġstated":9007,"Ġ1964":9008,"127":9009,"Ġglow":9010,"Ġfalls":9011,"Ġriding":9012,"One":9013,"Ġfunction":9014,"zo":9015,"ĠChe":9016,"ĠPipelines":9017,"ĠOx":9018,"Ġbush":9019,"Ġbedroom":9020,"Ġdetail":9021,"Ġencourage":9022,"ĠSaturday":9023,"897":9024,"Ġpreserv":9025,"Ġdefence":9026,"Ġmuttered":9027,"Ġgloomy":9028,"haz":9029,"ĠLuc":9030,"Ġ1963":9031,"066":9032,"Ġbushes":9033,"Ġadministered":9034,"Ġdisagree":9035,"ni":9036,"station":9037,"Ġstom":9038,"Ġdelic":9039,"ĠCommon":9040,"Ġsafely":9041,"Ġacknowled":9042,"--âĢĿ":9043,"Ġprecisely":9044,"ja":9045,"ĠCelia":9046,"ĠNich":9047,"ĠViet":9048,"ĠChristine":9049,"shall":9050,"gia":9051,"Ġbi":9052,"str":9053,"Ġalc":9054,"Ġcivilization":9055,"Defense":9056,"Ġdisappointment":9057,"ession":9058,"ĠJan":9059,"Ġtelegra":9060,"Ġhospital":9061,"Ġbride":9062,"Ġgenu":9063,"fied":9064,"Ġbapt":9065,"936":9066,"Ġsmart":9067,"ĠKorak":9068,"Ġfirmly":9069,"cu":9070,"acing":9071,"Ġfinish":9072,"ademy":9073,"clamation":9074,"Ġwool":9075,"ĠGhost":9076,"Ġtemp":9077,"ĠMeriem":9078,"Ġtimid":9079,"Ġbeseech":9080,"fa":9081,"going":9082,"ĠANTON":9083,"Ġrecall":9084,"zech":9085,"Ġapprehens":9086,"Ġsne":9087,"ĠBless":9088,"970":9089,"ĠAtmananda":9090,"Ġinvol":9091,"ĠAbd":9092,"osphat":9093,"Ġsuggestion":9094,"Ġdeemed":9095,"Ġintervals":9096,"Ġmischief":9097,"Ġbreadth":9098,"Ġgratitude":9099,"zibah":9100,"155":9101,"Ġcorners":9102,"bbing":9103,"Ġtechnical":9104,"LES":9105,"nde":9106,"948":9107,"Ġremove":9108,"obright":9109,"comp":9110,"193":9111,"Ġtons":9112,"Ġfence":9113,"Ġtomb":9114,"Ġpile":9115,"Ġstout":9116,"Ġ1965":9117,"109":9118,"Ġdilig":9119,"whe":9120,"ourge":9121,"ĠNem":9122,"Ġ1908":9123,"ĠHeav":9124,"Ġmagic":9125,"uerto":9126,"Ġembassy":9127,"ieu":9128,"Ġability":9129,"ĠCarth":9130,"maid":9131,"Ġsuspected":9132,"Ġecho":9133,"ĠVictor":9134,"Ġgifts":9135,"ĠGroup":9136,"235":9137,"ĠYeobright":9138,"natural":9139,"NET":9140,"lest":9141,"Ġchick":9142,"Ġspecul":9143,"257":9144,"Ġeverlasting":9145,"Ġ1961":9146,"ĠRE":9147,"ialect":9148,"908":9149,"Ġruler":9150,"Ġsupreme":9151,"quisite":9152,"two":9153,"erm":9154,"Ġpian":9155,"forth":9156,"Ġfoodstuffs":9157,"Ġprotest":9158,"Ġknocked":9159,"Ġcollected":9160,"Ġexperienced":9161,"Ġpersuaded":9162,"Ġbark":9163,"Ġpound":9164,"ĠGren":9165,"Ġworsh":9166,"Ġexamination":9167,"Ġorn":9168,"nex":9169,"Ġprovides":9170,"ĠMalaysia":9171,"Ġpasses":9172,"LY":9173,"Ġtel":9174,"Ġexerc":9175,"ĠGrace":9176,"Ġchap":9177,"Ġadditional":9178,"Ġbenefit":9179,"kins":9180,"Ġenqu":9181,"Ġcheap":9182,"Ġrisen":9183,"Ġinvited":9184,"Ġplatform":9185,"arded":9186,"Ġattracted":9187,"Ġacting":9188,"1979":9189,"Ġdisturbed":9190,"Ġgriev":9191,"iated":9192,"ĠBalt":9193,"ords":9194,"847":9195,"glass":9196,"Ġsanctuary":9197,"Ġbears":9198,"Ġgrasp":9199,"134":9200,"Ġruns":9201,"Ġsunshine":9202,"rates":9203,"Ġsources":9204,"edy":9205,"632":9206,"Ġjudicial":9207,"ĠSingapore":9208,"Ġfabric":9209,"ĠBellegarde":9210,"Ġswim":9211,"Ġliterary":9212,"Ġpreferred":9213,"ĠValentin":9214,"ĠHENRY":9215,"Ġ2009":9216,"Ġprayed":9217,"Ġmotionless":9218,"eff":9219,"ĠIT":9220,"ĠHath":9221,"Ġpreserve":9222,"Ġdenied":9223,"HOL":9224,"Ġbust":9225,"645":9226,"Ġarchitect":9227,"Ġcompassion":9228,"Ġ1959":9229,"774":9230,"ĠTob":9231,"Ġforestry":9232,"Ġtreatment":9233,"lee":9234,"Ġshr":9235,"Ġperformed":9236,"Ġmarvel":9237,"bye":9238,"Ġestablishment":9239,"114":9240,"ĠStar":9241,"Ġconfident":9242,"ĠArch":9243,"Ġnumbered":9244,"Ġ1920":9245,"artment":9246,"ensus":9247,"Ġwithal":9248,"Ġhind":9249,"ĠACT":9250,"Ġexpand":9251,"hile":9252,"Ġlic":9253,"ĠCre":9254,"ĠIndonesia":9255,"Ġsharply":9256,"ingham":9257,"ĠCart":9258,"Ġ1950":9259,"ĠMarie":9260,"Ġsubur":9261,"ĠAlban":9262,"Ġthrowing":9263,"irds":9264,"Ġlaying":9265,"Ġtrip":9266,"ĠJeh":9267,"Ġlinks":9268,"DER":9269,"Never":9270,"ĠMess":9271,"Ġacted":9272,"Ġprofessor":9273,"cel":9274,"Ġprud":9275,"Ġdeadly":9276,"ĠPeace":9277,"Ġdisappointed":9278,"lem":9279,"Ġoffices":9280,"ĠHind":9281,"thy":9282,"Ġbackward":9283,"Ġvengeance":9284,"aying":9285,"ĠLad":9286,"Ġsober":9287,"ĠEN":9288,"ĠDutch":9289,"ivian":9290,"Ġjest":9291,"Ġremembrance":9292,"PAN":9293,"upp":9294,"642":9295,"Ġbanks":9296,"Ġseventy":9297,"ĠHepzibah":9298,"Ġindicated":9299,"Ġplague":9300,"Ġbury":9301,"itors":9302,"Ġmast":9303,"Ġash":9304,"ĠWha":9305,"126":9306,"Ġcounted":9307,"Ġprevented":9308,"rÃ©":9309,"Ġmanufacture":9310,"ĠWilson":9311,"Ġanchor":9312,"Ġstomach":9313,"cut":9314,"Ġroar":9315,"Ġuniversity":9316,"icy":9317,"Ġpersec":9318,"Ġparliament":9319,"oiselle":9320,"ĠISO":9321,"bes":9322,"ills":9323,"Ġscore":9324,"Ġindependence":9325,"SE":9326,"bbed":9327,"mar":9328,"Ġrecip":9329,"Ġabide":9330,"ĠExclusive":9331,"Ġcaptive":9332,"ĠCarthoris":9333,"386":9334,"ĠEv":9335,"ĠRight":9336,"Ġcenturies":9337,"Ġingen":9338,"LET":9339,"Ġstring":9340,"Ġsuspended":9341,"TR":9342,"ĠCamp":9343,"ĠChile":9344,"Ġfant":9345,"irmed":9346,"urrection":9347,"884":9348,"Ġswords":9349,"elope":9350,"Ġdocuments":9351,"Ġcurtain":9352,"Ġuses":9353,"Ġpert":9354,"Ġwages":9355,"Ġphen":9356,"Ġ1969":9357,"Ġcanst":9358,"uously":9359,"Ġtranqu":9360,"Ġoutward":9361,"Ġ843":9362,"Ġplantation":9363,"Ġcement":9364,"Ġflu":9365,"Ġsteal":9366,"Ġmaiden":9367,"Ġ1999":9368,"272":9369,"Ġempire":9370,"rer":9371,"ĠMah":9372,"ersed":9373,"Ġkneel":9374,"Ġbrute":9375,"Ġslightest":9376,"ĠSpeak":9377,"Ġunusual":9378,"Ã¦":9379,"Ġdisple":9380,"Ġholds":9381,"white":9382,"Ġstrengthen":9383,"guer":9384,"pert":9385,"Ġharsh":9386,"Ġrecalled":9387,"Ġresponsible":9388,"Ġbeating":9389,"Ġ1957":9390,"Ġmanage":9391,"ivities":9392,"uese":9393,"Ġ20008":9394,"Ġclam":9395,"Ġforming":9396,"ĠMake":9397,"oping":9398,"ĠOz":9399,"Ġchimney":9400,"pic":9401,"ĠThor":9402,"Ġload":9403,"enez":9404,"Ġsignal":9405,"ĠMoab":9406,"?âĢĻ":9407,"oral":9408,"Ġuniform":9409,"ĠJustice":9410,"Ġbreeze":9411,"Ġexquisite":9412,"Ġgenuine":9413,"$)":9414,"oting":9415,"ques":9416,"ĠDam":9417,"Ġ1944":9418,"Ġboots":9419,"Ġsubsistence":9420,"ĠLiberal":9421,"Ġindigenous":9422,"ĠHud":9423,"Ġelev":9424,"Ġphysician":9425,"Ġbewild":9426,"Ġpreparation":9427,"Ġdisk":9428,"Ġhiding":9429,"ĠSudan":9430,"ĠOPEC":9431,"Ġresearch":9432,"Ġhabits":9433,"your":9434,"Ġmate":9435,"ĠAmb":9436,"ĠBert":9437,"ĠOcc":9438,"ĠTan":9439,"Ġrela":9440,"ĠBurg":9441,"ĠWes":9442,"Ġvap":9443,"Ġ300":9444,"Ġjack":9445,"Ġoverw":9446,"Ġdesires":9447,"775":9448,"997":9449,"Ġaccordingly":9450,"inger":9451,"947":9452,"Ġstrain":9453,"Ġstroke":9454,"pled":9455,"why":9456,"157":9457,"Ġrecently":9458,"Ġconj":9459,"ĠROS":9460,"Ġindef":9461,"ĠArgentina":9462,"Will":9463,"Ġbeings":9464,"ĠLab":9465,"Ġappet":9466,"oult":9467,"thur":9468,"Ġinstit":9469,"coat":9470,"Ill":9471,"ĠEnd":9472,"Ġoffence":9473,"ĠArchie":9474,"Ġcharacteristic":9475,"Ġswiftly":9476,"Ġdialect":9477,"raim":9478,"Ġslaught":9479,"Ġlimits":9480,"Ġautomatic":9481,"yr":9482,"ĠBishop":9483,"keeper":9484,"ĠBeth":9485,"ĠZones":9486,"Ġtrembled":9487,"ĠDisputes":9488,"652":9489,"Ġsituated":9490,"EW":9491,"ĠSab":9492,"Ġclimate":9493,"AST":9494,"doll":9495,"hered":9496,"ĠMond":9497,"ĠBilly":9498,"aging":9499,"Ġinterview":9500,"Ġfinancial":9501,"Ġoccasions":9502,"Ġnavigable":9503,"Bec":9504,"Ġashes":9505,"Ġassembly":9506,"Ġjoke":9507,"920":9508,"Ġlandlocked":9509,"Ġwandering":9510,"ĠAlexandra":9511,"Ġloyal":9512,"973":9513,"ĠDorothy":9514,"Ġmineral":9515,"ĠICFTU":9516,"Ġresistance":9517,"ĠJonathan":9518,"Ġhandkerchief":9519,"ĠDorian":9520,"Ġgrateful":9521,"uwait":9522,"ĠPyn":9523,"247":9524,"ĠChamber":9525,"Ġstuck":9526,"ĠMist":9527,"Ġdew":9528,"Ġbegins":9529,"ĠUNIX":9530,"Ġmanufactured":9531,"Ġweapon":9532,"Ġfolded":9533,"ĠRaoul":9534,"eries":9535,"ĠCOM":9536,"Ġ1918":9537,"Ġshirt":9538,"Ġpolite":9539,"Ġspecim":9540,"Ġabsorbed":9541,"orus":9542,"Ġfinds":9543,"Ġarrangement":9544,"Ġtap":9545,"Ġperf":9546,"ĠVice":9547,"borg":9548,"Ġcomprehend":9549,"ĠEve":9550,"acon":9551,"ĠConst":9552,"ĠMeanwhile":9553,"uated":9554,"Ġcere":9555,"uela":9556,"proved":9557,"isha":9558,"ĠHast":9559,"133":9560,"Ġbelonging":9561,"Ġculture":9562,"Ġexhausted":9563,"ĠMorocco":9564,"Because":9565,"Ġ1919":9566,"ospel":9567,"ilight":9568,"ĠDO":9569,"izes":9570,"182":9571,"Ġfrown":9572,"Ġcommonly":9573,"Ġstolen":9574,"ĠSultan":9575,"ĠHuck":9576,"resident":9577,"Ġvivid":9578,"Ġabol":9579,"oths":9580,"256":9581,"Ġcleared":9582,"Ġauthorities":9583,"Ġstatement":9584,"Ġinev":9585,"Ġrival":9586,"ONE":9587,"Ġlofty":9588,"Ġ1954":9589,"âĢĶâĢĶ":9590,"akened":9591,"Ġfarming":9592,"ATH":9593,"Ġparallel":9594,"Ġqualities":9595,"AE":9596,"Ġdaz":9597,"Ġvary":9598,"Ġnois":9599,"ĠAlbert":9600,"Ġcharity":9601,"Ġlimbs":9602,"Ġeggs":9603,"God":9604,"ĠAsian":9605,"174":9606,"ĠGrant":9607,"Ġregister":9608,"Ġanguish":9609,"ĠInstead":9610,"Ġornament":9611,"ĠBal":9612,"Ġbrook":9613,"Ġ1870":9614,"..............................":9615,"Ġcontrad":9616,"Ġaccompany":9617,"Ġabandoned":9618,"Ġrot":9619,"195":9620,"Ġentit":9621,"ĠTal":9622,"075":9623,"Ġhorrid":9624,"Ġlur":9625,"Ġ1956":9626,"Ġrod":9627,"Ġgrounds":9628,"Ġlocated":9629,"Ġowe":9630,"ĠSel":9631,"154":9632,"ĠSusan":9633,"Ġfog":9634,"636":9635,"Ġbloom":9636,"rowave":9637,"Ġtread":9638,"Ġvertical":9639,"Ġobscure":9640,"SO":9641,"ĠMas":9642,"Ġoverth":9643,"874":9644,"Ġrefined":9645,"Ġcorrupt":9646,"Ġoriginally":9647,"Ġhearken":9648,"itious":9649,"encies":9650,"Ġrece":9651,"Ġspell":9652,"253":9653,"Ġchairs":9654,"Ġfifth":9655,"oge":9656,"ties":9657,"Ġlamb":9658,"Ġkid":9659,"831":9660,"Ġfarmer":9661,"Ġsummers":9662,"Ġleisure":9663,"irts":9664,"ĠSaw":9665,"153":9666,"Ġdecide":9667,"Ġinsist":9668,"ĠLux":9669,"Ġbeaten":9670,"Ġpir":9671,"athed":9672,"ĠBrand":9673,"did":9674,"Ġ1951":9675,"Ġguilt":9676,"ĠKingdom":9677,"Ġacquired":9678,"ivering":9679,"Ġfulfilled":9680,"wind":9681,"Ġmam":9682,"Ġweeping":9683,"Ġ1937":9684,"2845":9685,"Aside":9686,"Ġwearing":9687,"Ġunited":9688,"Ġreserved":9689,"Ġswamp":9690,"Ġanswering":9691,"808":9692,"Ġelephant":9693,"Ġautumn":9694,"ipt":9695,"ĠÃ":9696,"ĠRiver":9697,"Ġchains":9698,"184":9699,"Ġsket":9700,"bler":9701,"ĠValley":9702,"Ġconsidering":9703,"Ġsabb":9704,"abled":9705,"ekiah":9706,"Ġmerit":9707,"Ġbananas":9708,"Ġseventh":9709,"Ġsale":9710,"Ġ1921":9711,"cked":9712,"Ġadequ":9713,"183":9714,"674":9715,"ĠMajesty":9716,"Ġgesture":9717,"ĠCzech":9718,"Ġ1940":9719,"ĠRh":9720,"ĠHear":9721,"Ġcursed":9722,"partout":9723,"Ġinstructions":9724,"olph":9725,"192":9726,"Ġworkers":9727,"Ġcarpet":9728,"Ġ2001":9729,"ĠEp":9730,"ĠDu":9731,"osity":9732,"ears":9733,"946":9734,"273":9735,"ĠTemple":9736,"Long":9737,"Ġsink":9738,"Ġ1955":9739,"Ġ1930":9740,"Ġarrows":9741,"Ġfastened":9742,"Ġplunged":9743,"ga":9744,"Ġpref":9745,"Ġeveryone":9746,"Ġindividuals":9747,"Ġhalted":9748,"AK":9749,"Ġ1910":9750,"inkled":9751,"gging":9752,"assepartout":9753,"Ġecc":9754,"Ġrugged":9755,"ĠOED":9756,"Ġ81":9757,"Ġcommenced":9758,"Ġpotential":9759,"ĠGen":9760,"Ġpractically":9761,"Ġwinters":9762,"Ġtemperate":9763,"Ġmun":9764,"âĢĿâĢĶ":9765,"Ġ1953":9766,"777":9767,"Ġactions":9768,"Ġlively":9769,"Ġfacilities":9770,"ĠPortuguese":9771,"Ġselect":9772,"Ġ1912":9773,"Ġroots":9774,"ĠBeing":9775,"ATION":9776,"ĠHudson":9777,"aign":9778,"Ġkindred":9779,"ĠPray":9780,"Ġmotive":9781,"ĠEthiopia":9782,"pointed":9783,"ĠHorn":9784,"Ġseal":9785,"Ġcutting":9786,"Ġcrowded":9787,"ĠLiberation":9788,"Ġambition":9789,"eman":9790,"873":9791,"Ġjudgments":9792,"Ġearnestly":9793,"Ġdegr":9794,"ĠGra":9795,"ĠNed":9796,"Ġadministrative":9797,"128":9798,"062":9799,"Ġdepends":9800,"Ġassembled":9801,"pan":9802,"Ġaccent":9803,"Ġcaut":9804,"Ġdent":9805,"Ġreceiving":9806,"136":9807,"guerite":9808,"Ġdun":9809,"Ġdamp":9810,"Ġmaritime":9811,"ĠAlas":9812,"Ġhappens":9813,"Ġresting":9814,"Ġmonstrous":9815,"folk":9816,"oil":9817,"ĠDim":9818,"cca":9819,"Ġboats":9820,"ĠGovernor":9821,"order":9822,"Ġcandid":9823,"hers":9824,"quar":9825,"229":9826,"ĠZion":9827,"Ġarmour":9828,"Ġphosphat":9829,"Ġromantic":9830,"ĠVenice":9831,"ĠEphraim":9832,"riots":9833,"638":9834,"cr":9835,"iations":9836,"Ġpled":9837,"Ġmedicine":9838,"Ġ1926":9839,"Ġsadly":9840,"aniel":9841,"Ġreferred":9842,"ĠContinental":9843,"ĠElton":9844,"atorial":9845,"IPUS":9846,"Ġmillions":9847,"Ġdishon":9848,"ĠOEDIPUS":9849,"ĠAlf":9850,"Ġarts":9851,"ĠArthur":9852,"iate":9853,"Ġdressing":9854,"ĠEmil":9855,"Ġconcealed":9856,"Ġpredomin":9857,"Ġwithdraw":9858,"PS":9859,"Ġtools":9860,"ĠDE":9861,"Ġblast":9862,"ascar":9863,"Ġteaching":9864,"Ġcareer":9865,"Ġgovernments":9866,"Ġtones":9867,"ĠHim":9868,"Ġtransm":9869,"said":9870,"Ġasc":9871,"0148":9872,"Ġspeaks":9873,"Ġcolors":9874,"inated":9875,"ĠSurely":9876,"Ġ1929":9877,"blance":9878,"255":9879,"versed":9880,"Ġmulti":9881,"Ġconvention":9882,"Ġfaults":9883,"ĠHIS":9884,"ĠPassepartout":9885,"antine":9886,"Ġ1942":9887,"Ġ1932":9888,"ĠAssy":9889,"Ġbeds":9890,"Ġpoetry":9891,"ĠTurn":9892,"Ġ1917":9893,"Ġwax":9894,"Ġcustomary":9895,"Ġchurches":9896,"iph":9897,"Ġselected":9898,"iforn":9899,"Ġentry":9900,"Ġfir":9901,"266":9902,"Ġhumid":9903,"Ġprofessional":9904,"ĠKnightley":9905,"Ġtraditional":9906,"ĠBrooke":9907,"Ġgross":9908,"Ġmodel":9909,"Ġindifference":9910,"Ġwhosoever":9911,"Ġrud":9912,"Ġ1909":9913,"Ġedition":9914,"ĠSalv":9915,"cane":9916,"rary":9917,"actory":9918,"Ġcreate":9919,"Ġnetworks":9920,"Ġroses":9921,"ilding":9922,"text":9923,"834":9924,"975":9925,"mother":9926,"Ġded":9927,"ader":9928,"170":9929,"076":9930,"Ġbarric":9931,"Ġapplication":9932,"ĠDuncan":9933,"riger":9934,"Ġweigh":9935,"ighted":9936,"Ġ1911":9937,"Ġkeeps":9938,"Ġbreathing":9939,"ĠSeveral":9940,"ĠVietnam":9941,"sla":9942,"Ġmargin":9943,"Ġharvest":9944,"ĠRebe":9945,"Ġnecessarily":9946,"Ġcondemned":9947,"istics":9948,"196":9949,"GER":9950,"ete":9951,"Ġquit":9952,"922":9953,"ĠSoon":9954,"Ġrubber":9955,"Ġdeceived":9956,"akh":9957,"Ġformid":9958,"ĠPhÅĵ":9959,"eyed":9960,"Ġaltered":9961,"Ġsuperst":9962,"ĠWinter":9963,"ĠJoe":9964,"Ġanyway":9965,"Ġtwilight":9966,"Ġsincere":9967,"Pe":9968,"Ġwhirl":9969,"Ġ1935":9970,"shore":9971,"ĠGuy":9972,"Ġ1933":9973,"Ġvic":9974,"ĠMarguerite":9975,"Ġhumor":9976,"Ġtrifle":9977,"ĠChall":9978,"Ġerrand":9979,"Ġglimpse":9980,"Perhaps":9981,"Ġdrag":9982,"Ġtrusted":9983,"Ġcombat":9984,"worthy":9985,"Ġcovering":9986,"aza":9987,"Ġpurchasing":9988,"ĠWildeve":9989,"hew":9990,"Ġshewed":9991,"Ġchapter":9992,"ĠVII":9993,"Ġawhile":9994,"Ġveil":9995,"adian":9996,"844":9997,"ĠNext":9998,"ithe":9999,"Ġfow":10000,"outheast":10001,"Ġagent":10002,"186":10003,"Ġconsumed":10004,"Ġbarbar":10005,"Ġtenderness":10006,"Ġrulers":10007,"Ġsabbath":10008,"Ġexists":10009,"Ġ1922":10010,"236":10011,"ĠLuxembourg":10012,"onym":10013,"ĠFinally":10014,"Ġenterprise":10015,"ĠScotland":10016,"ĠBah":10017,"Ġclearing":10018,"Ġantiqu":10019,"Ġvehicle":10020,"wall":10021,"ĠSqu":10022,"122":10023,"Ġprovision":10024,"MAR":10025,"Ġisol":10026,"855":10027,"974":10028,"prus":10029,"pass":10030,"edd":10031,"Ġ1915":10032,"Ġ1923":10033,"Ġ1934":10034,"Ġlegend":10035,"Ġ1916":10036,"Ġaught":10037,"ĠTai":10038,"ĠDiamond":10039,"Ġarray":10040,"ocol":10041,"Ġassume":10042,"ĠSystem":10043,"Ġbeer":10044,"ĠFa":10045,"quest":10046,"Ġ1928":10047,"Ġ1939":10048,"Ġ1938":10049,"resses":10050,"ĠTunis":10051,"ser":10052,"Ġrevel":10053,"Ġrecords":10054,"Ġske":10055,"sus":10056,"Ġhook":10057,"Ġ1914":10058,"Ġtreaty":10059,"Ge":10060,"nat":10061,"Ġaven":10062,"Ġhonourable":10063,"Ġsulph":10064,"tery":10065,"Ġremo":10066,"Ġuncomfort":10067,"emoiselle":10068,"Ġ1924":10069,"Ġ1927":10070,"Ġ1941":10071,"Ag":10072,"lers":10073,"Ġdense":10074,"ĠNi":10075,"ĠHell":10076,"933":10077,"854":10078,"Ġappropri":10079,"Ġrealize":10080,"Ġcombined":10081,"ĠJewish":10082,"Ġmutual":10083,"Ġvolcanic":10084,"Thank":10085,"ĠBang":10086,"Ġprolong":10087,"holder":10088,"Ġmeasured":10089,"ĠBulgar":10090,"ĠSalvador":10091,",'":10092,"TA":10093,"Ġcables":10094,"Ġ1943":10095,"Ġillicit":10096,"ĠCanaan":10097,"Ġdisgrace":10098,"Ġalcoh":10099,"222":10100,"Ġsearching":10101,"Ġsou":10102,"Ġliken":10103,"051":10104,"Ġsets":10105,"Ġsecured":10106,"Ġearthqu":10107,"pul":10108,"ĠSimon":10109,"throp":10110,"Ġ1925":10111,"Ġ1931":10112,"iven":10113,"Ġunple":10114,"Ġprem":10115,"Ġimports":10116,"Ġcurrency":10117,"Ġtriump":10118,"Ġclothed":10119,"Ġmessages":10120,"Ġremarks":10121,"Ġmoonlight":10122,"erre":10123,"Ġtore":10124,"ouses":10125,"Ġopposed":10126,"Ġsatisfy":10127,"ongol":10128,"ĠXXX":10129,"Ġmant":10130,"Ġ1913":10131,"onga":10132,"Ġcann":10133,"Ġresent":10134,"Ġmajesty":10135,"Ġenjoyment":10136,"ĠPrincess":10137,"Ġ**":10138,"Ġtide":10139,"Ġwounds":10140,"Ġstag":10141,"ĠBru":10142,"Ġtrap":10143,"Ġillust":10144,"Ġnegot":10145,"ĠWater":10146,"Ġresidence":10147,"Ġsensitive":10148,"Ġwitnesses":10149,"Ġpuzzled":10150,"pen":10151,"lla":10152,"Ġstole":10153,"ĠDis":10154,"Ġexamine":10155,"Ġbreathe":10156,"ĠNephites":10157,"Ġcontainer":10158,"Ġcorridor":10159,"enezuela":10160,"Ġvest":10161,"igible":10162,"Ġinstruction":10163,"Ġvisitor":10164,"ĠCamer":10165,"275":10166,"ĠFinland":10167,"Ġtorture":10168,"Ġsaints":10169,"Ġbud":10170,"Ġcorpse":10171,"Ġarrive":10172,"Ġnerves":10173,"rove":10174,"996":10175,"Ġfloating":10176,"With":10177,"ĠNemo":10178,"Ġther":10179,"Ġrene":10180,"ĠCost":10181,"Ġ1936":10182,"igne":10183,"Ġbacks":10184,"Ġrefriger":10185,"Ġprimarily":10186,"ĠElliot":10187,"Ġunimproved":10188,"Ġscent":10189,"Ġadmire":10190,"Ġdetect":10191,"Ġtrumpet":10192,"ften":10193,"162":10194,"Ġfools":10195,"7232":10196,"wa":10197,"Ġpave":10198,"Ġagitation":10199,"Ġmedium":10200,"Ġtyp":10201,"Ġdespised":10202,"Ġstatutes":10203,"Ġbelongs":10204,"bing":10205,"Ġdefore":10206,"ĠWend":10207,"Ġformidable":10208,"ĠChallenger":10209,"Ġdeforestation":10210,"uming":10211,"Ġventured":10212,"jan":10213,"Ġbishop":10214,"rik":10215,"ĠKron":10216,"ĠScro":10217,"Ġguessed":10218,"Ġvalleys":10219,"inations":10220,"adise":10221,"Ġenlar":10222,"Ġparting":10223,"245":10224,"Ġcoach":10225,"such":10226,"Ġwret":10227,"Ġfitted":10228,"ĠCall":10229,"976":10230,"ĠPyncheon":10231,"tar":10232,"Ġsack":10233,"Ġclay":10234,"ĠVan":10235,"Ġdescrib":10236,"Ġtraff":10237,"Ġcolours":10238,"Ġgardens":10239,"Ġresponse":10240,"Ġbath":10241,"Ġfires":10242,"773":10243,"Ġdisappear":10244,"ĠCountry":10245,"Ġcriminal":10246,"Ġsed":10247,"ĠGert":10248,"ĠColombia":10249,"vial":10250,"Ġthereby":10251,"Ġinfant":10252,"oleon":10253,"Ġearliest":10254,"ava":10255,"Ġscript":10256,"Ġreplaced":10257,"Ġversion":10258,"ĠIrish":10259,"Ġbench":10260,"Le":10261,"Ġthief":10262,"ĠTrans":10263,"ira":10264,"ĠWFTU":10265,"Ġjar":10266,"ĠThoris":10267,"Ġdeserve":10268,"ĠAfghanistan":10269,"Ġnit":10270,"Ġirregular":10271,"Ġcompanies":10272,"Ġgrandfather":10273,"Ġsailor":10274,"Ġoverwhel":10275,"Ġdiscipl":10276,"ĠWithin":10277,"Ġindignation":10278,"gian":10279,"rum":10280,"roche":10281,"Ġtraged":10282,"Ġsolitary":10283,"ĠTR":10284,"ĠJenn":10285,"ints":10286,"cester":10287,"630":10288,"ĠSecurity":10289,"Ġcomparison":10290,"Ġcure":10291,"Ġscan":10292,"895":10293,"Miss":10294,"wixt":10295,"Ġmathe":10296,"ĠWCL":10297,"Ġwheels":10298,"unken":10299,"Ġchamp":10300,"246":10301,"Ġartific":10302,"Ġbuff":10303,"Ġcaptains":10304,"Ġdreamed":10305,"Ġridiculous":10306,"Ġencounter":10307,"Ġfu":10308,"ĠSid":10309,"urt":10310,"oph":10311,"Ġabode":10312,"Ġbloss":10313,"ĠPercy":10314,"Ġnigger":10315,"Ġdrought":10316,"Ġpleasures":10317,"Ġwarrior":10318,"mind":10319,"Ġdining":10320,"ĠCed":10321,"una":10322,"Ġflocks":10323,"Ġabruptly":10324,"Ġnonsense":10325,"oof":10326,"andal":10327,"408":10328,"Ġmagist":10329,"Ġzinc":10330,"ĠPhÅĵbe":10331,"ibilities":10332,"aneous":10333,"Ġfaced":10334,"Ġimmort":10335,"Ġdesigned":10336,"Ġneighbors":10337,"Ġattacked":10338,"Ġconvenient":10339,"Ġbars":10340,"ĠAbs":10341,"EST":10342,"Ġstrangely":10343,"Ġdeclined":10344,"ĠSatan":10345,"char":10346,"Ġinterval":10347,"ĠLorry":10348,"Ġ79":10349,"148":10350,"ĠCommunists":10351,"Ġassociated":10352,"wer":10353,"ctions":10354,"Ġletting":10355,"072":10356,"ĠAlps":10357,"Ġpilgr":10358,"rec":10359,"piece":10360,"Ġbever":10361,"ĠFau":10362,"074":10363,"Ġproducer":10364,"Ġmodest":10365,"Ġlosing":10366,"Ġpretend":10367,"Ġintelligent":10368,"ifornia":10369,"Qu":10370,"Ġlou":10371,"Ġwhit":10372,"ĠNone":10373,"Ġdownstairs":10374,"Ġrifle":10375,"retion":10376,"iterranean":10377,"ICE":10378,"uation":10379,"ante":10380,"Ġard":10381,"soom":10382,"853":10383,"Ġcrou":10384,"Ġconnex":10385,"Ġemerged":10386,"Ġmicrowave":10387,"ĠJulia":10388,"mighty":10389,"Ġlane":10390,"ĠTrue":10391,"ĠBg":10392,"ouring":10393,"Ġtheirs":10394,"Ġ1860":10395,"ommod":10396,"883":10397,"Ġguards":10398,"shop":10399,"Ġcreation":10400,"Ġwarmth":10401,"Ġgravely":10402,"Ġblew":10403,"Ġdrug":10404,"Ġtumult":10405,"ĠOphel":10406,"hah":10407,"Ġbrick":10408,"ĠBird":10409,"ĠGet":10410,"Ġpockets":10411,"Ġtreacher":10412,"Ġsunk":10413,"Ġdealt":10414,"Ġportrait":10415,"ĠAntony":10416,"angled":10417,"Ġtransportation":10418,"Ġcritical":10419,"ĠLes":10420,"Ġdisagreeable":10421,"phat":10422,"Ġwip":10423,"ĠSim":10424,"ĠRam":10425,"Ġintimate":10426,"Ġcoax":10427,"957":10428,"Ġsmallest":10429,"Ġrequires":10430,"Ġvillages":10431,"CES":10432,"Ġpist":10433,"ĠYoung":10434,"ĠDejah":10435,"Ġesp":10436,"Ġvaliant":10437,"ĠBarsoom":10438,"Ġgallant":10439,"vakia":10440,"149":10441,"Ġempha":10442,"ĠChad":10443,"Ġintroduction":10444,"ĠSub":10445,"Ġ1830":10446,"Ġoffended":10447,"Ġgoodly":10448,"Ġruined":10449,"......................................":10450,"Ġroute":10451,"Ġuneasy":10452,"ĠYugoslavia":10453,"Ġrein":10454,"198":10455,"Ġsuccession":10456,"Ġfatig":10457,"ĠLynde":10458,"Ġrigid":10459,"anim":10460,"Ġfacing":10461,"IE":10462,"Ġhired":10463,"Ġoverse":10464,"242":10465,"Ġobeyed":10466,"imo":10467,"izations":10468,"142":10469,"646":10470,"Ġoperating":10471,"ĠHAMLET":10472,"HT":10473,"672":10474,"IND":10475,"Ġtheatre":10476,"frey":10477,"iy":10478,"ivia":10479,"Ġunit":10480,"ORT":10481,"Ġapply":10482,"Ġchancery":10483,"ĠAfDB":10484,"ĠArabic":10485,"teredge":10486,"Ġtremend":10487,"ĠAPO":10488,"ĠCam":10489,"Ġconceived":10490,"ĠNuma":10491,"Ġvault":10492,"Ġincense":10493,"Ġformation":10494,"708":10495,"Ġcruelty":10496,"course":10497,"Ġbough":10498,"Ġgoss":10499,"Ġ845":10500,"OUN":10501,"ĠSecret":10502,"ĠHungary":10503,"BS":10504,"Ġtha":10505,"ura":10506,"Ġdiscont":10507,"Ġwhereof":10508,"Ġawoke":10509,"Ġdrops":10510,"ĠCharity":10511,"ĠSenegal":10512,"Ġinvestment":10513,"ĠMediterranean":10514,"Ġneighbourhood":10515,"Ġascended":10516,"American":10517,"lev":10518,"ieve":10519,"Ġenchant":10520,"ĠKuwait":10521,"ĠSomething":10522,"Ġpreceding":10523,"Ġabundance":10524,"Ġscholars":10525,"ĠBart":10526,"955":10527,"Note":10528,"Ġthorn":10529,"Ġdescent":10530,"Ġborders":10531,"Ġsupplied":10532,"Ġphenomen":10533,"Ġsucc":10534,"iere":10535,"875":10536,"Ġplanted":10537,"Ġhorns":10538,"Ġrecommend":10539,"Ġphotograph":10540,"bout":10541,"ĠEver":10542,"ureau":10543,"140":10544,"ĠCyprus":10545,"Ġsignificant":10546,"Ġfountain":10547,"ĠThu":10548,"fortune":10549,"Ġbrains":10550,".........................................":10551,"ĠScrooge":10552,"oam":10553,"Ġbits":10554,"ĠSaxon":10555,"Ġclut":10556,"Ġwitch":10557,"Ġentitled":10558,"Ġ89":10559,"972":10560,"oven":10561,"Ġpy":10562,"ĠDaniel":10563,"Ġvow":10564,"199":10565,"Ġpersist":10566,"Ġlesson":10567,"Ġaest":10568,"Ġdearest":10569,"ĠAlb":10570,"Ġoppress":10571,"Ġpreparing":10572,"Ġadvantages":10573,"ĠCle":10574,"ĠHill":10575,"Ġconject":10576,"Ġeloqu":10577,"Ġthrong":10578,"Ġpursue":10579,"Ġdiamonds":10580,"point":10581,"ĠSwe":10582,"188":10583,"forms":10584,"ĠSecond":10585,"ĠHome":10586,"Ġchambers":10587,"Ġstub":10588,"146":10589,"Ġcoral":10590,"Ġfrost":10591,"ĠPenelope":10592,"Ġjealousy":10593,"Ġfaded":10594,"ashes":10595,"ĠUsen":10596,"Ġflushed":10597,"Ġtendency":10598,"ĠDown":10599,"ĠOTH":10600,"Ġprocession":10601,"ĠTerritory":10602,"ĠOphelia":10603,"ĠBi":10604,"ĠAsh":10605,"Ġacres":10606,"228":10607,"Ġwishing":10608,"Ġindustries":10609,"Ġenvy":10610,"ĠWhether":10611,"Ġfeeble":10612,"Ġmould":10613,"Ġdeaf":10614,"Ġaged":10615,"Ġcommittee":10616,"Ġissued":10617,"Ġrelieved":10618,"writ":10619,"arus":10620,"akers":10621,"ĠNews":10622,"OST":10623,"Ġcove":10624,"ĠDur":10625,"640":10626,"Ġneighbours":10627,"ĠTrin":10628,"Ġpitched":10629,"Ġspeedily":10630,"Ġ***":10631,"ĠKronborg":10632,"Af":10633,"tree":10634,"uced":10635,"arts":10636,"ĠRoy":10637,"Ġmuscles":10638,"Ġpolitics":10639,"Ġec":10640,"ĠBull":10641,"ĠEX":10642,"QU":10643,"Ġbone":10644,"anna":10645,"ĠCertainly":10646,"ĠEmp":10647,"Ġ1850":10648,"ĠVenezuela":10649,"ĠAlma":10650,"Ġbuck":10651,"Ġmodem":10652,"ĠNapoleon":10653,"comm":10654,"ĠTro":10655,"Ġwasted":10656,"ifted":10657,"ellow":10658,"ogs":10659,"Ġremnant":10660,"Ġchances":10661,"Ġcaution":10662,"Ġbadly":10663,"Ġteachers":10664,"3740":10665,"Ġsmoking":10666,"ĠSupp":10667,"Ġtidings":10668,"Ġbund":10669,"Ġfiend":10670,"Ġshallow":10671,"Ġdefined":10672,"ĠEnglishman":10673,"Ġeducated":10674,"ĠACP":10675,"ĠIllicit":10676,"Ġinconven":10677,"Ġoak":10678,"oubted":10679,"Ġlovers":10680,"Ġselfish":10681,"Ġgarment":10682,"ĠMoz":10683,"ĠWer":10684,"Ġclosing":10685,"846":10686,"Ġtram":10687,"Ġsymbol":10688,"ĠGertrude":10689,"Commun":10690,"Nay":10691,"awn":10692,"iast":10693,"core":10694,"Ġpla":10695,"ĠEva":10696,"rily":10697,"Ġreports":10698,"Ġgraceful":10699,"ext":10700,"ĠLos":10701,"uns":10702,"Ġexpecting":10703,"Ġpermission":10704,"EUS":10705,"Ġglit":10706,"Ġembra":10707,"Ġnaval":10708,"Ġamazement":10709,"Ġvile":10710,"ĠMaced":10711,"ĠClym":10712,"ĠStep":10713,"Ġtrif":10714,"leans":10715,"ĠPopular":10716,"Ġseeming":10717,"648":10718,"Ġnewspaper":10719,"GAR":10720,"Ġfairy":10721,"ĠVivian":10722,"Ġconference":10723,"ĠMademoiselle":10724,"Ġmadness":10725,"Ġmessenger":10726,"110":10727,"bby":10728,"icular":10729,"ĠJerem":10730,"Ġearthly":10731,"Ġlowest":10732,"Ġcrossing":10733,"Ġeldest":10734,"Ġmurmur":10735,"ĠWendy":10736,"ĠUsenet":10737,"Ġtransp":10738,"ĠEverything":10739,"bol":10740,"Ġlique":10741,"wealth":10742,"Ġlanded":10743,"ITH":10744,"ĠMinchin":10745,"Illustration":10746,"ĠGL":10747,"Ġ1861":10748,"Ġapost":10749,"Ġdivide":10750,"Ġcompliment":10751,"Ġgathering":10752,"Ġlegislature":10753,"iliation":10754,"ĠRet":10755,"Ġfaire":10756,"Ġbreathed":10757,"ĠCenter":10758,"ĠHack":10759,"ĠBE":10760,"asty":10761,"hang":10762,"rical":10763,"Ġchanging":10764,"Ġwonders":10765,"Ġattempts":10766,"pers":10767,"ĠSummer":10768,"empor":10769,"Ġretire":10770,"Ġsurvey":10771,"Ġlikeness":10772,"Ġtoil":10773,"Ġpall":10774,"oster":10775,"Ġlip":10776,"Ġcomplaint":10777,"French":10778,"Ġgru":10779,"ĠHan":10780,"ĠFu":10781,"necess":10782,"velin":10783,"Ġcampaign":10784,"ĠCorn":10785,"ĠBill":10786,"ĠFore":10787,"Ġactivities":10788,"ĠGeorgia":10789,"ĠWoodman":10790,"Ġfanci":10791,"Ġclimbed":10792,"Ġward":10793,"ACH":10794,"ĠBetteredge":10795,"uvelin":10796,"Ġwreck":10797,"Ġbeef":10798,"ĠBM":10799,"Ġflashed":10800,"Ġfamine":10801,"ĠJeff":10802,"Ġshy":10803,"276":10804,"Ġsubtle":10805,"Ġinflation":10806,"idad":10807,"ĠHum":10808,"Ġ1815":10809,"aug":10810,"Ġenlight":10811,"639":10812,"848":10813,"ĠAmaz":10814,"Ġnarrative":10815,"Ġfertile":10816,"Ġoneself":10817,"Ġsuburbs":10818,"Ġmend":10819,"ĠLim":10820,"Ġirres":10821,"Ġparish":10822,"Ġcomplexion":10823,"ĠIB":10824,"Ġhay":10825,"leton":10826,"776":10827,"ĠClara":10828,"Ġparlor":10829,"Ġmicro":10830,"Ġrestless":10831,"ĠApes":10832,"Ġladder":10833,"Ġdistinguish":10834,"eremony":10835,"Ġmourning":10836,"rations":10837,"Ġmap":10838,"Ġsealed":10839,"fts":10840,"Ġmarched":10841,"ĠWeather":10842,"Ġsecrets":10843,"Ġsailors":10844,"Ġmoderate":10845,"inth":10846,"istered":10847,"erals":10848,"Ġbatter":10849,"ifully":10850,"ĠGill":10851,"Ġslope":10852,"Ġindepend":10853,"ECT":10854,"Ġmeantime":10855,"Ġagreements":10856,"Ġenthusias":10857,"Ġ1848":10858,"Ġrav":10859,"866":10860,"Ġdefect":10861,"ĠAgency":10862,"Ġpressing":10863,"OME":10864,"ĠCollege":10865,"reth":10866,"ĠHas":10867,"Ġshudd":10868,"Ġdecline":10869,"asure":10870,"alia":10871,"Ġstab":10872,"143":10873,"Ġinstitution":10874,"Ġfancied":10875,"ench":10876,"ĠNeb":10877,"ricks":10878,"ervative":10879,"Ġslender":10880,"Ġdespite":10881,"Ġstatus":10882,"Ġpush":10883,"Ġdyn":10884,"Ġbef":10885,"ĠCirc":10886,"Ġ1867":10887,"ĠAbyss":10888,"Ġdisgust":10889,"IF":10890,"ĠList":10891,"Ġuncon":10892,"stein":10893,"Ġfired":10894,"urious":10895,"Ġknowest":10896,"Ġimpressed":10897,"Ġdecor":10898,"Ġearnings":10899,"Ġthreatened":10900,"ĠIslamic":10901,"President":10902,"Ġgames":10903,"ett":10904,"Ġsuitable":10905,"Ġprodig":10906,"Ġchase":10907,"Ġsurrounding":10908,"Ġcondemn":10909,"jib":10910,"ados":10911,"ĠWall":10912,"Ġleap":10913,"Ġbrows":10914,"rating":10915,"Ġsor":10916,"Ġoffend":10917,"Ġbitterness":10918,"357":10919,"ĠSIR":10920,"asses":10921,"060":10922,"Ġirre":10923,"Ġranks":10924,"Ġfootsteps":10925,"atem":10926,"andy":10927,"apers":10928,"Ġreserve":10929,"Ġappoint":10930,"Ġdisplay":10931,"Ġemotions":10932,"Ġceremony":10933,"ĠPuerto":10934,"ĠON":10935,"ĠUg":10936,"168":10937,"ĠAlliance":10938,"Ġoils":10939,"Ġdentist":10940,"ĠVIII":10941,"Ġchildhood":10942,"Ġbasic":10943,"Ġpersuade":10944,"oric":10945,"Ġliberal":10946,"Ġfiery":10947,"Ġbetrayed":10948,"arly":10949,"Ġlub":10950,"ĠTest":10951,"138":10952,"ĠBlan":10953,"Ġplanned":10954,"Ġadopt":10955,"885":10956,"Ġwarned":10957,"Ġexchan":10958,"Ġexpectation":10959,"ĠOrleans":10960,"Ġreminded":10961,"ĠJennings":10962,"Ġthri":10963,"ĠCAR":10964,"ĠLine":10965,"Ġclerk":10966,"938":10967,"156":10968,"Ġdirectory":10969,"Ġgri":10970,"Ġ1840":10971,"Ġforests":10972,"Ġsinned":10973,"ĠIslander":10974,"Ġprimitive":10975,"Yea":10976,"oard":10977,"Ġgospel":10978,"rack":10979,"ĠFOR":10980,"058":10981,"Ġtravelling":10982,"Ġslaughter":10983,"Par":10984,"ĠVol":10985,"Ġdoubtful":10986,"Ġconsequences":10987,"Ġgorge":10988,"cified":10989,"Ġtents":10990,"ĠAff":10991,"Ġdeem":10992,"ushes":10993,"Ġfollowers":10994,"3553":10995,"Ġfavourite":10996,"Ġrelease":10997,"Ġhistorical":10998,"ĠMod":10999,"Ġ1864":11000,"agascar":11001,"Ġsmite":11002,"ĠChauvelin":11003,"din":11004,"table":11005,"Ġbrings":11006,"230":11007,"Ġmeters":11008,"Ġsensation":11009,"Ġbitterly":11010,"ĠRemember":11011,"ĠCedric":11012,"ĠTars":11013,"ĠCuba":11014,"oop":11015,"uded":11016,"Ġdevice":11017,"ambe":11018,"ĠUk":11019,"Ġflut":11020,"Ġaccum":11021,"Ġneglect":11022,"Ġmasses":11023,"ĠWoodhouse":11024,"Ġhasn":11025,"Ġnatives":11026,"Ġcrum":11027,"Ġheavenly":11028,"Ġstopping":11029,"Ġproceeding":11030,"Ġglasses":11031,"Nothing":11032,"Ġsongs":11033,"eng":11034,"agua":11035,"932":11036,"teenth":11037,"Ġcocoa":11038,"Ġhedge":11039,"ĠBlessed":11040,"Ġadequate":11041,"iner":11042,"ĠNight":11043,"ĠUr":11044,"Ġrepose":11045,"ĠColin":11046,"ĠBou":11047,"ĠDar":11048,"Ġcuriously":11049,"ĠClub":11050,"Ġfertil":11051,"Ġprivilege":11052,"eta":11053,"Ġ1866":11054,"Ġadapt":11055,"ĠThink":11056,"Ġribb":11057,"Ġnewly":11058,"Ġfeels":11059,"Ġleads":11060,"ĠMAC":11061,"Ġvital":11062,"Ġadmired":11063,"Ġconcert":11064,"ĠTaiwan":11065,"Sir":11066,"ĠGav":11067,"Ġvirgin":11068,"Ġlikes":11069,"Ġ.\"":11070,"Ġcontented":11071,"Ġcoarse":11072,"Ġincomp":11073,"ĠCHR":11074,"Ġtenth":11075,"Ġpiano":11076,"made":11077,"Ġspoiled":11078,"ambique":11079,"Ġstaying":11080,"Ġdetermine":11081,"Ġmirror":11082,"Ġcurtains":11083,"Ġimprovement":11084,"Ġvulgar":11085,"aus":11086,"Ġaccused":11087,"Ġperfection":11088,"Ġii":11089,"ĠCalifornia":11090,"cuador":11091,"OB":11092,"anes":11093,"ĠBER":11094,"Ġarrow":11095,"178":11096,"Ġcraw":11097,"Ġorganized":11098,"Ġwithdrew":11099,"Ġunpleasant":11100,"Ġenthusiasm":11101,"past":11102,"ĠAld":11103,"Ġimprison":11104,"oboam":11105,"ĠEdna":11106,"ĠJeremiah":11107,"Comp":11108,"hist":11109,"rac":11110,"ĠLiddy":11111,"ĠGi":11112,"Ġdrunken":11113,"Ġsummit":11114,"Ġtechnology":11115,"Ġalphab":11116,"Ġ1862":11117,"Ġamused":11118,"Ġscrew":11119,"ĠIsab":11120,"862":11121,"Ġrever":11122,"istle":11123,"068":11124,"ĠAgainst":11125,"ĠConfederation":11126,"uity":11127,"ĠTempl":11128,"abwe":11129,"osoto":11130,"Ġterrif":11131,"Ġlowered":11132,"imbabwe":11133,"ĠBlake":11134,"Dear":11135,"inn":11136,"oming":11137,"Ġ1863":11138,"Ġavo":11139,"Ġdamn":11140,"Ġdamage":11141,"Ġapparatus":11142,"063":11143,"Ġtremble":11144,"Ġcomparatively":11145,"Ġsearched":11146,"Re":11147,"Ġmaketh":11148,"because":11149,"Ġprovisions":11150,"Ġcloak":11151,"Ġtemporary":11152,"Ġstrategic":11153,"Ġafore":11154,"Ġgy":11155,"Ġgrows":11156,"Ġmarvell":11157,"ELLO":11158,"****************":11159,"Ġprosperity":11160,"Ġrevere":11161,"ĠPark":11162,"ĠMur":11163,"ulars":11164,"Ġshine":11165,"ĠArmen":11166,"Ġfuneral":11167,"bourne":11168,"Ġwont":11169,"ero":11170,"Ġdirty":11171,"Ġink":11172,"Ġpeaceful":11173,"Ġstrife":11174,"2689":11175,"ROM":11176,"ĠAE":11177,"ripp":11178,"estone":11179,"Ġobserving":11180,"ĠPhilippines":11181,"Ġrings":11182,"Ġ1832":11183,"Ġpreach":11184,"Pol":11185,"hana":11186,"Ġappla":11187,"ictions":11188,"Ġimported":11189,"iently":11190,"arc":11191,"Ġmanagement":11192,"Ġgoeth":11193,"Ġpartial":11194,"Ġconsisted":11195,"Ġmisfortune":11196,"Ġtreasures":11197,"Ġpillars":11198,"auxite":11199,"Ġrefrigerated":11200,":--":11201,"Ġsubl":11202,"ĠGr":11203,"ustice":11204,"chair":11205,"Ġsixteen":11206,"Ġadventures":11207,"Ġxx":11208,"Ġdre":11209,"ĠRob":11210,"190":11211,"ondur":11212,"Ġengra":11213,"Ġowners":11214,"608":11215,"Ġpatron":11216,"Ġspectacle":11217,"Sh":11218,"fold":11219,"iser":11220,"Ġced":11221,"sea":11222,"ĠSav":11223,"uled":11224,"ĠLess":11225,"ĠDie":11226,"ometer":11227,"Ġinsol":11228,"coming":11229,"Ġconducted":11230,"Ġpark":11231,"876":11232,"cribe":11233,"iciency":11234,"ĠNigeria":11235,"Ġthreshold":11236,"ĠRebecca":11237,"GE":11238,"Ġcomposition":11239,"Ġlanding":11240,"Ġtyran":11241,"Ġinquire":11242,"ĠFrancis":11243,"Ġtresp":11244,"Ġsailed":11245,"nty":11246,"Ġ1874":11247,"Ġpropose":11248,"guay":11249,"âĪ":11250,"Ġamusement":11251,"âĪĴ":11252,"SS":11253,"Ġcock":11254,"Ġsheets":11255,"Ġvolumes":11256,"%),":11257,"Leg":11258,"Ġbefall":11259,"Ġgran":11260,"stri":11261,"ĠGur":11262,"ĠNZ":11263,"ĠRab":11264,"Ġcarbon":11265,"Ġsubdu":11266,"ĠZe":11267,"Ġelectrified":11268,"Ġdangers":11269,"Ġrarely":11270,"Ġaffliction":11271,"Ġuncomfortable":11272,"odox":11273,"Ġdischarge":11274,"ĠCameroon":11275,"ĠNa":11276,"elly":11277,"cky":11278,"Ġquad":11279,"Ġalarmed":11280,"Co":11281,"Ġmoss":11282,"Ġrect":11283,".......":11284,"Pr":11285,"vag":11286,"ĠStan":11287,"Ġstudies":11288,"ASE":11289,"Ġshouting":11290,"Ġporch":11291,"ĠWerper":11292,"oking":11293,"ĠCog":11294,"ĠDear":11295,"oped":11296,"cloth":11297,"Ġmayest":11298,"Ġscatter":11299,"Ġelbow":11300,"Ġeighteen":11301,"Ġexploitation":11302,"fig":11303,"Ġwrapped":11304,"Ġlamps":11305,"ients":11306,"Ter":11307,"Ġfest":11308,"Ġgn":11309,"940":11310,"Ġlandl":11311,"Ġtrim":11312,"262":11313,"ĠDefar":11314,"Ġprivately":11315,"Ġceiling":11316,"Ġreleased":11317,"Ġwriters":11318,"Ġarrested":11319,"zes":11320,"Ġtales":11321,"urred":11322,"Ġnep":11323,"ricken":11324,"ourgeois":11325,"Ġdoom":11326,"Ġpassions":11327,"Ġreluct":11328,"Ġtune":11329,"ruguay":11330,"ĠThur":11331,"Ġbarley":11332,"ĠDepartment":11333,"Ġglobe":11334,"ĠFrid":11335,"icks":11336,"Ġseparation":11337,"uther":11338,"130":11339,"828":11340,"Ġobservations":11341,"jibout":11342,"dam":11343,"Ġnotwithstanding":11344,"Ġpresents":11345,"243":11346,"Ġproduces":11347,"Ġlessons":11348,"Ġbargain":11349,"ĠRomania":11350,"ĠWesley":11351,"Ġdey":11352,"Ġ1868":11353,"Ġraces":11354,"995":11355,"Ġgravity":11356,"Ġpropriet":11357,"Ġengage":11358,"Ġsaddle":11359,"Ġtongues":11360,"ĠThomasin":11361,"Ġcalmly":11362,"Ġromance":11363,"Ġcultivated":11364,"ĠRay":11365,"--------------------":11366,"Ġchast":11367,"ĠVAL":11368,"678":11369,"Ġbelt":11370,"Ġhighway":11371,"Ġfunny":11372,"chers":11373,"ĠMedian":11374,"Ġvaguely":11375,"Ġestimated":11376,"ĠBertram":11377,"celand":11378,"Ġsoci":11379,"Ġmoist":11380,"Ġbauxite":11381,"ĠMust":11382,"ousing":11383,"ĠHez":11384,"Ġrepair":11385,"ĠChristianity":11386,"Ġdefeat":11387,"ĠHomosoto":11388,"LOWN":11389,"Ġtraffic":11390,"Ġfuel":11391,"Ġ1855":11392,"Ġpaths":11393,"AGE":11394,"Ġcrimson":11395,"Ġpreparations":11396,"Ġsubstantial":11397,"Ġment":11398,"opes":11399,"Ġregarding":11400,"Ġmissing":11401,"Ġachieve":11402,"hast":11403,"ĠâĢľâĢĻ":11404,"Ġ1821":11405,"Ġ1852":11406,"omething":11407,"ĠPhill":11408,"ĠBetween":11409,"Ġdetermination":11410,"gom":11411,"Ġpha":11412,"Ġgir":11413,"alted":11414,"ĠPo":11415,"Ġfurious":11416,"Ġdiscussed":11417,"Ġdistribution":11418,"atisf":11419,"ĠPS":11420,"Ġtotally":11421,"Ġexisting":11422,"\",":11423,"Ġgre":11424,"ĠTu":11425,"ĠCint":11426,"Ġenabled":11427,"Ġdeserv":11428,"Ġcollar":11429,"Ġrecognition":11430,"ĠPanama":11431,"Ġtempest":11432,"People":11433,"year":11434,"enet":11435,"Ġfain":11436,"oding":11437,"Ġ1865":11438,"942":11439,"129":11440,"erers":11441,"Ġreprodu":11442,"Ġreverence":11443,"ĠThailand":11444,"aration":11445,"Ġexecutive":11446,"Ġpurchase":11447,"ĠInto":11448,"Ġperpetual":11449,"Ġlieutenant":11450,"ĠAngeles":11451,"ĠTobago":11452,"Ġpavement":11453,"could":11454,"Ġbru":11455,"ĠPoint":11456,"aco":11457,"Ġ1835":11458,"Ġelabor":11459,"Ġillness":11460,"Ġmagaz":11461,"ĠVincent":11462,"Ġvehicles":11463,"Ġ-----":11464,"Ġassurance":11465,"Ġfoe":11466,"Ġlots":11467,"ĠCLOWN":11468,"Ġ1872":11469,"Ġknoweth":11470,"Ġwherewith":11471,"ĠGodfrey":11472,"brother":11473,"ĠRepublican":11474,"OUR":11475,"Ġfrozen":11476,"piration":11477,"Ġneighborhood":11478,"ĠDickon":11479,"Ġniece":11480,"ĠCham":11481,"248":11482,"Ġretained":11483,"962":11484,"Ġconfirm":11485,"ĠBrother":11486,"Ġinjustice":11487,"break":11488,"ĠRad":11489,"Ġ500":11490,"Ġfortnight":11491,"Ġmassive":11492,"press":11493,"Ġfisher":11494,"staff":11495,"Ġconceive":11496,"ĠLeague":11497,"ĠTerry":11498,"Ġ---":11499,"ĠDeputy":11500,"Ġappetite":11501,"Ġbarricade":11502,"Ġmothers":11503,"Ġconvenience":11504,"Ġfortunes":11505,"ĠCOR":11506,"Ġbutt":11507,"arson":11508,"ĠWhale":11509,"Ġiod":11510,"850":11511,"270":11512,"966":11513,"Ġemploys":11514,"ĠDefarge":11515,"\".":11516,"ĠPur":11517,"ĠGrey":11518,"Ġnegative":11519,"Ġlandscape":11520,"Ġjewels":11521,"Ġascertain":11522,"TP":11523,"Ġseize":11524,"842":11525,"ĠAdd":11526,"Ġattachment":11527,"erity":11528,"amily":11529,"Ġ1871":11530,"0255":11531,"Ġhearth":11532,"..........................................":11533,"Ġcreeping":11534,"okoff":11535,"Ġoxen":11536,"Ġamazed":11537,"Ġrescue":11538,"Ġliquefied":11539,"ĠCintrÃ©":11540,"ape":11541,"seil":11542,"ĠBible":11543,"Ġgrasped":11544,"clude":11545,"Ġapple":11546,"ĠMadagascar":11547,"Ġministers":11548,"Ġrevolver":11549,"oat":11550,"Ġdisd":11551,"856":11552,"Ġsolitude":11553,"Ġmouths":11554,"ACE":11555,"Ġsubsequent":11556,"Ġcake":11557,"Ġ1857":11558,"asso":11559,"Ġglac":11560,"Ġsunlight":11561,"Ġcorps":11562,"Ġruins":11563,"Ġbasin":11564,"Ġrelatively":11565,"Just":11566,"Lean":11567,"Ġbourgeois":11568,"Ġpoult":11569,"ĠConseil":11570,"Ġembrace":11571,"Ġtossed":11572,"ĠHER":11573,"860":11574,"Ġwits":11575,"Ġbicameral":11576,"ĠAub":11577,"Ġwhites":11578,"gered":11579,"Ġclung":11580,"Ġinstances":11581,"Ġpurse":11582,"Ġbehalf":11583,"Ġmiracle":11584,"ĠTin":11585,"Ġunnecess":11586,"Ġpole":11587,"Ġaccommod":11588,"Ġappointment":11589,"Ġrestore":11590,"Ġcareless":11591,"Ġsacrifices":11592,"Ġ119":11593,"Ġvia":11594,"Ġbackground":11595,"Ġincons":11596,"Ġexperiments":11597,"ĠPRINCE":11598,"Ġ1869":11599,"Ġbrush":11600,"770":11601,"9737":11602,"ierra":11603,"Ġcreep":11604,"Ġmanufactures":11605,"Ġfortunate":11606,"Ġmultipl":11607,"Ġexh":11608,"772":11609,"Ġjustified":11610,"Ġobedience":11611,"Ġavoided":11612,"onian":11613,"ĠSERV":11614,"ĠPut":11615,"ĠFij":11616,"vention":11617,"Ġextravag":11618,"Ġhomes":11619,"ĠAlfred":11620,"ĠCE":11621,"Ġcalam":11622,"Ġinjury":11623,"Ġsugarcane":11624,"ĠMilitary":11625,"Ġgleam":11626,"war":11627,"Ġwander":11628,"ĠHig":11629,"Ġblowing":11630,"Ġfourteen":11631,"Ġmurdered":11632,"Ġvex":11633,"kespe":11634,"ĠOffice":11635,"bro":11636,"ĠRoom":11637,"udge":11638,"Ġscenes":11639,"Ġopium":11640,"953":11641,"ĠZaire":11642,"..................................":11643,"quarters":11644,"Ġmol":11645,"ĠDash":11646,"Ġje":11647,"139":11648,"ĠNegroes":11649,"Ġawe":11650,"Ġplead":11651,"Ġsixth":11652,"Ġregularly":11653,"Ġknights":11654,"Ġacknowledge":11655,"Ġinstitutions":11656,"_.âĢĿ":11657,"rot":11658,"arms":11659,"Ġnavy":11660,"territ":11661,"Ġconverted":11662,"ĠRokoff":11663,"Ġ1834":11664,"Ġclasped":11665,"Ġflames":11666,"ogo":11667,".........................":11668,"Ġrespects":11669,".....................................":11670,"Ġantagon":11671,"Ġproceedings":11672,"Ġstaircase":11673,"ĠLest":11674,"arers":11675,"Ġgraph":11676,"Ġbarren":11677,"Ġfraud":11678,"Ġhunted":11679,"ĠTit":11680,"ĠBed":11681,"Ġresolve":11682,"882":11683,"Ġbestowed":11684,"ĠMistress":11685,"LAND":11686,"Over":11687,"every":11688,"ĠHor":11689,"mbre":11690,"Ġtraces":11691,"Ġcitizen":11692,"ĠMonday":11693,"Ġconnexion":11694,"ĠBad":11695,"Ġrans":11696,"059":11697,"Ġretain":11698,"Ġgladly":11699,"Ġseverely":11700,"Ġproclaimed":11701,"ĠMozambique":11702,"ĠTip":11703,"Ġsunset":11704,"Ġverse":11705,",)":11706,"rd":11707,"rice":11708,"Ġlions":11709,"icians":11710,"Ġstim":11711,"Ġroused":11712,"ieves":11713,"Ġoffshore":11714,"Ġtract":11715,"409":11716,"Ġhumour":11717,"Ġdevils":11718,"Ġtypes":11719,"Ġwhales":11720,"asseh":11721,"ĠJoab":11722,"Ġsimplicity":11723,"called":11724,"Ġdict":11725,"omer":11726,"rawn":11727,"Ġmeek":11728,"Ġ1836":11729,"Ġdemocracy":11730,"Ġpunish":11731,"ĠMcLean":11732,"Ġjewel":11733,"ĠBot":11734,"Ġtrained":11735,"Ġinvestigation":11736,"Ġextremity":11737,"islaw":11738,"ĠIrene":11739,"estine":11740,"Ġintently":11741,"Ġammon":11742,"Ġbetwixt":11743,"Ġadvoc":11744,"Ġcourtes":11745,"ĠMartian":11746,"ĠPCA":11747,"Ġivory":11748,"ĠELIZ":11749,"Ġfug":11750,"ĠDanish":11751,"Ġshaken":11752,"Ġ1873":11753,"Ġgreatness":11754,"278":11755,"ĠAli":11756,"ĠAmericans":11757,"ĠDemocracy":11758,"ĠALL":11759,"bid":11760,"yan":11761,"Ġcards":11762,"ĠGray":11763,"829":11764,"fire":11765,"Ġwast":11766,"ĠWel":11767,"Ġ1847":11768,"159":11769,"Ġcris":11770,"eka":11771,"Ġparticip":11772,"ĠManasseh":11773,"ĠTrust":11774,"Ġconsequently":11775,"ĠDiv":11776,"535":11777,"ĠKenya":11778,"Ġhazards":11779,"Ġencouraged":11780,"Ġbows":11781,"ĠEcuador":11782,"Ġ1854":11783,"Ġenable":11784,"issau":11785,"zania":11786,"ĠBon":11787,"ĠLank":11788,"ĠGard":11789,"Ġsoot":11790,"Ġsofa":11791,"Ġ1831":11792,"ĠAlmighty":11793,"uffled":11794,"ĠRevolutionary":11795,"Ġdesirable":11796,"Ġlubric":11797,"Ġtransgress":11798,";âĢĿ":11799,"Man":11800,"know":11801,"ĠMEN":11802,"ountered":11803,"Ġpopul":11804,"Ġwhore":11805,"rag":11806,"Ġsaving":11807,"240":11808,"Ġharness":11809,"Ġnormal":11810,"Ġserpent":11811,"Ġfrontier":11812,"Ġverily":11813,"ĠTrinidad":11814,"Ġdaring":11815,"ĠMans":11816,"ĠNam":11817,"Ġexalted":11818,"Ġvisitors":11819,"ĠFriday":11820,"vant":11821,"Ġimpart":11822,"Ġwalks":11823,"Ġwitnessed":11824,"vy":11825,"Ġkins":11826,"opher":11827,"Ġ1853":11828,"Ġ1806":11829,"ĠZimbabwe":11830,"Ġproposal":11831,"Ġpenny":11832,"rob":11833,"three":11834,"thodox":11835,"agues":11836,"Ġpainting":11837,"Ġconquer":11838,"Ġbending":11839,"Ġrecollect":11840,"cludes":11841,"iverse":11842,"ĠPolynes":11843,"atemala":11844,"Ġ1842":11845,"Ġ1851":11846,"izz":11847,"Ġscandal":11848,"Ġgrapes":11849,"Ġnegl":11850,"ABETH":11851,"AGO":11852,"ĠVerinder":11853,"dollars":11854,"Ġfuels":11855,"nect":11856,"ĠNumber":11857,"ĠDist":11858,"Ġshri":11859,"Ġshared":11860,"Ġintend":11861,"Ġclad":11862,"839":11863,"Ġcares":11864,"Ġdealing":11865,"ĠTre":11866,"Ġattain":11867,"swana":11868,"lles":11869,"ĠCad":11870,"Ġ1833":11871,"Ġresign":11872,"0324":11873,"679":11874,"ĠConsulates":11875,"Ġholes":11876,"ĠWalter":11877,"Ġgigantic":11878,"CESTER":11879,"ĠELIZABETH":11880,"march":11881,"Ġfoc":11882,"ĠHart":11883,"Ġbutton":11884,"Ġcertainty":11885,"Ġrepresentatives":11886,"Ġdoubts":11887,"Ġaccomplish":11888,"Ġnephew":11889,"152":11890,"Ġawakened":11891,"Ġencountered":11892,"Ġcustoms":11893,"117":11894,"Ay":11895,"good":11896,"oz":11897,"icating":11898,"levent":11899,"Ġ1845":11900,"Ġgiveth":11901,"069":11902,"Ġreckoned":11903,"++++++++++++++++++++++++++++++++":11904,"Ġmerciful":11905,"MARSAT":11906,"Ġrenewed":11907,"six":11908,"atar":11909,"Ġinhabited":11910,"Ġwelf":11911,"oche":11912,"Ġhereafter":11913,"Ġarrangements":11914,"aguerre":11915,"Ġesteem":11916,"ĠMongol":11917,"Ġrows":11918,"446":11919,"Ġextend":11920,"Ġdefin":11921,"Ġoppressed":11922,"uclear":11923,"ĠArabella":11924,"Ġtempted":11925,"Ġdisplayed":11926,"ladesh":11927,"gence":11928,"than":11929,"win":11930,"Ġviz":11931,"Ġadul":11932,"Ġsteamer":11933,"Ġpassionate":11934,"ĠBRUT":11935,"ĠGavroche":11936,"ĠBre":11937,"berry":11938,"ĠNobody":11939,"Ġquestioned":11940,"Ġbarely":11941,"Ġwelfare":11942,"Cur":11943,"Ġcens":11944,"ĠIv":11945,"ĠMESS":11946,"Ġunwill":11947,"urned":11948,"ĠRoad":11949,"Tell":11950,"Ġabhor":11951,"Ġnobles":11952,"Ġ1844":11953,"ilead":11954,"9114":11955,"ERN":11956,"ĠSpace":11957,"Ġconsisting":11958,"Environment":11959,"yll":11960,"Ġ1843":11961,"840":11962,"Ġapolog":11963,"beit":11964,"Ġassault":11965,"ĠNorman":11966,"Ġdistributed":11967,"Ġbrutal":11968,"Serve":11969,"riages":11970,"ĠPorter":11971,"Ġarist":11972,"Ġaccus":11973,"239":11974,"Ġmarrying":11975,"Ġaddressing":11976,"Ġrecollection":11977,"ĠMoonstone":11978,"Ġclergyman":11979,"ĠESCAP":11980,"Jane":11981,"Ġnay":11982,"ĠTow":11983,"Ġstable":11984,"Ġplural":11985,"Ġregiment":11986,"Ġharmony":11987,"Ġdamsel":11988,"Ġunpaved":11989,"Ġimpatience":11990,"Ġcooperation":11991,"ORK":11992,"thel":11993,"533":11994,"Ġeventually":11995,"ĠLibya":11996,"aired":11997,"ĠHondur":11998,"Ġrhy":11999,"509":12000,"ĠAcademy":12001,"Ġdusk":12002,"Ġgossip":12003,"Ġecst":12004,"ĠSU":12005,"riety":12006,"ĠOper":12007,"oughby":12008,"Ġinvitation":12009,"chelevent":12010,"Ġvols":12011,"ĠRico":12012,"Ġunin":12013,"Ġblush":12014,"Ġscant":12015,"Ġwherever":12016,"Ġmob":12017,"Ġinnocence":12018,"Ġchallenge":12019,"120":12020,"Ġfid":12021,"Ġdislike":12022,"4749":12023,"Ġnewsg":12024,"ĠFlat":12025,"inence":12026,"leine":12027,"Ġstre":12028,"ĠGarth":12029,"Ġleague":12030,"Ġ1814":12031,"Ġspy":12032,"Ġdiscl":12033,"Ġ600":12034,"249":12035,"Ġcocon":12036,"Ġmum":12037,"Ġfel":12038,"Ġfret":12039,"ĠMu":12040,"ensed":12041,"Ġstillness":12042,"Ġconfessed":12043,"Ġaesthetic":12044,"iac":12045,"mach":12046,"950":12047,"Ġdiscourse":12048,"sych":12049,"sal":12050,"434":12051,"Ġdropping":12052,"brevi":12053,"iege":12054,"Ġcompare":12055,"icking":12056,"useum":12057,"ĠMaurit":12058,"oubtedly":12059,"ĠCanadian":12060,"ĠFrederick":12061,"kespeare":12062,"door":12063,"serv":12064,"omination":12065,"Ġ1846":12066,"Ġkilling":12067,"cetta":12068,"ĠHugh":12069,"Ġtremendous":12070,"ĠBRUTUS":12071,"oucester":12072,"Ġfist":12073,"Ġ1800":12074,"Ġambit":12075,"0276":12076,"0364":12077,"Ġchariots":12078,"ĠAgnes":12079,"Ġapproved":12080,"Ġlimb":12081,"asterbridge":12082,"Ġskull":12083,"Ġannounce":12084,"Ġwretch":12085,"Ġprost":12086,"Ġ1859":12087,"ocity":12088,"ĠArd":12089,"Ġmaxim":12090,"ĠAdmir":12091,"ĠINMARSAT":12092,"Ġcaptured":12093,"ĠSY":12094,"ĠLot":12095,"Ġprow":12096,"ĠKar":12097,"954":12098,"Ġimpatient":12099,"Ġmarvellous":12100,"112":12101,"othes":12102,"ĠCale":12103,"abul":12104,"Ġconfirmed":12105,"ĠPerry":12106,"ĠTrade":12107,"IMON":12108,"Ġtie":12109,"ĠSapt":12110,"Ġaroused":12111,"ĠKent":12112,"0563":12113,"268":12114,"Ġtriangle":12115,"Ġcapture":12116,"ĠFlore":12117,"Ġlifting":12118,"Ġexecuted":12119,"Ġpanel":12120,"Ġmerchants":12121,"ĠSquare":12122,"Ġsuck":12123,"Ġray":12124,"ĠGall":12125,"ibia":12126,"Ġswore":12127,"536":12128,"Ġdecent":12129,"Ġthirteen":12130,"Ġmusical":12131,"Ġrejoined":12132,"Ġinquiries":12133,"Ġjaws":12134,"ĠDashwood":12135,"9243":12136,"ifications":12137,"Ġfurnish":12138,"ĠAntarctic":12139,"ĠIBM":12140,"jibouti":12141,"Ġwaving":12142,"Ġwomb":12143,"Ġmas":12144,"ĠMIST":12145,"Ġhelping":12146,"ĠWilloughby":12147,"Ġdepartments":12148,"ĠLucetta":12149,"Ġdamned":12150,"Ġredeem":12151,"iary":12152,"Ġblade":12153,"998":12154,"956":12155,"447":12156,"ĠSamoa":12157,"Ġdazz":12158,"Ġpoultry":12159,"Ġ1841":12160,"grat":12161,"ĠLanguage":12162,"Ġpupil":12163,"Ġwuz":12164,"Ġyoke":12165,"Ġalumin":12166,"Ġ1828":12167,"ONT":12168,"Ġplays":12169,"Ġauthors":12170,"ĠLadislaw":12171,"ĠFauchelevent":12172,"Ġalphabet":12173,"aver":12174,"Ġoffers":12175,"Ġestimate":12176,"Ġsurre":12177,"Ġposts":12178,"Ġanxiously":12179,"icaragua":12180,"away":12181,"ĠIceland":12182,"herent":12183,"Ġmetric":12184,"Ġpleasing":12185,"ĠJapanese":12186,"Ġvirtuous":12187,"dep":12188,"houses":12189,"Ġdug":12190,"Ġdanced":12191,"ĠCM":12192,"Ġsequ":12193,"Ġratt":12194,"Ġ1838":12195,"928":12196,"ĠStra":12197,"END":12198,"Ġstreams":12199,"Ġbelly":12200,"IGHT":12201,"Ġballoon":12202,"Ġlodging":12203,"ĠFRG":12204,"Ġabandon":12205,"Ġfeathers":12206,"Ġartificial":12207,"minded":12208,"requ":12209,"1325":12210,"Ġmeanwhile":12211,"ucky":12212,"Ġvirtues":12213,"Ġstruggling":12214,"gone":12215,"uServe":12216,"1944":12217,"Ġcanv":12218,"Ambassador":12219,"cabinet":12220,"Ġgut":12221,"aya":12222,"Ġconsec":12223,"1980":12224,"949":12225,"aneously":12226,"ĠComputer":12227,"Ġhesitation":12228,"Ġhammer":12229,"065":12230,"Ġpad":12231,"Ġener":12232,"ounted":12233,"Ġrapt":12234,"Ġdeserved":12235,"952":12236,"awi":12237,"Ġelevation":12238,"ĠGloucester":12239,"aley":12240,"Ġmotor":12241,"Ty":12242,"Ġgang":12243,"Ġ1825":12244,"Ġ1858":12245,"ĠUruguay":12246,"448":12247,"ceptible":12248,"Ġdiscretion":12249,"Ġdoubted":12250,"Ġexamples":12251,"Ġjournal":12252,"Ġprevailed":12253,"Ġgloves":12254,"ĠMadeleine":12255,"Ġtrespass":12256,"Ġsites":12257,"armed":12258,"Ġ1849":12259,"bery":12260,"Ġenvironment":12261,"Ġresolute":12262,"ereth":12263,"ETR":12264,"Ġelegant":12265,"Ġoverlook":12266,"Ġconspic":12267,"Ġimperfect":12268,">>":12269,"gins":12270,"mont":12271,"Ġhalt":12272,"riers":12273,"Ġ1812":12274,"Ġquoth":12275,"2314":12276,"Ġdestined":12277,"Ġforbear":12278,"Ġtalents":12279,"Ġvineyard":12280,"eddak":12281,"Ġtragedy":12282,"ĠAubrey":12283,"165":12284,"kina":12285,"onic":12286,"ĠJama":12287,"agers":12288,"9504":12289,"Ġsym":12290,"Ġrepresentative":12291,"Ġprevail":12292,"ĠMethod":12293,"ĠHait":12294,"ĠPER":12295,"2514":12296,"Ġstruggled":12297,"Ġchecked":12298,"utus":12299,"ulpt":12300,"Ġ1839":12301,"189":12302,"Ġproducing":12303,"Ġsubt":12304,"Ġdespise":12305,"ĠIsabella":12306,"ĠCA":12307,"ĠPlace":12308,"Ġrushing":12309,"ĠExt":12310,"Ġ1856":12311,"1077":12312,"0008":12313,"ĠLucy":12314,"Ġswallowed":12315,"ENGER":12316,"Ġvisits":12317,"thou":12318,"Ġsepul":12319,"Ġ1820":12320,"apital":12321,"Ġbliss":12322,"Ġunderground":12323,"Ġnickel":12324,"Mer":12325,"Ġ1810":12326,"ĠChin":12327,"ganized":12328,"Ġcrest":12329,"Ġsatisfactory":12330,"Ġbeliefs":12331,"New":12332,"may":12333,"Ġdies":12334,"Ġadult":12335,"Ġknowed":12336,"ĠCompuServe":12337,"Ġmonarchy":12338,"giving":12339,"Ġlunch":12340,"Ġstove":12341,"Ġstamp":12342,"ĠMet":12343,"Ġwillingly":12344,"Ġ1837":12345,"Ġadorn":12346,"878":12347,"Ġoccurs":12348,"fax":12349,"imp":12350,"ĠLater":12351,"ĠFear":12352,"941":12353,"Ġfarms":12354,"Ġconfounded":12355,"Ġcoffin":12356,"Ġacknowledged":12357,"7757":12358,"Ġadvancing":12359,"ĠAmen":12360,"ĠTil":12361,"ĠWomen":12362,"Ġwhereby":12363,"Ġindisp":12364,"Ġattained":12365,"Ġmonkey":12366,"Ġwondrous":12367,"veloped":12368,"chance":12369,"Ġassociation":12370,"ĠVincy":12371,"ĠOxford":12372,"jo":12373,"ĠWind":12374,"Ġunacc":12375,"Ġadding":12376,"Ġfaintly":12377,"Ġinvented":12378,"Ġtalent":12379,"Ġinevitable":12380,"Ġsulphur":12381,"ĠCasterbridge":12382,"Ġaboard":12383,"852":12384,"1604":12385,"Ġpencil":12386,"Ġyielded":12387,"Mrs":12388,"Ġdeer":12389,"ortions":12390,"0126":12391,"Ġveins":12392,"Ġspecialized":12393,"Ġ2933":12394,"Ġdeposits":12395,"Ġcrisis":12396,"Ġlubricants":12397,"EV":12398,"uv":12399,"wide":12400,"Ġrasc":12401,"Ġbrisk":12402,"141":12403,"Ġsurm":12404,"Ġlesser":12405,"atson":12406,"Ġuncomm":12407,"Ġsubmit":12408,"Ġreduce":12409,"Ġbondage":12410,"Ġdiscipline":12411,"Ġcu":12412,"Ġ1817":12413,"Ġlonging":12414,"Ġpolished":12415,"Ġruled":12416,"Ġfaculty":12417,"ĠIAGO":12418,"Ġmelt":12419,"Ġ1827":12420,"Ġbeggar":12421,"Ġtraitor":12422,"3095":12423,"Ġspeaker":12424,"Ġfinest":12425,"Ġdeceit":12426,"ĠTunisia":12427,"twas":12428,"Ġcows":12429,"ĠMuch":12430,"perhaps":12431,"intend":12432,"433":12433,"Ġintercourse":12434,"Ġstealth":12435,"Ġwaved":12436,"Ġordin":12437,"Ġneglected":12438,"ĠEM":12439,"Imp":12440,"eer":12441,"wet":12442,"Ġlonged":12443,"Ġconsiderably":12444,"Ġaxe":12445,"Ġconstructed":12446,"rity":12447,"Ġpatch":12448,"ĠNOT":12449,"ĠOAS":12450,"Ġagitated":12451,"Ġprominent":12452,"Ġdissolved":12453,"Ġafforded":12454,"ĠMis":12455,"ĠProvidence":12456,"aiah":12457,"ĠPL":12458,"Ġprohib":12459,"Ġ1803":12460,"Ġpeop":12461,"944":12462,"7700":12463,"9992":12464,"Ġanswers":12465,"6614":12466,"Ġdrum":12467,"Ġerrors":12468,"adelph":12469,"Ġtoken":12470,"entially":12471,"Ġgrains":12472,"Ġexpert":12473,"Ġmotives":12474,"ĠMoroni":12475,"Ġhealthy":12476,"Coast":12477,"750":12478,"Ur":12479,"ĠEsk":12480,"umps":12481,"oper":12482,"venth":12483,"Ġsentiments":12484,"ĠGuatemala":12485,"ĠBulgaria":12486,"ĠMISTRESS":12487,"101":12488,"enched":12489,"Ġtooth":12490,"Ġpuff":12491,"ĠAway":12492,"sex":12493,"Ġstain":12494,"Ġexagger":12495,"Ġpromises":12496,"ADB":12497,"Ġportions":12498,"Ġbattles":12499,"ĠFerr":12500,"ĠCard":12501,"ĠFig":12502,"Ġusage":12503,"Ġlace":12504,"849":12505,"Ġneedle":12506,"Ġmodified":12507,"Ġcrazy":12508,"ĠBoard":12509,"Ġdirt":12510,"iri":12511,"ĠCASS":12512,"third":12513,"Ġliable":12514,"Ġdecree":12515,"Ġcorpor":12516,"Ġwrest":12517,"omuch":12518,"ĠTown":12519,"Ġwashing":12520,"ĠLow":12521,"1586":12522,"ĠCommittee":12523,"Ġbonds":12524,"Ġaffections":12525,"Ġmunicip":12526,"Ġsubdued":12527,"Ġbother":12528,"--\"":12529,"Ġunl":12530,"ĠInformation":12531,"1822":12532,"475":12533,"ĠConc":12534,"Ġoccupy":12535,"Ġunfold":12536,"Ġperplex":12537,"ĠDoes":12538,"ĠShakespeare":12539,"Ġgallery":12540,"ĠTanzania":12541,"Take":12542,"uh":12543,"heard":12544,"Ġdashed":12545,"ĠIOM":12546,"Ġ1823":12547,"Ġ1807":12548,"Ġremedy":12549,"2394":12550,"Ġcontinual":12551,"Ġhenceforth":12552,"ĠBaal":12553,"Ġbonnet":12554,"Ġindefinite":12555,"ĠWinterbourne":12556,"Ġdownward":12557,"Ġvacancy":12558,"ĠHold":12559,"8565":12560,"8264":12561,"Ġdevotion":12562,"bal":12563,"Ġsam":12564,"Ġom":12565,"Ġ1819":12566,"9424":12567,"1335":12568,"Ġterrified":12569,"457":12570,"ographic":12571,"ĠEgyptian":12572,"ĠSamaria":12573,"ĠMartha":12574,"Arnot":12575,"ĠROSAL":12576,"ĠCoggan":12577,"ĠBapt":12578,"roups":12579,"Ġinduced":12580,"Ġputs":12581,"Ġdestiny":12582,"Ġdesertification":12583,"ĠOTHELLO":12584,"gomery":12585,"Ġunnecessary":12586,"Nor":12587,"raine":12588,"ĠProp":12589,"Ġworry":12590,"Ġamiable":12591,"iaw":12592,"2284":12593,"Ġinclination":12594,"Ġamidst":12595,"Ġinterpretation":12596,"jol":12597,"ĠIX":12598,"Ġbeans":12599,"Ġ1829":12600,"Ġunemployment":12601,"0161":12602,"9144":12603,"Ġtransg":12604,"Ġreasoning":12605,"ĠJeho":12606,"Ġfloated":12607,"Ġinvention":12608,"Ġsprung":12609,"Ġdatabase":12610,"Ġsepulch":12611,"ĠMem":12612,"ĠJourn":12613,"Ġcanoe":12614,"Ġnowhere":12615,"Ġswinging":12616,"Ġdeputy":12617,"Ġcopies":12618,"088":12619,"fashion":12620,"ĠPearl":12621,"ĠDaw":12622,"Ġalien":12623,"Ġexpans":12624,"ĠAustralian":12625,"Ġftp":12626,"ĠBolivia":12627,"Ġcoo":12628,"Ġfoes":12629,"Ġpulp":12630,"Ġnour":12631,"Ġmanager":12632,"9295":12633,"ĠIsh":12634,"1625":12635,"Ġsweep":12636,"ĠEgyptians":12637,"Ġstrictly":12638,"Manch":12639,"Ġhail":12640,"ĠSet":12641,"union":12642,"Ġspin":12643,"ĠUrs":12644,"Ġremorse":12645,"Ġmarkets":12646,"Ġarguments":12647,"otype":12648,"Manchu":12649,"AIL":12650,"Ġsinking":12651,"iage":12652,"Ġcourtesy":12653,"CP":12654,"dis":12655,"Ġbudget":12656,"Ġinland":12657,"Ġheath":12658,"Ġ1822":12659,"Ġ1809":12660,"Ġchronic":12661,"631":12662,"ĠWhom":12663,"534":12664,"Ġminerals":12665,"nothing":12666,"Ġafflicted":12667,"Ġeagle":12668,"imore":12669,"Ġrash":12670,"ressing":12671,"ĠDev":12672,"Ġboot":12673,"666":12674,"Ġhopeless":12675,"Ġprotected":12676,"Ġtyrant":12677,"Government":12678,"ĠWE":12679,"830":12680,"260":12681,"ENS":12682,"Ġemail":12683,"iawatha":12684,"itations":12685,"Ġdiam":12686,"ules":12687,"ĠPA":12688,"abe":12689,"1913":12690,"Ġ1801":12691,"537":12692,"Ġ1780":12693,"Ġembro":12694,"ĠNicholl":12695,"Ġfertiliz":12696,"Ġmask":12697,"Ġfaster":12698,"Ġhaught":12699,"lex":12700,"âĢĿ;":12701,"Ġprosec":12702,"1300":12703,"838":12704,"Ġcontinues":12705,"Ġcontrolled":12706,"ĠWarwick":12707,"ĠSilver":12708,"Ġnewspapers":12709,"eches":12710,"utral":12711,"ĠGib":12712,"ĠEdu":12713,"ĠJOH":12714,"Ġinspired":12715,"Life":12716,"dem":12717,"gal":12718,"gment":12719,"oft":12720,"atu":12721,"ĠAid":12722,"9357":12723,"7717":12724,"Ġslumber":12725,"8394":12726,"Ġconfer":12727,"laws":12728,"Ġcomprehens":12729,"Ġfragments":12730,"Ġchloride":12731,"ĠPapua":12732,"Ġbeverages":12733,"UE":12734,"Ġpp":12735,"ithuan":12736,"0082":12737,"Ġconception":12738,"unci":12739,"Ġthanked":12740,"otho":12741,"Ġdevour":12742,"Ġdriver":12743,"ĠGreeks":12744,"Ġhoping":12745,"Ġmurderer":12746,"DC":12747,"Ġdates":12748,"them":12749,"Ġrecorded":12750,"orney":12751,"Ġporter":12752,"olas":12753,"Ġ1824":12754,"Ġsmiles":12755,"2426":12756,"8755":12757,"Ġlasted":12758,"160":12759,"Ġkindled":12760,"Ġbrake":12761,"Ġstudying":12762,"Thou":12763,"ĠAngola":12764,"Ġcigar":12765,"ĠHalf":12766,"ĠHebrew":12767,"ĠLanka":12768,"Se":12769,"Ġreaction":12770,"778":12771,"archy":12772,"6165":12773,"Ġstatute":12774,"Ġlucky":12775,"Ġdefeated":12776,"hind":12777,"Ġuniverse":12778,"Ġroaring":12779,"Ġindicate":12780,"Ġpassages":12781,"ĠBecky":12782,"Ġdetached":12783,"Ġpushing":12784,"Ġnort":12785,"Ġanalog":12786,"think":12787,"ĠFL":12788,"ĠRock":12789,"Ġchill":12790,"cled":12791,"9427":12792,"interest":12793,"898":12794,"4353":12795,"Ġneedn":12796,"Ġbarn":12797,"ucid":12798,"Ġlimestone":12799,"Ġcomplain":12800,"ĠAssyria":12801,"Ġtriumphant":12802,"ĠArdan":12803,"Ġplot":12804,"Ġpassengers":12805,"2701":12806,"Ġdrowned":12807,"Ġpunished":12808,"Ġherd":12809,"1526":12810,"Ġ1792":12811,"Ġcharges":12812,"ĠBangladesh":12813,"Air":12814,"ĠClement":12815,"ĠHot":12816,"ĠUAE":12817,"7224":12818,"ĠPhiladelph":12819,"ĠCompany":12820,"Ġviolently":12821,"Ġpillow":12822,"east":12823,"girl":12824,"Death":12825,"Ġfilling":12826,"Ġepoch":12827,"Ġglittering":12828,"Ġbald":12829,"1039":12830,"9343":12831,"158":12832,"Ġjustify":12833,"Communications":12834,"Ġau":12835,"Ġdarling":12836,"Ġnought":12837,"ĠIDB":12838,"Ġdeceive":12839,"ĠPop":12840,"ĠFix":12841,"Ġsculpt":12842,"8507":12843,"Ġrecomp":12844,"Ġsunny":12845,"Ġstatue":12846,"Ġtemptation":12847,"Ġmechanical":12848,"Ġtransferred":12849,"green":12850,"lay":12851,"ĠWatson":12852,"Ġ1816":12853,"8225":12854,"ĠLeft":12855,"Ġillumin":12856,"ĠMontgomery":12857,"Ġsupplies":12858,"Ġtranslated":12859,"burgh":12860,"ĠMESSENGER":12861,"Ġduck":12862,"riend":12863,"939":12864,"Ġmonument":12865,"minster":12866,"Ġdigital":12867,"Ġapprehension":12868,"PA":12869,"Ġted":12870,"Ġwholes":12871,"Ġanointed":12872,"ĠBY":12873,"Ġvener":12874,"Ġ1808":12875,"Ġblasp":12876,"Ġcarpent":12877,"Ġ1796":12878,"Ġmaids":12879,"Ġsweat":12880,"Ġstrip":12881,"ĠCarter":12882,"zzar":12883,"ĠMartians":12884,"Ġpromptly":12885,"ĠPlease":12886,"_âĢĶ":12887,"god":12888,"ĠDa":12889,".).":12890,"anguage":12891,"Ġsettlement":12892,"Ġboldly":12893,"ĠThuvia":12894,"ĠHiawatha":12895,"ĠNile":12896,"ĠFollow":12897,"0106":12898,"221":12899,"3427":12900,"mouth":12901,"Ġbite":12902,"ĠTz":12903,"ĠCuff":12904,"ĠPil":12905,"ĠPhar":12906,"Ġorange":12907,"Ġ1811":12908,"cian":12909,"ciences":12910,"Ġappare":12911,"Ġopenly":12912,"chamber":12913,"ĠLeon":12914,"ĠReligion":12915,"Ġuneas":12916,"Ġabundant":12917,"================":12918,"onement":12919,"Ġmix":12920,"anted":12921,"Ġshapes":12922,"Ġimplement":12923,"Ġstirring":12924,"spring":12925,"Ġferv":12926,"ĠGENT":12927,"Ġsoj":12928,"1464":12929,"238":12930,"Ġheartily":12931,"Ġburd":12932,"Ġeighty":12933,"ĠDominican":12934,"Ġnomin":12935,"ĠPost":12936,"ĠFur":12937,"mann":12938,"Ġinspect":12939,"Ġlearnt":12940,"Ġsecretly":12941,"ĠArabs":12942,"Ġcandles":12943,"Ġinjured":12944,"Ġbehavi":12945,"Ġratified":12946,"Ġfabrics":12947,"Ġalcohol":12948,"ĠHezekiah":12949,"Ġtact":12950,"Ġpest":12951,"Ġ1818":12952,"9042":12953,"inkle":12954,"Ġtrous":12955,"Ġincap":12956,"Ġloaded":12957,"Ġwinding":12958,"ĠMali":12959,"Ġtowers":12960,"BY":12961,"ioned":12962,"Ġseasons":12963,"508":12964,"ĠBelgian":12965,"Eth":12966,"GDP":12967,"nor":12968,"Ġpaces":12969,"ĠSic":12970,"addy":12971,"ĠMam":12972,"ĠHou":12973,"Ġtwisted":12974,"6562":12975,"Ġ150":12976,"INA":12977,"Ġcrimes":12978,"Ġcasting":12979,"Ġconfession":12980,"Ġcellar":12981,"Ġcalculated":12982,"Only":12983,"Ġpupils":12984,"Ġbridle":12985,"Ġrecipient":12986,"Ġlent":12987,"ĠTri":12988,"Ġstores":12989,"1573":12990,"881":12991,"Ġ1700":12992,"ĠPalace":12993,"Ġsolemnly":12994,"ĠActon":12995,"ĠANTONY":12996,"Coastline":12997,"ĠHEL":12998,"9508":12999,"6804":13000,"7667":13001,"ĠGENTLE":13002,"general":13003,"iry":13004,"ĠLay":13005,"rescent":13006,"ĠRio":13007,"Ġ1826":13008,"Ġworm":13009,"Ġcannon":13010,"Ġdishes":13011,"7790":13012,"uben":13013,"Ġtransition":13014,"Ġadvised":13015,"ĠLevi":13016,"ĠCarm":13017,"Ġerosion":13018,"OG":13019,"got":13020,"ht":13021,"Ġineff":13022,"Ġsullen":13023,"Ġpeep":13024,"Ġextingu":13025,"ĠJersey":13026,"ija":13027,"enter":13028,"Ġcongrat":13029,"0575":13030,"Ġcircular":13031,"Ġparticulars":13032,"Ġpraised":13033,"9918":13034,"IER":13035,"Natural":13036,"lour":13037,"run":13038,"Ġreass":13039,"ĠSri":13040,"ĠSem":13041,"ĠMob":13042,"abis":13043,"inton":13044,"1599":13045,"Ġpersisted":13046,"Ġ1793":13047,"ESD":13048,"Ġwildly":13049,"Ġvalour":13050,"Ġcoup":13051,"Ġpulling":13052,"Ġvacant":13053,"Maritime":13054,"Ġworshipped":13055,"Ġgit":13056,"ĠSix":13057,"6465":13058,"ĠScar":13059,"...................................":13060,"ĠAntig":13061,"Ġhanged":13062,"asmuch":13063,"Ġolive":13064,"Geography":13065,"Bissau":13066,"terior":13067,"ĠOften":13068,"Ġjury":13069,"8396":13070,"161":13071,"Ġsections":13072,"ĠCosta":13073,"arity":13074,"peak":13075,"ĠNear":13076,"Ġscared":13077,"171":13078,"Ġ1790":13079,"Ġskins":13080,"Ġprett":13081,"Ġeyeb":13082,"Ġinterpre":13083,"Ġdeliberately":13084,"Ġtraveller":13085,"Some":13086,"ĠPot":13087,"Ġample":13088,"436":13089,"Ġregional":13090,"terson":13091,"3118":13092,"Ġbounds":13093,"Ġboxes":13094,"Ġpacked":13095,"Ġgrieved":13096,"Ġcorresponding":13097,"ĠAnnie":13098,"itative":13099,"Ġkin":13100,"Ġpreacher":13101,"8834":13102,"Ġmonot":13103,"bus":13104,"hack":13105,"Ġpoo":13106,"Ġly":13107,"0026":13108,"Ġshrie":13109,"Ġrobe":13110,"Ġhandful":13111,"ĠInc":13112,"Ġthoughtful":13113,"3393":13114,"ĠNorwe":13115,"Ġtravelled":13116,"equeg":13117,"Ġfeeding":13118,"Ġswallow":13119,"Ġconcentrated":13120,"Ġrejected":13121,"ĠUganda":13122,"102":13123,"ĠPope":13124,"ĠNicaragua":13125,"649":13126,"1768":13127,"557":13128,"ALL":13129,"ĠPra":13130,"ĠGhana":13131,"Ġthereon":13132,"Ġorganizations":13133,"ĠSuper":13134,"buck":13135,"life":13136,"rap":13137,"Ġlecture":13138,"Ġ1805":13139,"Ġju":13140,"179":13141,"2490":13142,"---------":13143,"4815":13144,"OUCESTER":13145,"Ġsummoned":13146,"Ġcosts":13147,"Ġsovereig":13148,"essie":13149,"ĠWalk":13150,"ĠJUL":13151,"930":13152,"1272":13153,"version":13154,"ENET":13155,"ĠBaltimore":13156,"upt":13157,"ĠBring":13158,"ĠLast":13159,"Ġrises":13160,"Ġblown":13161,"ĠRec":13162,"ĠEskimo":13163,"Was":13164,"yards":13165,"Ġthrees":13166,"ĠSn":13167,"rians":13168,"Ġsung":13169,"Ġ1804":13170,"Ġchuck":13171,"929":13172,"2277":13173,"Ġprior":13174,"Ġ2008":13175,"9858":13176,"Climate":13177,"ui":13178,"Ġcream":13179,"Ġresort":13180,"858":13181,"8412":13182,"ANS":13183,"5090":13184,"Ġbodily":13185,"Economy":13186,"Ġtelegraph":13187,"ĠMauritius":13188,"@_":13189,"dess":13190,"ĠDjibouti":13191,"Ġtraversed":13192,"Ġyoungest":13193,"Ġtextile":13194,"Ġfavorite":13195,"Ġundertake":13196,"ĠHISPAN":13197,"ĠHonduras":13198,"Every":13199,"Ġhire":13200,"ĠGor":13201,"ĠOAU":13202,"0250":13203,"Ġgrind":13204,"Ġrand":13205,"2592":13206,"859":13207,"Ġchannel":13208,"Ġhappier":13209,"ormand":13210,"Ġmountainous":13211,"Ġtracks":13212,"aguay":13213,"Ġtrumpets":13214,"ĠAbsal":13215,"ĠGLOUCESTER":13216,"Terrain":13217,"Ġafar":13218,"Ġgam":13219,"ilful":13220,"Ġflowing":13221,"2075":13222,"these":13223,"8590":13224,"5594":13225,"Ġrepresenting":13226,"umerable":13227,"Ġidols":13228,"Ġdescending":13229,"ĠFaith":13230,"Ġshriek":13231,"post":13232,"inge":13233,"otic":13234,"Ġstare":13235,"riental":13236,"ĠWAR":13237,"Ġelectron":13238,"bai":13239,"Ġfox":13240,"urable":13241,"ĠMAN":13242,"0042":13243,"0231":13244,"Ġquaint":13245,"2505":13246,"Ġslack":13247,"Ġtramp":13248,"555":13249,"Ġidol":13250,"barry":13251,"Ġrepublics":13252,"Ġfantastic":13253,"Overview":13254,"ĠPhiladelphia":13255,"1930":13256,"reek":13257,"olland":13258,"2056":13259,"liest":13260,"unto":13261,"Ġmeetings":13262,"ĠUtterson":13263,"ĠRich":13264,"Ġ_@_":13265,"8886":13266,"5364":13267,"Ġassass":13268,"4697":13269,"167":13270,"PL":13271,"Ġowed":13272,"raint":13273,"ĠPoll":13274,"ĠGad":13275,"Ġ1813":13276,"8419":13277,"Ġretorted":13278,"4512":13279,"Ġadvise":13280,"Ġplacing":13281,"Ġprinting":13282,"Ġsplit":13283,"Ġcliffs":13284,"BL":13285,"Ġtops":13286,"Ġhem":13287,"Ġoverfl":13288,"Ġindirect":13289,"880":13290,"Ġhasty":13291,"Ġdrown":13292,"Ġresemblance":13293,"Comparative":13294,"Ġwolf":13295,"Ġagents":13296,"9150":13297,"Ġsickness":13298,"Ġmalice":13299,"Ġ----------------------------------------------------":13300,"Jud":13301,"heth":13302,"ĠMax":13303,"ĠPublic":13304,"Ġmans":13305,"agan":13306,"Ġpartner":13307,"Ġswam":13308,"atching":13309,"ĠJudas":13310,"ADY":13311,"cope":13312,"Ġadjo":13313,"ĠMontbarry":13314,"Ġbordering":13315,"Ġattending":13316,"territory":13317,"phan":13318,"Ġfren":13319,"Ġpaw":13320,"ĠTop":13321,"cius":13322,"ĠWhatever":13323,"5824":13324,"Ġconvince":13325,"Ġliterally":13326,"acant":13327,"lau":13328,"Ġglowing":13329,"Ġchildish":13330,"Ġ1791":13331,"ĠRomans":13332,"Ġinsect":13333,"Ġdoings":13334,"Ġ1802":13335,"Ġunsu":13336,"Ġjolly":13337,"Ġquitted":13338,"0381":13339,"Ġcoinc":13340,"Ġvexed":13341,"ustrious":13342,"Ġgasped":13343,"9896":13344,"Ġincredible":13345,"Ġincorpor":13346,"Ġgreed":13347,"ctica":13348,"Ġweird":13349,"ĠBudd":13350,"1061":13351,"ĠStubb":13352,"Ġbelieving":13353,"4214":13354,"3985":13355,"Ġcivilized":13356,"ĠCompare":13357,"Ġconcerns":13358,"Ġdismal":13359,"ĠUrsula":13360,"%_":13361,"Ġ_%_":13362,"Ġconvuls":13363,"ĠVerde":13364,"Ġvelvet":13365,"must":13366,"rades":13367,"Ġcel":13368,"ĠMIT":13369,"Ġrational":13370,"Ġshan":13371,"Ġrags":13372,"otta":13373,"Ġsimult":13374,"Ġpropriety":13375,"Ġcircuit":13376,"ĠIndependent":13377,"Ġradi":13378,"Ġsprings":13379,"Ġprosperous":13380,"Ġforbidden":13381,"Ġboughs":13382,"Ġbehaviour":13383,"Sp":13384,"Ġber":13385,"udder":13386,"Ġflies":13387,"Ġinduce":13388,"4465":13389,"Ġbreed":13390,"Ġ1797":13391,"Ġdraught":13392,"6814":13393,"Ġanti":13394,"ova":13395,"ĠBurkina":13396,"uscript":13397,"899":13398,"iolet":13399,"Ġsouthwest":13400,"Ġtribute":13401,"Ġvigor":13402,"Ġluxury":13403,"2857":13404,"heart":13405,"Ġwagon":13406,"asper":13407,"Ġhealed":13408,"Ġumbre":13409,"Ġchapel":13410,"432":13411,"Ġ1795":13412,"Ġwidth":13413,"ĠFarebrother":13414,"Ġtut":13415,"Ġexult":13416,"otting":13417,"Ġ1799":13418,"Ġ1798":13419,"Ġrealm":13420,"7485":13421,"9895":13422,"ĠBaptist":13423,"lea":13424,"ĠCLE":13425,"Ġbenevol":13426,"ĠEmperor":13427,"ĠFarewell":13428,"âĪĴâĪĴ":13429,"5872":13430,"|,":13431,"ini":13432,"Ġbou":13433,"Ġpip":13434,"ĠCop":13435,"Ġalert":13436,"Ġpoly":13437,"Ġbrim":13438,"Ġinsomuch":13439,"Ġfunctions":13440,"Ġpurely":13441,"ĠECA":13442,"Ġvegetation":13443,"Ġcells":13444,"ĠAlbania":13445,"Ġcoaxial":13446,"XX":13447,"ĠGran":13448,"ĠEt":13449,"aste":13450,"Ġshaft":13451,"Ġdisaster":13452,"6320":13453,"9603":13454,"4083":13455,"Ġcolumns":13456,"Ġwritings":13457,"onymous":13458,"Ġwage":13459,"ĠTel":13460,"ĠTrist":13461,"ĠFox":13462,"Ġshove":13463,"Ġshrew":13464,"Ġspots":13465,"Ġconsulate":13466,"7762":13467,"Ġslipp":13468,"3361":13469,"Ġcommander":13470,"Ġcorruption":13471,"Ġvaried":13472,"ĠMadam":13473,"Ġvictor":13474,"ĠXXV":13475,"jolras":13476,"Ġlocks":13477,"ĠMach":13478,"ĠNon":13479,"ĠRus":13480,"9486":13481,"969":13482,"Ġlawful":13483,"Ġshades":13484,"ĠHOUSE":13485,"Ġcontempor":13486,"Ġdreaming":13487,"load":13488,"Ġunreason":13489,"5244":13490,"Population":13491,"Ġcav":13492,"asping":13493,"Ġreception":13494,"Ġstu":13495,"ĠGables":13496,"ĠOman":13497,"Ġ1750":13498,"ĠTHAT":13499,"Ġrebu":13500,"Ġaffectionate":13501,"Ġdominion":13502,"IES":13503,"Ġmouse":13504,"Ġpear":13505,"ĠTor":13506,"ĠGre":13507,"Ġhostile":13508,"ĠGarland":13509,"Ġbewildered":13510,"Ġabuse":13511,"070":13512,"ĠBeyond":13513,"shire":13514,"ieties":13515,"-(":13516,"bers":13517,"Ġaug":13518,"Ġwig":13519,"Ġcant":13520,"Ġheel":13521,"Ġreverse":13522,"ĠOEC":13523,"Ġraiment":13524,"ocal":13525,"079":13526,"2296":13527,"ENCE":13528,"4728":13529,"Ġresulted":13530,"Ġrevenue":13531,"ĠMiddlemarch":13532,"Ġanatom":13533,"Ġdelicacy":13534,"ĠEmpire":13535,"Ġtom":13536,"ĠAut":13537,"romise":13538,"ĠFive":13539,"ĠEV":13540,"958":13541,"4496":13542,"Ġterribly":13543,"Ġ1720":13544,"Ġinvari":13545,"ĠAppe":13546,"Ġsubmitted":13547,"Ġimperial":13548,"ĠCambridge":13549,"writing":13550,"their":13551,"Ġsnatched":13552,"ĠColumb":13553,"fashioned":13554,"3254":13555,"wear":13556,"ĠCove":13557,"Ġsphere":13558,"9031":13559,"Ġmustn":13560,"icals":13561,"Ġassigned":13562,"Ġliveth":13563,"Ġbarrier":13564,"Ġhorsemen":13565,"Ġattempting":13566,"Ġdepended":13567,"hoist":13568,"Ġhazard":13569,"Ġ1770":13570,"ĠCat":13571,"Ġharder":13572,"2298":13573,"shot":13574,"chess":13575,"ĠAllan":13576,"Ġprobability":13577,"ĠSwiss":13578,"Ġspending":13579,"0955":13580,"Ġawaiting":13581,"Ġmirth":13582,"ĠRica":13583,"ctures":13584,"Ġnotions":13585,"ĠHaz":13586,"Ġ400":13587,"2051":13588,"Ġchanced":13589,"ĠAfro":13590,"7627":13591,"Ġcopra":13592,"Ġrocky":13593,"ĠFlor":13594,"Ġdemands":13595,"naments":13596,"ĠFairfax":13597,"8151":13598,"ĠUtter":13599,"ĠCaleb":13600,"Ġsovereignty":13601,"making":13602,"ĠCross":13603,"ranium":13604,"4599":13605,"ceives":13606,"Ġsinister":13607,"Ġgateway":13608,"ĠChannel":13609,"Ġrevolt":13610,"Ġvigorous":13611,"Ġrepentance":13612,"Ġquantities":13613,"Ġirresist":13614,"RAC":13615,"ĠSla":13616,"1983":13617,"Ġspecially":13618,"Ġimmortal":13619,"bad":13620,"kels":13621,"ĠFederation":13622,"Ġornaments":13623,"aple":13624,"Ġcarc":13625,"Ġconfeder":13626,"ONG":13627,"Ġcrash":13628,"ĠSao":13629,"ĠSchool":13630,"Ġcultivation":13631,"Ġbundle":13632,"Ġmeth":13633,"Ġfangs":13634,"Ġ125":13635,"ainty":13636,"Ġunnatural":13637,"4458":13638,"Ġ1740":13639,"4086":13640,"Ġaccounted":13641,"Ġdevices":13642,"Ġsorrows":13643,"Ġexperiences":13644,"Ġcontinuing":13645,"Ġcircles":13646,"Ġunwilling":13647,"869":13648,"undi":13649,"456":13650,"4754":13651,"Ġinsens":13652,"Ġeditor":13653,"Ġeagerness":13654,"Ġrecommended":13655,"Ġattributed":13656,"%.":13657,"Ġcyl":13658,"lech":13659,"Ġthieves":13660,"Ġkil":13661,"Ġshrill":13662,"Ġunkind":13663,"8871":13664,"enery":13665,"ĠIsraeli":13666,"Ġsecondary":13667,"3102":13668,"ĠEnjolras":13669,"ĠCarol":13670,"Ġpainter":13671,"Tele":13672,"Ġdesirous":13673,"Type":13674,"hole":13675,"pre":13676,"Ġetern":13677,"ĠTex":13678,"Ġintol":13679,"671":13680,"Ġcarved":13681,"Ġsyll":13682,"Ġpublication":13683,"Ġmagnet":13684,"IRD":13685,"Ġtranslation":13686,"Ġcautiously":13687,"walk":13688,"alling":13689,"Ġvoid":13690,"Ġendless":13691,"Ġphilosopher":13692,"nut":13693,"name":13694,"vior":13695,"Ġdine":13696,"Ġlung":13697,"âĢĻ,":13698,"umm":13699,"Ġtherewith":13700,"ANIO":13701,"ĠAllen":13702,"ĠAleut":13703,"Ġcloudy":13704,"Ġvegetable":13705,"ĠCountess":13706,"Ġidentity":13707,"6969":13708,"ĠSummerlee":13709,"came":13710,"Ġspared":13711,"8781":13712,"Ġacute":13713,"Ġhappily":13714,"Ġ1690":13715,"Ġmemories":13716,"ĠBOOK":13717,"ĠBig":13718,"Ġfare":13719,"Ġpapa":13720,"Ġsurprising":13721,"Ġloudly":13722,"Ġlodge":13723,"ĠJOHN":13724,"fare":13725,"ÅŃ":13726,"athetic":13727,"Ġhered":13728,"Ġnut":13729,"Ġnerve":13730,"stead":13731,"ĠBEN":13732,"ĠGU":13733,"191":13734,"lesiast":13735,"Ġrecovery":13736,"Ġdifferences":13737,"Ġhardware":13738,"ĠICC":13739,"9947":13740,"9949":13741,"Ġabominations":13742,"ĠTzÅŃ":13743,"Ġ120":13744,"ĠLithuan":13745,"ildren":13746,"1568":13747,"968":13748,"7994":13749,"Ġconquest":13750,"Ġstooped":13751,"psed":13752,"1894":13753,"Ġpretended":13754,"Ġhurled":13755,"Ġdisguise":13756,"Ġconspicuous":13757,"5634":13758,"horn":13759,"Ġsoutheast":13760,"Ġhinder":13761,"Ġanon":13762,"ifies":13763,"ĠDON":13764,"Ġchrom":13765,"1231":13766,"bek":13767,"ĠZambia":13768,"4265":13769,"Ġgroan":13770,"ĠChurchill":13771,"Ġdominated":13772,"Ġprophesy":13773,"Ġisolated":13774,"uate":13775,"word":13776,"acha":13777,"888":13778,"Ġtragic":13779,"Ġprojects":13780,"Ġadmirable":13781,"pherds":13782,"Ġanalysis":13783,"Ġexchanged":13784,"ĠGENTLEMAN":13785,"aum":13786,"stra":13787,"iders":13788,"Ġrural":13789,"Ġexclamation":13790,"ĠStud":13791,"ERE":13792,"Ġregards":13793,"ĠLibrary":13794,"ambeau":13795,"ĠFiji":13796,"9103":13797,"Di":13798,"wr":13799,"Ġscept":13800,"escrib":13801,"Ġdarted":13802,"ilton":13803,"ĠErik":13804,"unce":13805,"ĠRush":13806,"Ġclust":13807,"ials":13808,"Ġ1794":13809,"Ġrefining":13810,"3080":13811,"Ġmessengers":13812,"1130":13813,"Ġresponded":13814,"associ":13815,"sac":13816,"itiz":13817,"ĠTree":13818,"259":13819,"978":13820,"5328":13821,"Ġoppression":13822,"iques":13823,"Ġkeys":13824,"Ġexhaust":13825,"8149":13826,"Ġdisdain":13827,"Ġtrousers":13828,"ĠCra":13829,"ĠPenn":13830,"Ġsemi":13831,"ĠAvon":13832,"Ġconsolation":13833,"3274":13834,"High":13835,"apped":13836,"itively":13837,"Ġfanc":13838,"lde":13839,"thirds":13840,"ĠWoe":13841,"velope":13842,"Ġstrait":13843,"chem":13844,"Ġsalts":13845,"ĠCharl":13846,"Ġfurnace":13847,"Ġcathed":13848,"ĠAlexandria":13849,"8126":13850,"0968":13851,"Ġdismissed":13852,"ĠMall":13853,"ĠCIT":13854,"osh":13855,"ĠJohnson":13856,"Ġprogramm":13857,"Ġpacket":13858,"Ġpicturesque":13859,"8242":13860,"Ġforsaken":13861,"ĠSweet":13862,"ĠFY":13863,"1900":13864,"ITE":13865,"Ġverd":13866,"Ġcatching":13867,"Lead":13868,"LAC":13869,"lost":13870,"rusted":13871,"wanda":13872,"Ġsom":13873,"Ġpop":13874,"ĠCS":13875,"eling":13876,"ophy":13877,"Ġalk":13878,"Ġaloft":13879,"Ġpeasant":13880,"Ġdiscrim":13881,"Ġdelicious":13882,"Ġmetall":13883,"Ġbestow":13884,"609":13885,"ĠLeone":13886,"chelles":13887,"0811":13888,"Ġradiant":13889,"Ġeastward":13890,"6278":13891,"ĠSurin":13892,"Economic":13893,"Ġexercised":13894,"Ġstubborn":13895,"Ġindependents":13896,"lyn":13897,"ĠFal":13898,"7426":13899,"Ġbrightness":13900,"Ġsuspicious":13901,"Ġrubbed":13902,"colored":13903,"083":13904,"ĠSally":13905,"ĠMine":13906,"442":13907,"ĠPhile":13908,"4037":13909,"9857":13910,"bet":13911,"Ġbunch":13912,"Ġlakes":13913,"imately":13914,"Ġatonement":13915,"ĠOIC":13916,"ĠRub":13917,"Ġnostri":13918,"Ġswitch":13919,"Ġhurric":13920,"Ġridge":13921,"Ġenclosure":13922,"3861":13923,"ĠTilney":13924,"Ġnostrils":13925,"hoe":13926,"Ġ1670":13927,"Ġsupposing":13928,"574":13929,"3736":13930,"Ġprotested":13931,"Ġinnumerable":13932,"ĠJamaica":13933,"sa":13934,"ĠME":13935,"ĠGambia":13936,"1984":13937,"Ġintroduce":13938,"6271":13939,"4012":13940,"pur":13941,"Ġmons":13942,"ĠBus":13943,"ĠPH":13944,"Ġdoeth":13945,"Ġalb":13946,"Ġindescrib":13947,"Ġfirstborn":13948,"Ġimpuls":13949,"Ġplanet":13950,"ĠQueequeg":13951,"Ġkingdoms":13952,"Ġcousins":13953,"Ġsodium":13954,"dale":13955,"rown":13956,"Ġknot":13957,"inkling":13958,"Ġflush":13959,"feit":13960,"ĠMalawi":13961,"EDER":13962,"ĠMauritania":13963,"ĠBaroness":13964,"natured":13965,"aments":13966,"ĠNort":13967,"ĠUpper":13968,"476":13969,"Ġhairy":13970,"ĠGuyana":13971,"9657":13972,"YS":13973,"Ġtub":13974,"enormand":13975,"ĠCL":13976,"Ġalloy":13977,"Ġneutral":13978,"Ġbron":13979,"Ġsynt":13980,"455":13981,"ĠReal":13982,"holders":13983,"Ġcrooked":13984,"Exchange":13985,"Ġforgiven":13986,"ĠAnton":13987,"Ġdecidedly":13988,"Ġcoalition":13989,"Ġbills":13990,"3145":13991,"ĠGentle":13992,"lan":13993,"ĠChange":13994,"Ġsailing":13995,"Ġplane":13996,"Ġglob":13997,"444":13998,"Ġearthquakes":13999,"6233":14000,"Ġthankful":14001,"Am":14002,"BYEAR":14003,"Certainly":14004,"rete":14005,"Ġbred":14006,"Ġmos":14007,"ameless":14008,"ĠHewet":14009,"Ġknitted":14010,"Ġtwins":14011,"Ġsmitten":14012,"Ġattraction":14013,"Ġrightly":14014,"Ġmomentary":14015,"Ġloins":14016,"Ġviewed":14017,"Ġguardian":14018,"ĠRosanna":14019,"5537":14020,"His":14021,"inine":14022,"Ġomn":14023,"ĠIvan":14024,"Ġeh":14025,"ĠDisc":14026,"Ġintensity":14027,"Ġquart":14028,"Ġcolony":14029,"ĠTechn":14030,"Ġenjoying":14031,"Poor":14032,"haired":14033,"Ġcate":14034,"ĠBoy":14035,"Ġtemples":14036,"ĠFlambeau":14037,"Ġbaptized":14038,"2904":14039,"3445":14040,"5250":14041,"7676":14042,"8111":14043,"?_":14044,"bation":14045,"pon":14046,"inating":14047,"esc":14048,"ĠCensus":14049,"ĠHirst":14050,"quer":14051,"cile":14052,"Ġperception":14053,"Ġcoin":14054,"Ġgramm":14055,"269":14056,"UST":14057,"Ġinfirm":14058,"Ġstraightway":14059,"Ġbullock":14060,"Ġreflections":14061,"Ġcycl":14062,"ĠKeep":14063,"Ġparliamentary":14064,"ĠAbsalom":14065,"Ġcush":14066,"Ġlil":14067,"ORUS":14068,"Ġscrib":14069,"Ġrepuls":14070,"Ġcontrovers":14071,"Ġreveal":14072,"Ġfrankly":14073,"ĠAntarctica":14074,"Ġonward":14075,"Ġusur":14076,"merald":14077,"Ġminim":14078,"Ġconquered":14079,"Ġdreary":14080,"3921":14081,"6633":14082,"Capital":14083,"WARD":14084,"uble":14085,"rea":14086,"inged":14087,"Ġlumber":14088,"icles":14089,"ĠSierra":14090,"ĠHand":14091,"Ġorg":14092,"Ġwouldst":14093,"Ġexpensive":14094,"azar":14095,"Ġhardened":14096,"Ġpayment":14097,"ĠGROW":14098,"Ġcouch":14099,"Ġiniquities":14100,"**********":14101,"Ġlatest":14102,"6968":14103,"Ġpigs":14104,"Constitution":14105,"Ġapparel":14106,"eur":14107,"ĠLar":14108,"ĠRand":14109,"ordinate":14110,"Ġtraced":14111,"Ġextending":14112,"Ġpersonality":14113,"ĠNorfolk":14114,"Ġadjust":14115,"Ġexhibited":14116,"ĠLambeth":14117,"Ġmathematic":14118,"gard":14119,"Ġproviding":14120,"Ġcheerfully":14121,"2935":14122,"7841":14123,"Labor":14124,"isms":14125,"Ġincess":14126,"Ġgotten":14127,"ĠSign":14128,"Ġknave":14129,"Ġrosy":14130,"ĠThird":14131,"neath":14132,"960":14133,"Ġcurve":14134,"Ġambass":14135,"2941":14136,"ĠCroat":14137,"Ġprejudice":14138,"ĠGillenormand":14139,"Telecommunications":14140,"163":14141,"3056":14142,"first":14143,"lings":14144,"Ġcamer":14145,"Ġpsych":14146,"estial":14147,"Ġruff":14148,"Ġpreached":14149,"Ġoldest":14150,"Ġbreach":14151,"Ġhoarse":14152,"OLK":14153,"ographical":14154,"Ġhonesty":14155,"atiently":14156,"Ġ----------------------------------------------------------------":14157,"ĠWed":14158,"odia":14159,"ylvan":14160,"ĠBelize":14161,"6029":14162,"8078":14163,"iol":14164,"ĠBASE":14165,"ĠGilead":14166,"earing":14167,"Ġenvelope":14168,"ĠReuben":14169,"Ġlordship":14170,"Ġapproxim":14171,"3140":14172,"3456":14173,"Currency":14174,"ĠNorwegian":14175,"ifer":14176,"Ġmanuscript":14177,"Ġcler":14178,"Ġtermed":14179,"Ġmilit":14180,"uesday":14181,"Ġcoasts":14182,"2160":14183,"IK":14184,"laid":14185,"Ġscold":14186,"473":14187,"Ġcomplicated":14188,"Ġseasonal":14189,"Ġresembled":14190,"Ġancestors":14191,"3437":14192,"4043":14193,"4252":14194,"dist":14195,"ĠCreat":14196,"ĠHard":14197,"thought":14198,"Ġslid":14199,"former":14200,"Ġaffirm":14201,"ĠDemocr":14202,"Ġimpressions":14203,"ĠSomalia":14204,"human":14205,"0879":14206,"cat":14207,"Ġwoke":14208,"Ġmute":14209,"ĠShel":14210,"Ġcompr":14211,"Ġspears":14212,"arkas":14213,"ONA":14214,"376":14215,"Ġdestination":14216,"Ġflourish":14217,"ĠNamibia":14218,"Ġavenue":14219,"half":14220,"Ġflan":14221,"Ġappearing":14222,"ĠGabon":14223,"Ġofficials":14224,"ĠDesp":14225,"ĠHaiti":14226,"4658":14227,"4660":14228,"6261":14229,"7832":14230,"Flag":14231,"Ġ**********":14232,"vering":14233,"Ġpartially":14234,"Ġcommend":14235,"Ġcompound":14236,"Ġscram":14237,"Ġerr":14238,"Ġtearing":14239,"Ġsadness":14240,"Ġgreeted":14241,"Ġerected":14242,"Ġreappe":14243,"ĠPAGE":14244,"Ġalliance":14245,"ĠUz":14246,"izard":14247,"criptions":14248,"Ġlambs":14249,"Ġshuddered":14250,"Ġsublime":14251,"ĠJournal":14252,"tell":14253,"Ġresid":14254,",âĢĶâĢľ":14255,"2172":14256,"4635":14257,"Ġaer":14258,"Ġshift":14259,"Ġgrotes":14260,"121":14261,"ĠSey":14262,"Ġproportions":14263,"Ġimagin":14264,"ĠProgressive":14265,"Ġtedious":14266,"ĠGROWTH":14267,"7644":14268,"8105":14269,"bag":14270,"ĠDaguerre":14271,"Ġconspir":14272,"ronted":14273,"Ġphilosoph":14274,"Ġentertainment":14275,"ota":14276,"Ġevils":14277,"ĠSmall":14278,"Ġcrowned":14279,"Ġfoliage":14280,"Indeed":14281,"4024":14282,"Fiscal":14283,"Legal":14284,"Ports":14285,"gency":14286,"mo":14287,"ĠToo":14288,"Ġcomrades":14289,"Ġsob":14290,"Ġalley":14291,"olis":14292,"outs":14293,"Ġcollap":14294,"ombre":14295,"Ġguarded":14296,"Ġspreading":14297,"AYEAR":14298,"ĠEsau":14299,"Ġashore":14300,"ĠBahrain":14301,"bility":14302,"hur":14303,"ĠTarkas":14304,"ĠSad":14305,"Ġjer":14306,"Ġearned":14307,"Ġpresume":14308,"Ġsympt":14309,"Ġending":14310,"aska":14311,"ĠBenin":14312,"Ġpurchased":14313,"3870":14314,"5258":14315,"6655":14316,"7673":14317,"8261":14318,"March":14319,"aute":14320,"grow":14321,"Ġow":14322,"hath":14323,"stream":14324,"Ġ105":14325,"ĠAYEAR":14326,"Ġshekels":14327,"Ġplum":14328,"Ġ8708":14329,"ĠKitt":14330,"ritz":14331,"ĠSeven":14332,"Ġreaders":14333,"Ġpossessions":14334,"Ġangles":14335,"Ġrailroad":14336,"ĠBerlin":14337,"Ġbriefly":14338,"Ġethnic":14339,"Airports":14340,"Ġyawn":14341,"riv":14342,"ĠLADY":14343,"Ġanyhow":14344,"641":14345,"Ġheaded":14346,"Ġcob":14347,"ĠXI":14348,"Ġiii":14349,"Ġfarmers":14350,"Ġexecute":14351,"Ġcontributed":14352,
[...]
